▁xxunk	0
▁xxpad	0
▁xxbos	0
▁xxeos	0
▁xxfld	0
▁xxrep	0
▁xxwrep	0
▁xxup	0
▁xxmaj	0
<unk>	0
.	-3.341
▁the	-3.3546
,	-3.47268
s	-3.63891
▁a	-3.88261
▁and	-4.04502
▁to	-4.07053
▁of	-4.08075
'	-4.11961
br	-4.33205
▁/>	-4.35264
<	-4.39274
▁is	-4.40209
▁I	-4.53101
▁in	-4.54921
▁it	-4.60405
▁that	-4.70265
▁this	-4.75882
t	-4.82774
▁was	-4.98841
▁movie	-5.05963
-	-5.10216
ing	-5.12057
▁	-5.20092
▁for	-5.25644
▁with	-5.27505
ed	-5.29551
▁film	-5.3047
▁The	-5.39983
▁but	-5.42685
▁"	-5.46501
▁on	-5.47022
▁as	-5.47202
▁you	-5.48414
▁be	-5.505
ly	-5.5448
▁have	-5.5563
▁not	-5.61517
▁(	-5.63729
▁are	-5.66071
"	-5.71397
▁one	-5.74856
d	-5.853
▁like	-5.86483
▁his	-5.87669
▁all	-5.87782
▁he	-5.92142
▁at	-5.93189
▁they	-5.95726
▁so	-5.97742
▁an	-5.98756
▁just	-5.99446
▁by	-6.01874
)	-6.02925
▁who	-6.03298
▁or	-6.03565
▁from	-6.09803
▁about	-6.09904
▁out	-6.10989
e	-6.13734
y	-6.16573
?	-6.18749
▁can	-6.21517
▁It	-6.21741
▁some	-6.27567
▁her	-6.27696
m	-6.29969
▁has	-6.31043
▁good	-6.31904
▁bad	-6.32966
▁no	-6.34454
▁up	-6.38045
▁even	-6.38417
▁there	-6.41168
n	-6.42702
▁would	-6.42973
▁me	-6.4323
▁what	-6.43467
▁only	-6.43625
▁if	-6.44054
▁were	-6.46198
!	-6.46428
▁more	-6.4665
▁This	-6.46865
▁time	-6.49166
▁really	-6.49818
▁had	-6.5247
▁do	-6.53776
▁very	-6.58412
The	-6.59505
▁see	-6.59945
...	-6.60463
▁she	-6.62541
▁story	-6.6274
▁when	-6.62756
▁which	-6.63833
I	-6.63983
er	-6.64765
a	-6.65639
▁make	-6.6591
▁get	-6.66846
▁than	-6.67672
▁A	-6.68803
▁my	-6.68963
▁much	-6.70612
ve	-6.71358
▁people	-6.71466
:	-6.73208
▁been	-6.73599
▁their	-6.73631
▁could	-6.74043
▁into	-6.74119
re	-6.75922
▁because	-6.78703
▁made	-6.78862
▁don	-6.7927
▁any	-6.80374
▁-	-6.80723
▁plot	-6.82766
▁we	-6.85186
▁acting	-6.87938
▁will	-6.90446
▁how	-6.92304
▁way	-6.93302
▁them	-6.93713
▁too	-6.96875
▁other	-6.96924
▁know	-6.9991
▁him	-7.00119
▁watch	-7.01098
▁think	-7.02339
▁then	-7.03179
▁characters	-7.03922
▁show	-7.04288
▁over	-7.04455
▁most	-7.04788
▁first	-7.05165
r	-7.07385
▁character	-7.07863
▁And	-7.08313
▁movies	-7.08392
▁seen	-7.08464
▁off	-7.10136
▁But	-7.10427
▁better	-7.11125
▁thing	-7.1158
▁your	-7.11983
▁also	-7.12411
▁being	-7.12414
▁well	-7.12542
▁ever	-7.12934
▁'	-7.14033
▁say	-7.15126
or	-7.15207
;	-7.15226
es	-7.15277
▁did	-7.16146
▁little	-7.19743
▁after	-7.20677
▁end	-7.20719
▁great	-7.21142
▁many	-7.21281
▁never	-7.21365
).	-7.21813
▁There	-7.2221
▁where	-7.22338
▁something	-7.23755
▁does	-7.24006
al	-7.24771
▁go	-7.24797
▁i	-7.25819
▁should	-7.25921
▁two	-7.26176
▁scene	-7.26508
▁scenes	-7.26552
o	-7.27759
in	-7.29024
▁nothing	-7.2969
▁here	-7.30518
ll	-7.31472
▁didn	-7.34564
A	-7.34621
▁actors	-7.3504
▁such	-7.35449
▁through	-7.35696
S	-7.35704
▁<	-7.36042
▁In	-7.36585
▁films	-7.38474
▁doesn	-7.38638
▁give	-7.40734
▁watching	-7.40739
▁life	-7.41844
▁script	-7.41849
▁worst	-7.43015
▁S	-7.43212
▁look	-7.44025
▁If	-7.44135
▁these	-7.47149
▁going	-7.47613
▁minutes	-7.48108
▁want	-7.49639
▁actually	-7.49714
▁He	-7.49773
▁back	-7.50826
▁love	-7.51279
i	-7.51414
▁few	-7.51513
▁director	-7.5179
▁pretty	-7.51827
▁un	-7.51964
▁enough	-7.52145
▁find	-7.52493
▁seem	-7.52554
▁real	-7.52577
▁B	-7.52761
▁its	-7.53348
▁man	-7.53959
and	-7.54972
▁those	-7.5605
▁seems	-7.5711
▁why	-7.57426
▁funny	-7.59091
▁same	-7.59778
▁least	-7.60111
▁got	-7.60603
▁whole	-7.61337
▁thought	-7.61564
▁part	-7.62042
▁work	-7.62421
▁horror	-7.63661
/	-7.64147
),	-7.64153
▁still	-7.65433
▁fact	-7.65732
▁down	-7.65771
▁old	-7.66132
▁though	-7.66503
▁around	-7.66538
▁another	-7.66585
▁before	-7.67282
c	-7.67833
▁kind	-7.68388
▁guy	-7.68435
p	-7.69869
▁big	-7.70305
▁reason	-7.70311
▁lot	-7.70347
▁us	-7.72362
▁might	-7.72604
▁best	-7.72711
on	-7.73387
▁makes	-7.73493
▁cast	-7.7441
the	-7.74552
g	-7.74556
▁P	-7.74727
▁money	-7.75785
l	-7.75807
▁original	-7.76174
▁stupid	-7.7697
it	-7.77726
▁take	-7.78833
▁every	-7.79032
▁anything	-7.79141
▁C	-7.7965
▁far	-7.79932
▁awful	-7.7994
▁They	-7.80159
▁right	-7.80849
▁while	-7.81651
▁interesting	-7.83133
▁again	-7.83738
▁between	-7.83772
▁isn	-7.83962
▁point	-7.84251
▁waste	-7.84294
▁gets	-7.84712
an	-7.84879
▁years	-7.85136
ion	-7.85262
le	-7.85426
▁long	-7.85463
ic	-7.85627
▁hard	-7.85652
▁re	-7.8585
▁believe	-7.86149
▁T	-7.87296
▁What	-7.87483
▁2	-7.8766
▁away	-7.88449
▁things	-7.88828
▁done	-7.8943
▁music	-7.8954
▁comedy	-7.89676
▁almost	-7.90173
b	-7.90754
▁You	-7.91028
▁boring	-7.91049
▁half	-7.91528
▁action	-7.91546
th	-7.91548
w	-7.91609
▁put	-7.92017
▁feel	-7.92105
▁So	-7.92604
est	-7.92983
▁sure	-7.93026
▁without	-7.93163
▁am	-7.93697
▁must	-7.93917
en	-7.94124
▁saw	-7.94384
▁bit	-7.94408
▁trying	-7.94861
▁may	-7.95895
▁making	-7.95932
This	-7.96292
▁idea	-7.97223
▁terrible	-7.97368
▁poor	-7.97477
▁new	-7.9825
▁let	-7.98531
▁quite	-7.98869
▁come	-7.99021
▁role	-7.99309
▁effects	-7.99427
▁world	-7.99903
▁own	-8.00112
▁last	-8.00412
▁woman	-8.00937
▁someone	-8.00996
▁looking	-8.0154
k	-8.01635
▁anyone	-8.01704
▁She	-8.02884
▁probably	-8.03016
▁wasn	-8.03226
ra	-8.03442
h	-8.03447
ity	-8.04137
▁girl	-8.04754
▁now	-8.0487
▁found	-8.05172
▁TV	-8.05238
▁ending	-8.05524
ur	-8.05583
".	-8.05713
▁That	-8.058
▁use	-8.06267
▁series	-8.06272
▁F	-8.06728
▁E	-8.06938
▁M	-8.07179
▁hav	-8.0726
▁looks	-8.07832
▁low	-8.07849
u	-8.07851
T	-8.07858
▁screen	-8.07897
▁become	-8.07936
▁sense	-8.09001
▁tell	-8.09031
▁main	-8.09215
▁book	-8.09234
▁since	-8.09472
▁rather	-8.09593
▁b	-8.09941
▁times	-8.10618
▁else	-8.1073
▁sex	-8.11086
▁young	-8.11303
▁watched	-8.11667
▁actor	-8.11855
--	-8.12029
▁read	-8.12283
▁supposed	-8.12518
st	-8.1282
▁set	-8.12926
se	-8.13301
able	-8.14128
less	-8.14142
man	-8.14946
▁place	-8.14952
as	-8.1509
▁rest	-8.15165
▁de	-8.15591
▁audience	-8.15788
▁turn	-8.15858
C	-8.16074
▁goes	-8.16236
▁completely	-8.16274
▁shot	-8.16589
ness	-8.16607
▁worse	-8.16638
▁try	-8.16666
▁mean	-8.17263
▁always	-8.17325
▁play	-8.19035
▁course	-8.19096
ie	-8.19118
▁&	-8.19166
▁instead	-8.19721
▁said	-8.19722
▁couldn	-8.19777
▁mind	-8.19823
ar	-8.20174
ting	-8.20314
▁family	-8.20365
▁left	-8.20983
▁DVD	-8.21002
▁camera	-8.21019
",	-8.21048
▁under	-8.21658
▁three	-8.22256
▁keep	-8.22261
▁ga	-8.22462
M	-8.22622
▁short	-8.22777
▁less	-8.23338
It	-8.23864
▁horrible	-8.24208
▁help	-8.24209
ch	-8.24368
▁start	-8.2492
▁comes	-8.24966
up	-8.25085
E	-8.2528
L	-8.25418
ies	-8.25778
▁fun	-8.26256
▁special	-8.26478
▁10	-8.26615
▁Not	-8.26619
ri	-8.26779
▁We	-8.27004
at	-8.27813
▁worth	-8.28016
B	-8.28053
▁simply	-8.28222
▁death	-8.28222
▁dialogue	-8.28225
▁Why	-8.28307
▁For	-8.28658
▁lead	-8.28746
▁kids	-8.28917
▁either	-8.28944
▁When	-8.2899
▁No	-8.28994
▁As	-8.29509
▁wrong	-8.29597
ers	-8.29686
P	-8.29957
O	-8.30782
▁D	-8.31217
is	-8.31289
▁day	-8.31327
el	-8.31696
▁De	-8.31755
▁To	-8.31939
▁s	-8.32255
▁production	-8.32435
▁laugh	-8.32913
ro	-8.32914
(	-8.33102
▁fan	-8.33439
▁3	-8.33581
▁women	-8.33838
R	-8.34559
▁understand	-8.34666
▁himself	-8.35292
▁black	-8.35308
▁line	-8.35446
▁budget	-8.35453
▁entire	-8.35631
ation	-8.35832
▁title	-8.36028
te	-8.36225
ment	-8.36495
▁wife	-8.36779
▁video	-8.36804
▁used	-8.37468
▁version	-8.37515
▁sort	-8.37573
▁name	-8.37637
▁--	-8.37641
▁lines	-8.37995
z	-8.38049
▁couple	-8.38267
f	-8.38437
▁car	-8.38771
▁problem	-8.39454
▁given	-8.39469
▁care	-8.39868
▁certain	-8.40557
D	-8.40569
to	-8.40601
▁O	-8.41044
▁different	-8.4136
▁our	-8.4143
▁performance	-8.41843
▁won	-8.42125
▁star	-8.4246
▁second	-8.42649
un	-8.42659
▁felt	-8.43694
▁flick	-8.44001
▁everything	-8.44503
▁One	-8.44815
bsolutely	-8.44878
▁played	-8.45192
▁yet	-8.45335
▁crap	-8.45414
N	-8.457
▁Don	-8.45911
▁both	-8.45953
us	-8.45969
▁went	-8.46156
▁Well	-8.46273
ry	-8.46275
▁getting	-8.4633
▁until	-8.46378
▁W	-8.46666
▁piece	-8.46737
▁head	-8.46852
▁everyone	-8.46961
▁lack	-8.46994
▁killer	-8.47099
▁need	-8.4714
▁person	-8.47412
▁American	-8.47719
▁Hollywood	-8.47776
▁Even	-8.47845
▁dur	-8.47977
▁nice	-8.48183
."	-8.48373
ous	-8.48484
▁together	-8.48593
▁face	-8.48754
v	-8.49186
▁father	-8.49471
▁year	-8.49504
▁night	-8.49508
▁leave	-8.50288
▁ridiculous	-8.50289
▁guess	-8.50303
▁high	-8.50625
▁add	-8.51117
▁school	-8.51177
▁wanted	-8.51663
▁seeing	-8.51759
▁kid	-8.51987
▁maybe	-8.52087
▁shows	-8.52119
▁However	-8.52124
▁All	-8.52187
▁enjoy	-8.53183
▁dead	-8.53405
▁act	-8.53482
▁extreme	-8.53761
▁doing	-8.53762
▁1	-8.54294
▁quality	-8.54652
▁written	-8.54657
▁mother	-8.54675
ok	-8.54765
▁stars	-8.5491
▁G	-8.54938
ard	-8.55242
▁close	-8.55486
▁job	-8.55541
▁John	-8.55553
▁co	-8.55915
▁run	-8.56461
▁annoying	-8.5651
▁takes	-8.56668
▁H	-8.56883
▁especially	-8.57423
▁tru	-8.57905
▁R	-8.58202
▁cheap	-8.5825
▁writing	-8.58293
▁episode	-8.58383
▁gore	-8.58692
▁full	-8.58881
ter	-8.58883
ant	-8.59138
▁playing	-8.59141
▁case	-8.59213
▁moments	-8.593
▁true	-8.59396
▁once	-8.59605
il	-8.60066
▁each	-8.60115
▁My	-8.60675
ce	-8.60749
▁sound	-8.6079
▁girls	-8.60906
ty	-8.61053
▁myself	-8.61054
▁L	-8.61103
▁hope	-8.61258
▁hour	-8.61335
*	-8.61507
G	-8.61743
ist	-8.61805
lo	-8.61808
ish	-8.61912
▁N	-8.61985
▁later	-8.62092
▁plays	-8.62197
▁example	-8.62211
▁wonder	-8.62512
▁slow	-8.62579
▁complete	-8.62626
▁c	-8.62642
▁came	-8.6285
▁direction	-8.62989
▁decent	-8.62994
▁THE	-8.63016
▁friends	-8.63377
▁remember	-8.63424
▁small	-8.63938
▁itself	-8.63939
▁already	-8.63952
▁stop	-8.63955
▁however	-8.64019
Y	-8.6402
▁hand	-8.64027
▁liked	-8.64631
▁men	-8.64762
▁tries	-8.64931
▁How	-8.65032
▁attempt	-8.65257
▁along	-8.65391
W	-8.65477
li	-8.66496
▁home	-8.66883
▁children	-8.66914
▁fight	-8.66917
There	-8.6729
▁At	-8.67526
ma	-8.68208
am	-8.68344
ive	-8.68349
▁recommend	-8.68421
▁obvious	-8.69591
▁manage	-8.69867
F	-8.69891
▁dialog	-8.69966
▁thinking	-8.70067
▁totally	-8.70226
▁live	-8.70232
▁killed	-8.70397
▁call	-8.7053
▁classic	-8.70555
▁called	-8.7061
▁looked	-8.70708
▁blood	-8.7082
▁stuff	-8.71014
▁bunch	-8.71017
▁late	-8.71046
ian	-8.71061
H	-8.71422
▁fans	-8.71681
▁next	-8.72065
▁matter	-8.72065
K	-8.72097
▁body	-8.72119
▁Oh	-8.72236
la	-8.72307
out	-8.726
▁saying	-8.7283
▁lame	-8.72937
▁guys	-8.73082
▁dull	-8.73141
▁entertaining	-8.73236
▁Then	-8.73402
▁happens	-8.73483
▁friend	-8.73814
▁boy	-8.73885
▁art	-8.74125
▁etc	-8.74204
▁white	-8.74261
ir	-8.74339
▁K	-8.74475
▁heard	-8.74709
▁wouldn	-8.7481
▁beautiful	-8.75291
▁themselves	-8.75291
▁predictable	-8.75316
▁early	-8.75333
▁picture	-8.75919
▁several	-8.76392
▁style	-8.76467
▁On	-8.76513
▁wish	-8.76717
ol	-8.76744
▁throw	-8.77499
▁Just	-8.77506
▁	-8.77516
▁interest	-8.77527
▁side	-8.77824
▁appear	-8.78243
▁hit	-8.78295
In	-8.7838
▁badly	-8.78676
▁bring	-8.78925
▁happen	-8.79414
ful	-8.79511
▁dumb	-8.79829
▁OK	-8.79915
no	-8.803
▁mess	-8.80491
▁viewer	-8.80672
▁behind	-8.80926
▁level	-8.80939
▁With	-8.81007
▁4	-8.81733
▁poorly	-8.81819
▁save	-8.81856
▁feeling	-8.82016
but	-8.82022
although	-8.82117
▁hell	-8.82131
▁based	-8.82148
▁house	-8.82266
▁talking	-8.82608
▁light	-8.82904
▁starts	-8.83238
▁drama	-8.83262
▁daughter	-8.83292
▁tried	-8.83315
▁Do	-8.83356
▁top	-8.83527
▁5	-8.83574
ever	-8.83853
▁beginning	-8.8444
▁expect	-8.84501
▁After	-8.84523
▁Also	-8.84528
ally	-8.84593
▁Now	-8.84621
▁often	-8.84918
spite	-8.85079
▁hours	-8.8535
pe	-8.85616
▁writer	-8.85617
▁humor	-8.8563
▁rent	-8.86401
one	-8.86477
If	-8.86521
▁started	-8.866
▁kill	-8.86633
▁moment	-8.86716
be	-8.86771
▁actress	-8.8678
▁none	-8.86814
▁lost	-8.86865
▁against	-8.87009
▁eyes	-8.87212
!"	-8.87762
▁non	-8.8785
ent	-8.88079
yond	-8.88087
▁premise	-8.88099
▁genre	-8.88099
▁stay	-8.88148
▁utter	-8.88163
▁disappointed	-8.88178
▁deal	-8.88248
▁finally	-8.88357
▁performances	-8.8853
▁Man	-8.8864
▁U	-8.89047
▁effort	-8.89208
▁yourself	-8.89349
▁silly	-8.89349
▁brother	-8.89351
▁group	-8.89366
▁involved	-8.89426
ha	-8.89519
▁Mr	-8.89687
▁shots	-8.89742
▁happened	-8.89906
▁walk	-8.90026
▁review	-8.9037
▁cut	-8.90469
▁jokes	-8.9053
▁human	-8.90559
▁self	-8.90597
▁major	-8.90615
▁material	-8.90615
▁editing	-8.90657
▁Unfortunately	-8.90703
▁Some	-8.90883
▁talent	-8.91239
ling	-8.913
like	-8.91366
▁sub	-8.9176
▁child	-8.91869
▁game	-8.92109
▁seriously	-8.92256
▁wasted	-8.92312
▁falls	-8.92375
▁soon	-8.92744
▁voice	-8.93142
▁police	-8.93197
▁past	-8.93222
▁weak	-8.93224
▁room	-8.93328
ay	-8.93368
ted	-8.93871
▁talk	-8.93935
um	-8.93978
sh	-8.94448
fi	-8.94482
▁cinema	-8.94487
▁evil	-8.94572
▁pay	-8.94581
▁word	-8.94657
▁wants	-8.94981
▁opening	-8.94989
▁obviously	-8.95017
▁d	-8.9516
▁p	-8.9538
he	-8.95568
▁possible	-8.95844
▁directed	-8.96117
▁turns	-8.963
id	-8.96781
▁near	-8.96807
et	-8.97082
▁cool	-8.97262
▁throughout	-8.97279
ck	-8.97301
▁joke	-8.97307
of	-8.97674
▁His	-8.97775
▁Or	-8.9784
▁sad	-8.98067
▁meet	-8.98108
And	-8.98126
if	-8.98271
▁clear	-8.98276
for	-8.98429
▁attention	-8.98596
▁perhaps	-8.986
▁except	-8.98638
▁NOT	-8.98748
▁forward	-8.98868
▁class	-8.99335
mp	-8.99375
ne	-8.99639
▁Bo	-8.9968
▁Michael	-8.9999
▁James	-9.00013
▁order	-9.00048
▁First	-9.00083
▁definite	-9.00228
▁hate	-9.00646
tic	-9.00651
▁Be	-9.00779
▁pass	-9.00839
▁serious	-9.00969
▁actual	-9.00975
▁single	-9.01383
▁spend	-9.01439
ey	-9.01454
▁Of	-9.01518
▁pre	-9.01529
▁others	-9.01568
▁told	-9.0192
▁e	-9.02135
But	-9.02263
not	-9.02336
▁huge	-9.02792
▁support	-9.02792
▁chance	-9.02796
▁fake	-9.02799
▁development	-9.02802
▁experience	-9.0282
old	-9.03213
▁coming	-9.03296
▁taken	-9.03347
▁able	-9.03608
ul	-9.03758
▁local	-9.04241
▁general	-9.04241
▁sequel	-9.04241
▁respect	-9.04261
▁pointless	-9.04338
▁canno	-9.0438
▁monster	-9.0459
▁appears	-9.04722
ism	-9.04871
J	-9.05136
who	-9.0525
▁decide	-9.05423
▁says	-9.05428
▁straight	-9.05711
▁violence	-9.05711
▁change	-9.05735
go	-9.05817
ta	-9.06108
▁heart	-9.06343
▁ex	-9.06407
▁J	-9.06745
ther	-9.06788
?"	-9.07103
▁brain	-9.07193
▁running	-9.07206
▁God	-9.07428
▁career	-9.07517
▁result	-9.07549
ig	-9.07562
▁kne	-9.076
▁war	-9.07811
ary	-9.07947
▁credits	-9.08366
▁middle	-9.08719
▁husband	-9.08749
▁dark	-9.08769
9	-9.08773
▁sorry	-9.08775
▁subject	-9.08865
▁forced	-9.08887
▁sit	-9.09383
▁*	-9.09404
▁follow	-9.09552
What	-9.09707
ia	-9.09832
▁Dr	-9.10213
▁excellent	-9.10258
▁slasher	-9.10271
▁Maybe	-9.10369
▁fast	-9.10381
▁across	-9.10406
way	-9.1042
▁decided	-9.10561
kept	-9.10614
▁theater	-9.10688
▁Ra	-9.10705
ut	-9.10723
▁number	-9.10732
▁type	-9.10771
mo	-9.1146
▁taking	-9.11827
▁20	-9.1183
▁five	-9.11837
min	-9.11858
▁hold	-9.11929
▁Lee	-9.11932
▁ends	-9.12086
▁events	-9.12145
▁strange	-9.12882
▁killing	-9.13099
time	-9.13211
we	-9.13244
ily	-9.1339
▁score	-9.13424
▁scary	-9.13446
▁message	-9.13463
▁Whil	-9.13532
▁son	-9.1368
▁due	-9.13891
▁question	-9.13958
age	-9.14043
▁parts	-9.1409
▁wait	-9.14506
▁trash	-9.14797
▁f	-9.14808
ph	-9.1494
▁cheesy	-9.1502
▁female	-9.1502
so	-9.15036
▁bored	-9.15135
▁storyline	-9.15152
▁age	-9.15364
▁usually	-9.1541
▁power	-9.15576
3	-9.15619
▁ago	-9.15758
▁lives	-9.15877
ate	-9.15917
▁An	-9.15961
▁pick	-9.16172
▁days	-9.1621
▁figure	-9.16376
▁hero	-9.16392
!!!	-9.16533
▁Ha	-9.16588
▁fine	-9.16622
▁television	-9.1666
▁Instead	-9.16683
▁basically	-9.16689
▁exactly	-9.16781
▁comment	-9.16817
da	-9.16855
▁roles	-9.16855
▁flat	-9.16872
▁Z	-9.17109
U	-9.17166
▁V	-9.1732
▁Who	-9.17348
▁feels	-9.17487
▁open	-9.17724
▁mention	-9.17829
▁shown	-9.18003
▁total	-9.18029
ine	-9.18113
▁stories	-9.18326
▁30	-9.18329
▁easily	-9.18341
▁mostly	-9.18362
▁free	-9.18371
▁anyway	-9.18448
▁aren	-9.18809
▁avoid	-9.18917
▁New	-9.191
ster	-9.19205
ex	-9.19385
ance	-9.19668
po	-9.19721
▁ten	-9.19781
▁comic	-9.19808
▁write	-9.19931
▁similar	-9.20021
▁spent	-9.20032
▁stick	-9.20034
▁living	-9.20045
▁average	-9.20065
▁documentary	-9.20084
▁box	-9.20109
▁stand	-9.20175
▁apparently	-9.20278
▁writers	-9.20318
▁cop	-9.20326
7	-9.20633
1	-9.2064
me	-9.20722
dy	-9.21041
`	-9.21184
which	-9.21193
▁view	-9.21238
▁bother	-9.21585
▁words	-9.21714
▁English	-9.21738
▁garbage	-9.21745
▁history	-9.21747
▁sometimes	-9.21751
▁pull	-9.21759
x	-9.21785
▁somewhat	-9.21863
▁particularly	-9.22049
▁...	-9.22241
▁clearly	-9.22245
▁giv	-9.22431
▁hear	-9.22439
▁explain	-9.22986
▁fails	-9.23012
▁ask	-9.23019
im	-9.23324
▁pathetic	-9.235
▁hair	-9.23501
?)	-9.23519
▁Dead	-9.23526
▁showing	-9.23563
▁sets	-9.24356
▁buy	-9.24663
▁cover	-9.24793
▁St	-9.24853
vi	-9.24868
▁usual	-9.24902
▁dis	-9.24979
▁admit	-9.25285
▁incredibly	-9.25285
▁cinematography	-9.25291
▁four	-9.25295
▁David	-9.25341
▁reality	-9.2552
▁nearly	-9.25811
▁meant	-9.25838
son	-9.25962
▁80	-9.25999
▁move	-9.26023
▁villain	-9.26313
▁Yes	-9.26463
▁song	-9.26579
▁nor	-9.26882
▁super	-9.27006
▁shame	-9.27076
▁suggest	-9.27104
▁crime	-9.27108
ho	-9.27174
▁ma	-9.27285
▁needs	-9.27438
by	-9.27741
▁elements	-9.27825
gan	-9.27866
As	-9.27896
▁laughs	-9.28327
▁rating	-9.2837
▁painful	-9.28566
den	-9.28602
▁La	-9.2874
▁truth	-9.28869
▁opinion	-9.28955
▁relationship	-9.28956
▁large	-9.28956
▁typical	-9.28992
▁Robert	-9.2901
▁reviews	-9.2908
4	-9.29188
▁musical	-9.29245
▁missed	-9.29353
▁Me	-9.29391
ton	-9.29537
!)	-9.29683
▁songs	-9.2979
▁die	-9.30034
▁final	-9.30225
▁hardly	-9.30622
▁realize	-9.30658
▁novel	-9.30832
")	-9.30834
▁became	-9.30842
▁excuse	-9.30842
▁entertainment	-9.3085
▁check	-9.30901
▁god	-9.31204
5	-9.31401
▁fall	-9.31531
▁learn	-9.31621
V	-9.31671
▁Re	-9.32055
▁Go	-9.32301
nother	-9.32553
▁period	-9.32765
▁simple	-9.32766
▁potential	-9.32766
▁male	-9.32808
▁Richard	-9.32818
▁exception	-9.32821
▁please	-9.32837
▁redeeming	-9.32901
▁town	-9.32967
▁ended	-9.33087
▁whatever	-9.33088
▁pure	-9.33092
2	-9.33142
▁gay	-9.3341
So	-9.33648
▁Mar	-9.33649
▁Her	-9.33712
▁th	-9.33752
▁enjoyed	-9.33893
▁comments	-9.33907
▁air	-9.34005
▁appeal	-9.34101
op	-9.34157
movie	-9.34174
co	-9.34219
▁leads	-9.34372
▁German	-9.34512
▁cartoon	-9.34726
▁positive	-9.34726
▁odd	-9.34727
▁above	-9.34728
▁footage	-9.3473
▁disappointment	-9.34732
▁sister	-9.34734
▁doctor	-9.34769
▁store	-9.34806
▁unfortunately	-9.34824
fully	-9.34839
▁murder	-9.35184
▁hot	-9.35219
▁70	-9.35242
▁means	-9.3539
ably	-9.35396
▁War	-9.35659
side	-9.36653
▁public	-9.36694
▁IMDb	-9.36729
▁British	-9.3673
ley	-9.36732
▁la	-9.36739
▁15	-9.36747
▁forget	-9.36812
▁19	-9.3682
▁list	-9.36834
▁Most	-9.36847
▁allow	-9.36891
▁failed	-9.37008
▁Fro	-9.3709
▁directing	-9.37142
ca	-9.37167
▁t	-9.37265
va	-9.37359
cu	-9.37577
▁expected	-9.376
▁problems	-9.37609
▁r	-9.37732
▁producers	-9.37854
▁Ma	-9.38119
gest	-9.38268
▁offer	-9.384
▁imagine	-9.38472
▁sp	-9.3864
▁space	-9.38764
▁doubt	-9.38767
▁remote	-9.38767
▁mix	-9.38772
▁remake	-9.38774
▁baby	-9.38804
di	-9.38832
▁overall	-9.38837
▁90	-9.38866
▁setting	-9.3888
▁disappointing	-9.38923
▁yes	-9.39006
▁released	-9.39077
▁feature	-9.39207
ap	-9.39266
ile	-9.398
▁mis	-9.39815
▁form	-9.40087
ain	-9.40126
▁eye	-9.4038
▁begin	-9.40478
▁sexual	-9.40528
▁count	-9.40829
▁Film	-9.4085
▁hurt	-9.40851
▁taste	-9.40851
▁Night	-9.40867
▁weird	-9.40875
▁nowhere	-9.40909
▁somewhere	-9.40913
▁wrote	-9.40915
▁laughable	-9.40937
!!	-9.40957
▁barely	-9.4098
em	-9.41481
▁viewing	-9.41586
▁attack	-9.41775
▁twist	-9.42068
▁attempts	-9.42244
om	-9.42288
ING	-9.42355
▁sequence	-9.42482
▁con	-9.42669
ring	-9.42755
▁bar	-9.42756
▁suspense	-9.42962
▁common	-9.42981
▁impression	-9.42986
▁amazing	-9.42988
▁popular	-9.43009
▁anti	-9.43038
▁reading	-9.43056
off	-9.43064
▁somehow	-9.43159
ci	-9.43254
do	-9.43342
▁land	-9.43453
▁6	-9.43458
▁viewers	-9.43616
▁wonderful	-9.43645
▁dog	-9.4383
ag	-9.43888
well	-9.44059
▁step	-9.44073
▁deserves	-9.44361
line	-9.44398
▁suit	-9.44515
▁By	-9.44528
▁consider	-9.44757
▁release	-9.44904
▁easy	-9.45152
▁amusing	-9.45165
▁tale	-9.45173
▁possibly	-9.45183
▁win	-9.4528
▁water	-9.45315
ated	-9.45318
▁theme	-9.45356
▁thriller	-9.45397
▁w	-9.45399
▁kills	-9.45476
▁ideas	-9.45662
▁missing	-9.45662
▁remind	-9.45725
ba	-9.45909
▁sat	-9.45927
ab	-9.4639
▁door	-9.46602
▁sick	-9.46608
ight	-9.46679
▁provide	-9.46701
with	-9.4683
▁present	-9.46895
▁Movie	-9.46919
▁drive	-9.47012
▁laughing	-9.4702
ng	-9.47041
▁gun	-9.47137
▁bizarre	-9.47374
▁college	-9.47374
▁important	-9.47407
▁creepy	-9.47443
how	-9.47456
My	-9.47549
▁rock	-9.47567
▁surprised	-9.47619
▁fairly	-9.47691
▁portrayed	-9.47692
▁stage	-9.48026
▁upon	-9.48351
led	-9.48376
▁King	-9.48652
▁needed	-9.48763
▁acted	-9.48765
unless	-9.48925
ip	-9.49128
▁Oscar	-9.4922
▁Co	-9.49421
▁fire	-9.49484
....	-9.4949
na	-9.4956
▁pro	-9.49625
	-9.49647
▁trailer	-9.49647
▁Japanese	-9.49647
▁random	-9.49649
▁plain	-9.4965
▁earth	-9.49655
▁country	-9.49661
▁secret	-9.49666
▁purpose	-9.49666
▁computer	-9.49667
▁embarrassing	-9.4971
ner	-9.50167
▁woods	-9.50556
ger	-9.51084
▁shoot	-9.51401
art	-9.51419
▁roll	-9.51506
▁st	-9.51635
▁accent	-9.51655
▁situation	-9.51678
▁value	-9.51704
▁effect	-9.51784
▁camp	-9.51819
▁points	-9.51868
▁touch	-9.51891
▁herself	-9.51972
▁mediocre	-9.51973
▁okay	-9.51973
▁confusing	-9.51973
▁create	-9.51975
▁favorite	-9.51975
▁alone	-9.51976
▁lady	-9.51985
▁background	-9.51986
▁screenplay	-9.51989
▁paid	-9.52013
▁team	-9.52015
▁unbelievable	-9.52044
▁crazy	-9.52045
▁cause	-9.52215
nna	-9.5223
▁US	-9.5248
▁sequences	-9.52518
hi	-9.52628
▁sh	-9.52719
▁Let	-9.52748
ew	-9.52849
▁works	-9.52908
▁answer	-9.52909
▁walking	-9.53102
▁Ca	-9.53445
▁speak	-9.53514
work	-9.53802
▁Ro	-9.53831
ach	-9.53932
▁perfect	-9.53988
▁minute	-9.54328
de	-9.54347
▁brilliant	-9.54353
▁hilarious	-9.54353
▁machine	-9.54353
▁heavy	-9.54354
▁future	-9.54355
▁agree	-9.54359
▁scientist	-9.54361
▁unfunny	-9.54362
▁girlfriend	-9.54362
▁modern	-9.54415
▁Although	-9.54431
▁enjoyable	-9.54434
▁Peter	-9.54499
▁zombies	-9.5452
▁red	-9.54564
▁quickly	-9.54674
au	-9.55074
▁state	-9.55114
uck	-9.55657
▁Ho	-9.55919
ron	-9.55949
▁exist	-9.55987
▁9	-9.56173
▁cat	-9.5618
▁7	-9.56211
▁jump	-9.56282
▁vi	-9.56344
▁particular	-9.56398
that	-9.56543
▁fit	-9.56585
▁zombie	-9.56617
▁whe	-9.56625
▁dance	-9.56762
You	-9.56771
▁London	-9.56792
▁choice	-9.56792
▁project	-9.56792
▁regard	-9.56792
▁clever	-9.56797
que	-9.56799
ke	-9.56814
▁pace	-9.56851
▁George	-9.56882
▁famous	-9.56896
▁sign	-9.5696
▁filled	-9.56964
▁begins	-9.57434
ER	-9.57837
▁worked	-9.57864
over	-9.57917
light	-9.58284
▁working	-9.58557
ious	-9.58593
▁sleep	-9.58663
ible	-9.58666
budget	-9.58739
right	-9.5877
▁filmmakers	-9.58815
▁trouble	-9.58984
0	-9.59041
▁teen	-9.59106
▁Ar	-9.59135
▁Bill	-9.5921
▁color	-9.59276
▁difficult	-9.59292
▁nudity	-9.59292
▁Italian	-9.59293
▁damn	-9.59293
▁impossible	-9.59293
▁further	-9.59294
▁promise	-9.59295
▁Jack	-9.59297
▁wooden	-9.59307
▁skip	-9.59317
▁among	-9.5932
▁political	-9.59328
▁mystery	-9.59328
▁Bad	-9.59416
▁loud	-9.59424
king	-9.59652
▁equal	-9.59692
▁soul	-9.59796
▁emotional	-9.60158
▁waiting	-9.60244
▁rented	-9.60351
▁cr	-9.60528
▁Tom	-9.60704
ating	-9.60843
▁trip	-9.61216
▁cliché	-9.61504
▁adult	-9.61778
▁loved	-9.61813
▁ghost	-9.61856
▁soundtrack	-9.61856
▁tension	-9.6186
▁hoping	-9.61864
▁sitting	-9.61911
lly	-9.6195
▁glad	-9.61958
▁Like	-9.61971
▁House	-9.61997
▁mark	-9.61998
▁telling	-9.62048
▁copy	-9.62179
lock	-9.62523
▁considering	-9.62577
▁features	-9.62617
tion	-9.62637
▁torture	-9.62837
ence	-9.62883
▁interested	-9.63043
top	-9.63126
▁Here	-9.63245
▁showed	-9.63302
▁whom	-9.63348
▁plan	-9.63396
ical	-9.6391
▁build	-9.6393
▁strong	-9.63946
▁lots	-9.64049
ney	-9.641
For	-9.64131
▁post	-9.6414
▁surprise	-9.64141
▁describe	-9.64194
▁business	-9.64457
all	-9.64477
▁Disney	-9.64488
▁eventually	-9.64515
▁married	-9.64515
▁happy	-9.64537
▁catch	-9.64553
ren	-9.64583
ina	-9.64664
▁mere	-9.64743
▁control	-9.64943
▁former	-9.65075
com	-9.65118
ier	-9.65194
▁cute	-9.65227
▁Too	-9.65399
ow	-9.6545
bad	-9.65584
▁spirit	-9.65603
▁highly	-9.65731
▁casting	-9.65876
▁Mi	-9.65893
▁miss	-9.65905
▁ways	-9.6601
▁fighting	-9.66102
▁rip	-9.66218
▁break	-9.66602
ee	-9.66923
▁America	-9.67031
een	-9.67114
▁fault	-9.67191
▁animation	-9.67191
▁smart	-9.67191
▁concept	-9.67192
▁earlier	-9.67194
▁fear	-9.67212
▁cross	-9.67262
▁Love	-9.67285
▁Watch	-9.67291
▁including	-9.67429
▁band	-9.67449
▁imp	-9.67504
▁par	-9.67537
ial	-9.67565
▁Alex	-9.67608
▁pain	-9.67674
▁aim	-9.67686
▁Y	-9.67803
???	-9.68018
▁starr	-9.6836
▁today	-9.68631
▁happening	-9.68655
▁inside	-9.6868
wa	-9.68781
ud	-9.68794
▁focus	-9.68812
ping	-9.68816
▁knows	-9.69013
▁follows	-9.6916
what	-9.69218
▁sounds	-9.69253
end	-9.69455
ze	-9.69457
che	-9.69459
▁success	-9.69462
▁/>*	-9.69489
ti	-9.69571
▁fair	-9.69599
rought	-9.69638
▁serve	-9.69673
▁suck	-9.69729
▁arm	-9.69741
▁di	-9.69756
ky	-9.69798
▁include	-9.69829
▁absurd	-9.69933
don	-9.69967
▁French	-9.69969
▁amount	-9.69969
▁pretentious	-9.69969
▁depth	-9.69969
▁loose	-9.69969
▁appreciate	-9.69969
▁desperate	-9.69971
▁spot	-9.69982
▁crew	-9.69989
▁disaster	-9.70002
▁freak	-9.70008
To	-9.70042
cr	-9.70075
▁motion	-9.701
▁Black	-9.70103
▁Indian	-9.70143
▁actresses	-9.70163
▁gi	-9.70172
▁o	-9.70197
▁situations	-9.70322
▁Sa	-9.70341
▁Al	-9.70364
▁created	-9.70499
He	-9.70544
nt	-9.70599
▁shooting	-9.70701
▁mentioned	-9.70828
▁following	-9.71081
pi	-9.71131
ot	-9.7122
▁force	-9.71333
mar	-9.71381
per	-9.71561
▁prove	-9.71652
ak	-9.71664
▁emotion	-9.71846
▁hands	-9.71941
No	-9.72111
▁oh	-9.72206
▁insult	-9.72212
▁charm	-9.72244
os	-9.72306
▁previous	-9.72408
ass	-9.7252
▁explanation	-9.72826
▁whatsoever	-9.72826
▁naked	-9.72826
▁angry	-9.72827
▁steal	-9.72883
▁disturbing	-9.72906
▁stopp	-9.72915
coming	-9.72921
▁social	-9.72958
▁intended	-9.72963
▁season	-9.73024
▁recently	-9.73178
▁wall	-9.73305
▁lacks	-9.73392
iness	-9.73633
oh	-9.73702
▁hated	-9.73773
▁ta	-9.73812
▁Mo	-9.73874
?!	-9.74061
▁direct	-9.7412
▁cars	-9.74175
▁beat	-9.74206
▁entirely	-9.74399
▁William	-9.74434
▁fashion	-9.74473
ack	-9.74551
▁questions	-9.74699
▁shock	-9.74844
ens	-9.74862
ice	-9.74974
▁costumes	-9.75014
▁kick	-9.75192
▁Ne	-9.75233
▁surely	-9.75245
▁destroy	-9.75247
▁deep	-9.7525
▁deliver	-9.75288
io	-9.75296
her	-9.75305
▁brief	-9.75356
▁quick	-9.75372
▁These	-9.75499
▁genuine	-9.75767
▁irritating	-9.75767
▁million	-9.75767
▁revenge	-9.75767
▁romantic	-9.75767
▁leaving	-9.75769
▁pretend	-9.75771
▁push	-9.75777
▁gang	-9.75795
▁demon	-9.75799
▁cinematic	-9.75806
▁climax	-9.75826
▁front	-9.75826
▁ultimately	-9.75915
▁cult	-9.7592
▁Sam	-9.75928
▁mom	-9.75942
▁ground	-9.75946
▁track	-9.76038
▁escape	-9.76099
▁creature	-9.76126
▁victim	-9.76175
▁Joe	-9.76222
▁inter	-9.76252
▁makeup	-9.76359
▁k	-9.7639
land	-9.76478
ell	-9.76555
▁ship	-9.76739
▁seconds	-9.76781
▁toward	-9.76787
▁worthy	-9.76863
rn	-9.7707
▁Mc	-9.77224
▁h	-9.77422
00	-9.77443
ade	-9.7745
▁!	-9.77776
▁Ver	-9.78185
con	-9.7819
year	-9.78245
ver	-9.78317
ven	-9.78406
▁date	-9.78579
▁sucks	-9.78598
▁mo	-9.78636
▁en	-9.78716
▁meaning	-9.78783
▁atrocious	-9.78797
▁intelligence	-9.78797
▁involving	-9.78797
▁nonsense	-9.78797
▁join	-9.78797
▁phone	-9.78797
▁nature	-9.788
▁rich	-9.78802
▁match	-9.78805
▁hang	-9.78814
▁unnecessary	-9.78814
▁convincing	-9.78824
▁dreadful	-9.78843
my	-9.78855
bo	-9.78857
▁third	-9.78875
▁intelligent	-9.78892
▁military	-9.78892
▁professional	-9.78897
▁Nothing	-9.78943
▁gone	-9.78959
nd	-9.79056
▁honestly	-9.79159
??	-9.79193
▁Star	-9.79195
▁Un	-9.79197
▁Car	-9.79207
▁sucked	-9.79353
▁sci	-9.79498
▁send	-9.79504
▁ho	-9.79671
▁longer	-9.79711
bi	-9.79721
▁sadly	-9.79733
ff	-9.80073
▁island	-9.80091
▁boys	-9.80197
▁aspects	-9.80357
▁expecting	-9.80366
▁names	-9.80377
▁note	-9.80504
▁continue	-9.80683
▁wondering	-9.80756
▁hopes	-9.81206
qui	-9.81227
▁monsters	-9.813
▁:	-9.81391
Well	-9.81439
▁episodes	-9.81464
▁apparent	-9.81528
this	-9.81532
ki	-9.81581
▁per	-9.81605
▁chase	-9.81656
ED	-9.81715
▁porn	-9.81857
▁commit	-9.81904
▁memorable	-9.81922
▁mysterious	-9.81922
▁routine	-9.81922
▁uninteresting	-9.81922
▁battle	-9.81923
▁neither	-9.81925
▁tired	-9.81926
▁office	-9.8193
▁priest	-9.81938
ill	-9.81945
▁bomb	-9.81947
ail	-9.81952
▁otherwise	-9.81966
▁Little	-9.81967
▁fell	-9.81968
▁mouth	-9.8202
▁city	-9.82029
▁Perhaps	-9.82056
▁Paul	-9.82062
▁Other	-9.82085
▁Du	-9.82138
▁bear	-9.82302
▁Best	-9.82409
▁visual	-9.82418
▁ability	-9.82471
▁younger	-9.82652
▁Po	-9.82922
ber	-9.83132
▁named	-9.83276
▁talented	-9.83306
▁po	-9.83315
uff	-9.83327
▁villains	-9.83368
▁makers	-9.83379
lin	-9.83507
▁apart	-9.83657
men	-9.83759
▁le	-9.83778
▁details	-9.83795
▁favor	-9.8393
▁suffer	-9.83992
star	-9.84087
ep	-9.84534
That	-9.84604
▁develop	-9.84612
▁victims	-9.84766
▁recent	-9.84785
ka	-9.84804
▁suppose	-9.8486
▁capture	-9.84955
▁Ed	-9.85038
▁amateur	-9.8513
▁bottom	-9.85148
▁negative	-9.85148
▁various	-9.85148
▁York	-9.85148
▁latter	-9.85148
▁studio	-9.85151
▁caught	-9.85153
▁prefer	-9.85155
ugh	-9.85157
▁blame	-9.85158
▁amateurish	-9.85166
▁difference	-9.85177
▁appearance	-9.85178
▁draw	-9.85183
▁CGI	-9.85185
▁somebody	-9.85209
▁confused	-9.85211
▁disgusting	-9.85299
▁Please	-9.85323
▁suddenly	-9.85324
▁Still	-9.85334
▁moral	-9.85381
▁scenery	-9.85433
▁outside	-9.85522
▁expectations	-9.85641
mon	-9.8565
▁mid	-9.85676
▁Se	-9.8568
▁vampire	-9.85798
▁considered	-9.85914
ja	-9.85963
▁saved	-9.8597
looking	-9.86307
ble	-9.86398
▁members	-9.86632
▁ha	-9.86762
▁tough	-9.86882
▁bed	-9.86923
▁See	-9.86965
▁Ka	-9.8703
▁Every	-9.87211
ned	-9.8726
day	-9.87322
ide	-9.87409
▁40	-9.87519
▁Da	-9.87625
8	-9.8777
▁train	-9.87861
house	-9.87937
▁discover	-9.87956
▁honest	-9.88084
▁normal	-9.88155
One	-9.88178
▁Sure	-9.88269
▁visit	-9.884
▁extra	-9.8842
▁century	-9.88481
▁dancing	-9.88481
▁familiar	-9.88481
▁religion	-9.88481
▁Earth	-9.88481
▁affair	-9.88481
▁bank	-9.88482
▁pile	-9.88503
▁interview	-9.8851
▁horse	-9.8853
▁Frank	-9.88545
▁Will	-9.88547
▁yeah	-9.88586
▁burn	-9.88587
▁era	-9.88592
▁grade	-9.88618
▁thin	-9.88699
▁constantly	-9.88801
cy	-9.88803
Because	-9.88874
▁ruined	-9.8889
▁Le	-9.88897
▁Mary	-9.88951
▁double	-9.89001
fest	-9.89067
wards	-9.89147
▁chick	-9.89204
▁dream	-9.89215
▁return	-9.89221
▁week	-9.89242
▁credit	-9.89291
act	-9.89388
▁murders	-9.89604
▁dies	-9.90031
▁moves	-9.90045
▁likely	-9.90055
ized	-9.9071
log	-9.90754
▁rate	-9.90948
making	-9.90955
▁vampires	-9.9124
At	-9.91258
j	-9.91319
▁na	-9.91472
▁Good	-9.91913
▁1970	-9.9193
▁hospital	-9.9193
▁relative	-9.9193
▁rubbish	-9.9193
▁society	-9.9193
▁violent	-9.9193
▁Christmas	-9.9193
▁shallow	-9.9193
▁failure	-9.91934
▁impressive	-9.91935
▁Christian	-9.91941
▁assume	-9.91949
▁personal	-9.91957
▁company	-9.9196
▁sake	-9.9197
▁Director	-9.91979
▁partner	-9.92011
▁rape	-9.92036
▁slightly	-9.92049
▁notice	-9.92059
▁AND	-9.92078
▁key	-9.92167
mer	-9.92199
All	-9.92229
rd	-9.92424
▁watchable	-9.92474
▁directors	-9.927
▁costume	-9.92825
▁standard	-9.92838
▁filmmaker	-9.92912
▁adventure	-9.93122
▁?	-9.93597
▁costs	-9.9364
▁lighting	-9.9375
ana	-9.94077
ec	-9.94079
▁struggle	-9.94138
▁Dan	-9.9424
▁portray	-9.94277
▁Can	-9.94302
▁Lo	-9.94378
▁grand	-9.94446
▁Pi	-9.94448
Z	-9.94941
▁com	-9.94958
▁finish	-9.94987
ham	-9.95126
.....	-9.9518
▁Van	-9.95191
▁fail	-9.95387
▁pilot	-9.95501
▁approach	-9.95501
▁ugly	-9.95502
▁unconvincing	-9.95504
▁boyfriend	-9.95508
▁indeed	-9.9551
▁attractive	-9.95523
▁reaction	-9.95533
▁Keaton	-9.95534
▁realistic	-9.95548
▁immediately	-9.95552
▁People	-9.95573
▁European	-9.95574
crappy	-9.95574
▁clichés	-9.95586
▁paper	-9.95599
▁Steven	-9.95624
rs	-9.95629
▁Kong	-9.95656
▁Where	-9.95749
▁Day	-9.95795
▁Mel	-9.95806
▁belong	-9.9585
▁content	-9.959
▁holes	-9.96049
▁bloody	-9.96245
▁news	-9.9642
▁clue	-9.96451
▁flicks	-9.96595
▁`	-9.96685
**	-9.967
▁died	-9.96722
▁sexy	-9.96857
▁fl	-9.96882
▁card	-9.96992
ang	-9.97032
▁8	-9.97035
▁stereotypes	-9.97049
▁****	-9.97069
lu	-9.97073
▁bi	-9.97079
▁ill	-9.97249
you	-9.97436
▁j	-9.97843
▁paint	-9.98012
▁ran	-9.982
ure	-9.98447
uc	-9.98504
ake	-9.98597
▁reasons	-9.9862
▁eat	-9.98626
▁succeed	-9.98676
▁Sha	-9.98791
▁historical	-9.98801
ong	-9.98867
kin	-9.98891
▁("	-9.99006
▁length	-9.99062
▁blow	-9.99074
▁drunk	-9.99166
▁awkward	-9.99205
▁channel	-9.99205
▁chemistry	-9.99205
▁energy	-9.99205
▁innocent	-9.99205
▁travel	-9.99205
▁tedious	-9.99205
▁zero	-9.99205
▁romance	-9.99206
▁humour	-9.99207
▁Charles	-9.99229
▁turning	-9.9923
▁physical	-9.99237
▁model	-9.99244
▁station	-9.99248
▁Mike	-9.99273
▁dry	-9.99276
▁ti	-9.99279
▁bland	-9.99295
▁literally	-9.99325
▁drawn	-9.99391
▁Con	-9.99414
▁Big	-9.99457
▁putting	-9.99461
▁introduced	-9.99468
▁singer	-9.99469
▁produced	-9.99472
▁board	-9.99609
6	-9.99652
▁Did	-9.99662
▁Lu	-9.99724
ON	-9.99749
part	-9.998
▁Ann	-9.99829
head	-9.99871
▁developed	-9.99872
▁planet	-9.99964
▁building	-10.0007
▁gl	-10.0023
▁street	-10.0031
▁ready	-10.006
ped	-10.006
▁parents	-10.006
▁terms	-10.0061
ue	-10.0075
hose	-10.0076
▁alien	-10.0093
ans	-10.0122
▁ahead	-10.0129
ists	-10.0146
▁numbers	-10.0189
▁pop	-10.0196
▁accident	-10.0218
▁record	-10.0252
LY	-10.0254
saving	-10.0261
▁proper	-10.0272
▁convince	-10.0275
▁semi	-10.028
▁bore	-10.0282
▁bl	-10.0286
▁Wood	-10.0289
▁depict	-10.0301
▁accept	-10.0302
▁acts	-10.0303
▁program	-10.0304
▁driving	-10.0305
▁ludicrous	-10.0305
▁religious	-10.0305
▁road	-10.0305
▁substance	-10.0305
▁corny	-10.0305
▁presence	-10.0305
▁sweet	-10.0305
▁nasty	-10.0305
▁depressing	-10.0305
▁green	-10.0306
▁six	-10.0307
▁boredom	-10.0307
▁theatre	-10.0308
▁hint	-10.0308
▁highlight	-10.0308
▁enter	-10.0309
▁van	-10.0309
▁personality	-10.0309
▁boss	-10.0309
▁nobody	-10.0311
▁cold	-10.0312
▁anymore	-10.0313
▁Come	-10.0314
▁manner	-10.0315
On	-10.0315
▁Two	-10.0317
▁teacher	-10.0318
▁suspect	-10.0323
▁tape	-10.0325
▁park	-10.0326
▁rental	-10.0328
▁powerful	-10.0329
ette	-10.0333
▁Avoid	-10.0348
▁normally	-10.0351
▁soap	-10.0355
ink	-10.0363
▁shocking	-10.0386
▁rated	-10.0403
▁speaking	-10.0405
▁issues	-10.0418
▁sum	-10.0428
▁falling	-10.043
▁student	-10.0434
▁older	-10.0447
oc	-10.0449
▁plus	-10.0457
▁slowly	-10.0468
▁flash	-10.0474
▁successful	-10.0486
ddy	-10.0497
▁lover	-10.0541
▁Bu	-10.0564
▁opera	-10.0637
▁flow	-10.0637
ire	-10.0653
tch	-10.0664
▁thrill	-10.0687
▁pa	-10.0697
Do	-10.0697
▁author	-10.0702
▁Dark	-10.0704
▁Horror	-10.0705
▁comparison	-10.0705
▁complex	-10.0705
▁detective	-10.0705
▁encounter	-10.0705
▁Seagal	-10.0705
▁conclusion	-10.0705
▁narrative	-10.0705
▁dying	-10.0706
▁cash	-10.0708
▁commentary	-10.0708
▁genius	-10.071
▁Russian	-10.071
▁sight	-10.071
▁anywhere	-10.0712
▁Lugosi	-10.0713
▁OF	-10.0714
▁dramatic	-10.0714
▁contrived	-10.0715
▁photography	-10.0721
▁Adam	-10.0722
▁officer	-10.0724
▁vote	-10.0725
▁Killer	-10.0726
▁display	-10.0727
▁compared	-10.0727
▁50	-10.0738
▁humans	-10.0739
▁law	-10.0741
▁dragg	-10.0764
lic	-10.0772
▁Many	-10.0777
nder	-10.078
▁drug	-10.0782
rate	-10.0785
▁lower	-10.0803
▁hi	-10.0809
▁folks	-10.0823
▁deserve	-10.0826
▁mistake	-10.0835
▁thinks	-10.084
▁gr	-10.085
▁image	-10.085
▁ob	-10.0851
bit	-10.0878
low	-10.0895
▁animals	-10.0902
use	-10.0903
Re	-10.0908
ound	-10.0912
ess	-10.0927
We	-10.0932
han	-10.095
▁images	-10.0971
called	-10.0975
▁plane	-10.098
▁heads	-10.1033
▁scream	-10.1063
istic	-10.1063
film	-10.1067
However	-10.1068
life	-10.1068
▁carry	-10.107
▁ruin	-10.1071
▁constant	-10.1082
▁includes	-10.1098
▁NO	-10.1099
▁Harris	-10.1117
▁basic	-10.112
▁bought	-10.1122
▁likable	-10.1122
▁offensive	-10.1122
▁suicide	-10.1122
▁lousy	-10.1122
▁Brian	-10.1122
▁comedies	-10.1122
▁YOU	-10.1122
▁minor	-10.1122
▁unrealistic	-10.1122
▁ashamed	-10.1122
▁pacing	-10.1122
▁information	-10.1122
▁stock	-10.1122
▁prison	-10.1122
▁weekend	-10.1123
▁science	-10.1123
▁trite	-10.1123
▁Caine	-10.1124
▁werewolf	-10.1124
▁seemingly	-10.1125
▁Scott	-10.1125
▁drivel	-10.113
red	-10.1131
▁endless	-10.1134
▁None	-10.1136
▁Really	-10.114
▁carrie	-10.114
▁13	-10.1141
▁choose	-10.1141
▁Look	-10.1142
▁dressed	-10.1147
▁animated	-10.1148
ery	-10.1151
Fi	-10.1161
▁below	-10.1164
▁treated	-10.1165
▁growing	-10.1167
▁wearing	-10.1173
▁personally	-10.1178
▁fly	-10.1184
boy	-10.1186
▁cameo	-10.1187
▁perfectly	-10.1193
Bo	-10.1207
▁painfully	-10.1215
▁filmed	-10.1217
▁presented	-10.1219
der	-10.1224
par	-10.1241
rie	-10.1251
▁soldiers	-10.1257
cient	-10.126
▁se	-10.1263
▁Chris	-10.1263
▁followed	-10.1264
vin	-10.1269
▁location	-10.1292
▁places	-10.1297
ose	-10.13
long	-10.1316
Not	-10.1325
verything	-10.1361
ged	-10.1376
rew	-10.1398
▁thank	-10.1399
▁sa	-10.1408
▁cha	-10.1417
▁mainly	-10.1427
▁tone	-10.1427
▁ch	-10.1435
cha	-10.1438
play	-10.1443
▁range	-10.1472
tuck	-10.1478
▁design	-10.148
▁DO	-10.1481
down	-10.1493
good	-10.1504
are	-10.1506
TV	-10.1508
▁Vi	-10.151
▁fat	-10.1517
▁unlike	-10.1532
▁terribl	-10.1535
▁cry	-10.1541
▁safe	-10.1555
▁curious	-10.1557
▁disbelief	-10.1557
▁exciting	-10.1557
▁fantasy	-10.1557
▁plenty	-10.1557
▁scenario	-10.1557
▁gross	-10.1557
▁Nick	-10.1557
▁lesbian	-10.1557
▁root	-10.1557
▁instance	-10.1557
▁serial	-10.1557
▁decade	-10.1557
▁1950	-10.1557
▁clean	-10.1557
▁relief	-10.1558
▁grace	-10.1558
▁Everyone	-10.1558
▁creative	-10.1559
▁share	-10.1559
▁collection	-10.1559
▁apartment	-10.156
▁research	-10.156
▁dozen	-10.156
▁**	-10.1561
▁Scooby	-10.1563
▁incoherent	-10.1564
▁hype	-10.1565
▁mask	-10.1566
▁Sadly	-10.1568
▁Show	-10.1569
▁moving	-10.1571
▁blonde	-10.1573
▁wit	-10.1574
▁reporter	-10.1579
▁100	-10.158
iz	-10.1585
▁Anyway	-10.1586
▁warning	-10.1588
▁l	-10.1591
▁field	-10.1598
▁singing	-10.1605
▁Hav	-10.1616
▁values	-10.1619
▁handle	-10.1619
awn	-10.1621
▁screaming	-10.1621
ory	-10.1627
▁Di	-10.1636
known	-10.164
▁u	-10.1643
▁changed	-10.1645
▁realized	-10.1646
zz	-10.1659
▁featur	-10.1669
▁allowed	-10.167
▁explained	-10.1687
▁claim	-10.1709
▁struggl	-10.1726
AD	-10.173
▁reviewers	-10.1731
▁m	-10.174
▁trick	-10.1741
▁detail	-10.1743
held	-10.1743
ten	-10.1765
some	-10.1772
▁references	-10.1784
▁Na	-10.1786
▁contains	-10.1809
ize	-10.1809
▁lie	-10.1821
gy	-10.1822
ld	-10.1839
▁gra	-10.1845
cut	-10.1853
▁sc	-10.1859
EN	-10.1871
▁hat	-10.1871
▁lacking	-10.1891
▁dad	-10.1893
ev	-10.1927
▁Gu	-10.1936
▁theory	-10.1941
▁drink	-10.1948
X	-10.1951
just	-10.1955
Why	-10.1957
▁mental	-10.1971
▁rare	-10.1971
Oh	-10.1976
ified	-10.1981
▁ca	-10.1993
▁master	-10.2008
▁consist	-10.201
▁Lynch	-10.2011
	-10.2011
é	-10.2011
▁accurate	-10.2011
▁behavior	-10.2011
▁conflict	-10.2011
▁disappear	-10.2011
▁language	-10.2011
▁masterpiece	-10.2011
▁professor	-10.2011
▁target	-10.2011
▁twenty	-10.2011
central	-10.2011
▁memory	-10.2011
▁western	-10.2011
▁race	-10.2011
▁commercial	-10.2011
▁twice	-10.2011
▁mood	-10.2011
▁believable	-10.2012
▁prepar	-10.2012
▁alive	-10.2013
even	-10.2013
▁Sp	-10.2013
▁frankly	-10.2014
▁Apparently	-10.2015
▁current	-10.2017
▁marriage	-10.2018
▁bright	-10.2018
▁Stone	-10.2019
▁Gold	-10.202
▁dubbed	-10.202
▁Get	-10.2021
▁Since	-10.2021
▁goofy	-10.2022
▁Jason	-10.2024
▁Asian	-10.2024
ob	-10.2029
▁upset	-10.2032
▁Allen	-10.2039
▁Gary	-10.2039
used	-10.2045
cious	-10.2049
▁Hu	-10.2054
▁crash	-10.2055
away	-10.2055
▁mad	-10.2057
▁spoiler	-10.206
▁dated	-10.206
▁efforts	-10.2063
▁forest	-10.2073
▁finished	-10.2077
ture	-10.2087
▁faces	-10.2088
cent	-10.2088
gging	-10.209
▁Sch	-10.2092
ES	-10.2096
▁sl	-10.2105
▁charming	-10.211
▁agent	-10.2117
▁shop	-10.2134
▁asked	-10.215
▁lived	-10.2152
Mar	-10.2154
▁Martin	-10.2179
▁li	-10.2181
▁bits	-10.2207
▁contain	-10.2217
Lo	-10.2221
▁producer	-10.2225
%	-10.2261
▁Che	-10.2274
▁topic	-10.2279
real	-10.2292
Don	-10.2294
▁Bar	-10.231
core	-10.2313
▁represent	-10.2322
▁intention	-10.2338
ept	-10.2349
▁logic	-10.2357
row	-10.2362
bu	-10.2376
▁Far	-10.2388
▁High	-10.241
set	-10.2411
az	-10.2413
dom	-10.2429
_	-10.243
&	-10.2432
point	-10.2432
▁reveal	-10.2435
▁Li	-10.2456
▁Wal	-10.2463
pel	-10.2466
▁proves	-10.2471
otic	-10.2476
▁experiment	-10.248
▁witness	-10.2481
▁Sta	-10.2484
▁context	-10.2487
▁execution	-10.2487
▁helicopter	-10.2487
▁individual	-10.2487
▁virtual	-10.2487
▁ladies	-10.2487
▁Western	-10.2487
▁awesome	-10.2487
▁asleep	-10.2487
▁convey	-10.2487
▁rescue	-10.2487
▁refuse	-10.2487
▁Fox	-10.2488
▁adaptation	-10.2488
▁industry	-10.2488
▁1/10	-10.2488
▁3/10	-10.2488
▁wake	-10.2489
▁scale	-10.2489
▁connection	-10.2491
▁dislike	-10.2491
▁responsible	-10.2491
▁Anderson	-10.2492
ILL	-10.2493
▁dirty	-10.2493
▁hotel	-10.2493
▁BAD	-10.2493
▁insight	-10.2493
▁Dolph	-10.2494
▁subtle	-10.2494
LE	-10.2496
▁surprisingly	-10.2498
▁embarrassed	-10.2499
▁load	-10.25
▁South	-10.25
lar	-10.2501
▁wave	-10.2502
she	-10.2502
▁pe	-10.2503
▁afraid	-10.2503
▁Shakespeare	-10.2503
▁Rock	-10.2506
▁Jones	-10.2506
▁Was	-10.2507
▁laughter	-10.2508
▁Poor	-10.2509
▁aware	-10.2512
▁dude	-10.2513
▁feet	-10.2515
ities	-10.2516
▁v	-10.2522
▁Sir	-10.2524
▁cuts	-10.2532
▁Roy	-10.2533
ler	-10.2534
OK	-10.2536
get	-10.2537
▁Time	-10.254
▁Gar	-10.2545
▁accents	-10.2554
▁$	-10.2564
▁Th	-10.2585
har	-10.2602
▁critics	-10.2605
our	-10.261
▁twists	-10.261
▁viewed	-10.2633
▁flaws	-10.2643
car	-10.265
nyone	-10.2658
▁gags	-10.2683
▁sho	-10.2689
▁scare	-10.2693
▁ripp	-10.2706
▁remain	-10.2715
ign	-10.2729
▁scares	-10.2752
▁asks	-10.2753
▁ring	-10.2764
▁seek	-10.2773
gotten	-10.2796
▁mistakes	-10.2807
▁n	-10.2809
▁drugs	-10.2809
▁Ju	-10.2811
RE	-10.2825
▁laughed	-10.2842
ken	-10.2846
▁standards	-10.2862
ft	-10.2876
▁Any	-10.2878
port	-10.2907
▁drop	-10.2909
though	-10.2912
screen	-10.2923
When	-10.2932
How	-10.2934
▁treat	-10.2935
▁concern	-10.2936
▁possess	-10.2936
▁swi	-10.2937
▁Jane	-10.2942
▁hid	-10.2944
▁mine	-10.2945
hop	-10.2951
▁Ko	-10.2954
▁Steve	-10.2971
▁fool	-10.2986
tribute	-10.2987
▁atmosphere	-10.2987
▁brutal	-10.2987
▁device	-10.2987
▁engaging	-10.2987
▁journey	-10.2987
▁junk	-10.2987
▁system	-10.2987
▁false	-10.2987
▁superior	-10.2987
▁desert	-10.2987
▁clothes	-10.2987
▁comedian	-10.2987
▁opportunity	-10.2987
▁pleasure	-10.2987
▁mild	-10.2988
▁solid	-10.2988
▁window	-10.2988
▁primar	-10.2988
▁degree	-10.2988
▁tree	-10.2988
▁guard	-10.2989
▁everybody	-10.2989
▁Ron	-10.2991
▁Jean	-10.2991
▁impact	-10.2992
▁gold	-10.2992
▁tune	-10.2992
▁Camp	-10.2992
▁sent	-10.2994
▁fresh	-10.2994
▁Again	-10.2995
▁therefore	-10.2995
▁Kate	-10.2996
▁abuse	-10.2998
▁appalling	-10.2998
▁capable	-10.2999
▁Blair	-10.3
▁talks	-10.3001
▁frame	-10.3002
▁Miss	-10.3002
▁Someone	-10.3003
▁Fat	-10.3003
▁market	-10.3004
▁charge	-10.3005
▁exploitation	-10.3005
▁Second	-10.3006
▁Angel	-10.3009
▁dire	-10.301
▁mindless	-10.3012
▁Guy	-10.3012
▁White	-10.3012
▁Sean	-10.3015
▁teens	-10.3016
▁soft	-10.3017
▁Okay	-10.3021
▁Does	-10.3024
▁wa	-10.3027
▁entertained	-10.3031
▁X	-10.305
▁trust	-10.3051
▁Ray	-10.3065
▁bill	-10.3075
▁factor	-10.3078
▁Chi	-10.308
▁guns	-10.3086
▁insulting	-10.3097
▁Hell	-10.3105
▁wear	-10.3109
existent	-10.3113
▁ego	-10.3129
yes	-10.3147
ise	-10.3156
▁Tru	-10.3171
▁Pre	-10.3195
jo	-10.3213
ite	-10.3217
▁reference	-10.3244
▁aspect	-10.3245
rk	-10.3269
ah	-10.3273
▁asking	-10.3274
▁/	-10.3278
▁sole	-10.3288
▁claims	-10.3296
ative	-10.3299
gue	-10.3307
▁Cor	-10.3315
▁books	-10.3336
nu	-10.3339
▁types	-10.3358
vert	-10.336
▁Sci	-10.3361
▁magic	-10.3375
▁themes	-10.3395
Some	-10.3398
more	-10.3404
▁judge	-10.3407
▁knock	-10.3423
ending	-10.3443
horror	-10.3458
board	-10.346
▁repeat	-10.3461
why	-10.3462
▁finding	-10.3466
▁exact	-10.3476
▁wild	-10.3492
▁photograph	-10.3492
▁du	-10.3496
▁Je	-10.3501
▁stretch	-10.3504
▁Matt	-10.351
▁occur	-10.3513
▁Diamond	-10.3514
▁Kevin	-10.3514
▁Street	-10.3514
▁arrive	-10.3514
▁available	-10.3514
▁category	-10.3514
▁empty	-10.3514
▁executed	-10.3514
▁generation	-10.3514
▁government	-10.3514
▁graphic	-10.3514
▁horrendous	-10.3514
▁horribly	-10.3514
▁promising	-10.3514
▁qualities	-10.3514
▁specific	-10.3514
▁turkey	-10.3514
▁Monster	-10.3514
▁crowd	-10.3514
▁unique	-10.3514
▁vague	-10.3514
built	-10.3514
▁beauty	-10.3514
▁intellectual	-10.3514
▁loss	-10.3514
▁alright	-10.3514
▁4/10	-10.3514
▁blue	-10.3514
▁1960	-10.3514
▁satire	-10.3515
▁merit	-10.3515
▁pair	-10.3517
▁tack	-10.3518
▁punch	-10.3519
▁attend	-10.352
▁invite	-10.3521
▁Christopher	-10.3521
▁African	-10.3522
▁Eva	-10.3523
▁breath	-10.3524
▁culture	-10.3525
▁Cage	-10.3528
▁adults	-10.3529
pro	-10.3531
▁Which	-10.3534
lli	-10.3535
▁rid	-10.3536
▁Wow	-10.3538
▁Once	-10.3545
Doo	-10.3545
▁scared	-10.3546
▁Dean	-10.3549
ship	-10.3551
▁lesson	-10.3551
▁deserved	-10.3555
▁truck	-10.3568
▁concerned	-10.3568
▁Ta	-10.3573
▁clichéd	-10.3575
▁finale	-10.3577
▁wise	-10.3579
hy	-10.3588
▁bat	-10.3594
▁artistic	-10.3601
lit	-10.3602
room	-10.3604
▁Ga	-10.361
▁practical	-10.361
▁murderer	-10.362
tan	-10.362
▁host	-10.3634
▁Ben	-10.3651
▁murdered	-10.3654
till	-10.3659
▁fe	-10.368
▁cost	-10.3686
▁criminals	-10.3701
▁site	-10.3702
▁Ch	-10.3709
▁formula	-10.3742
▁Williams	-10.3767
ging	-10.377
▁spite	-10.3784
see	-10.3795
▁animal	-10.38
De	-10.3802
▁Mac	-10.3804
nese	-10.3811
▁sounded	-10.3812
war	-10.3815
▁willing	-10.3816
▁cops	-10.3821
ju	-10.3821
▁60	-10.3833
Of	-10.3834
pac	-10.3835
They	-10.3835
fer	-10.3843
▁party	-10.3853
▁locations	-10.3854
▁express	-10.3856
ically	-10.3861
gin	-10.3865
?).	-10.3873
▁students	-10.3884
izing	-10.3888
▁killings	-10.3891
▁18	-10.3927
***	-10.395
rated	-10.3955
▁cla	-10.3967
▁Col	-10.3969
pie	-10.398
▁grow	-10.3989
writer	-10.4
town	-10.4002
▁SO	-10.4011
▁connect	-10.4013
plot	-10.4013
American	-10.4014
girl	-10.4014
▁qua	-10.4015
▁ham	-10.4016
Now	-10.4023
rey	-10.4027
▁fare	-10.4027
▁effective	-10.4033
especially	-10.4033
ball	-10.4036
▁Space	-10.4047
▁skin	-10.4053
▁chose	-10.4056
▁speech	-10.406
▁trans	-10.4063
▁Machine	-10.4069
▁Saturday	-10.4069
▁Spanish	-10.4069
▁conversation	-10.4069
▁evidence	-10.4069
▁generous	-10.4069
▁gratuitous	-10.4069
▁obnoxious	-10.4069
▁segment	-10.4069
▁Douglas	-10.4069
▁addition	-10.4069
▁study	-10.4069
▁Simon	-10.4069
▁lazy	-10.4069
▁Worst	-10.4069
▁engage	-10.4069
▁Jesus	-10.4069
▁forgettable	-10.4069
▁task	-10.4069
▁thorough	-10.4069
▁challenge	-10.4069
▁media	-10.4069
▁Basically	-10.4069
▁speed	-10.407
▁rule	-10.407
▁attract	-10.407
▁wound	-10.407
▁round	-10.4071
▁fellow	-10.4071
▁insane	-10.4072
▁swear	-10.4072
▁eight	-10.4072
▁screenwriter	-10.4073
▁Nazi	-10.4075
Next	-10.4076
▁Alan	-10.4077
▁strike	-10.4078
▁humorous	-10.4079
▁stinker	-10.408
▁superb	-10.4081
▁statement	-10.4083
▁idiot	-10.4083
▁source	-10.4084
▁compelling	-10.4085
▁grown	-10.4086
▁test	-10.4086
!!!!	-10.4088
▁limited	-10.4091
▁Frid	-10.4092
▁Power	-10.4093
▁foot	-10.4096
▁edited	-10.41
▁12	-10.4101
▁def	-10.4101
▁ON	-10.4104
▁Carol	-10.4111
▁army	-10.4113
mal	-10.4123
thing	-10.4128
▁More	-10.4131
▁ball	-10.4132
▁crying	-10.4149
▁mi	-10.4155
▁moved	-10.4162
▁eating	-10.4166
now	-10.4174
AM	-10.4176
▁Americans	-10.4187
▁Jo	-10.419
▁hide	-10.4195
▁II	-10.4201
▁learned	-10.4224
▁feelings	-10.4249
▁Va	-10.4265
▁Su	-10.4275
▁rise	-10.4279
▁Min	-10.4288
▁drag	-10.4294
!).	-10.4296
▁10.	-10.4306
▁Pro	-10.431
▁loses	-10.4316
ban	-10.4322
▁pan	-10.4367
ung	-10.4376
▁dig	-10.4377
▁remembered	-10.4377
▁remains	-10.4381
▁cell	-10.4386
▁owner	-10.4391
▁cares	-10.4399
▁tend	-10.4403
▁member	-10.4416
▁$1	-10.4417
TER	-10.442
▁Ja	-10.4456
ars	-10.4458
▁robot	-10.446
void	-10.4466
there	-10.4522
▁dreams	-10.4528
An	-10.453
▁changes	-10.4537
▁Story	-10.4554
▁slap	-10.4557
▁entertain	-10.4558
▁perform	-10.4588
air	-10.4589
Overall	-10.4601
vision	-10.4601
field	-10.4601
First	-10.4602
wood	-10.4604
ONE	-10.4605
Even	-10.4607
back	-10.4608
▁correct	-10.4615
▁involve	-10.4626
▁Lou	-10.4629
▁ride	-10.4629
▁report	-10.4632
▁mor	-10.4638
▁Ever	-10.4643
▁Park	-10.4643
▁fiction	-10.465
▁product	-10.4653
ncy	-10.4656
▁wanna	-10.4657
gen	-10.4657
▁Anthony	-10.4657
▁Fulci	-10.4657
▁Hitler	-10.4657
▁advice	-10.4657
▁cheese	-10.4657
▁dinosaur	-10.4657
▁kibbutz	-10.4657
▁parody	-10.4657
▁thousand	-10.4657
▁bodies	-10.4657
▁excruciating	-10.4657
▁floor	-10.4657
▁liberal	-10.4657
▁pitiful	-10.4657
▁stereotypical	-10.4657
▁ANY	-10.4657
▁MST	-10.4657
▁expert	-10.4657
▁quiet	-10.4657
▁Scary	-10.4657
▁risk	-10.4657
▁blind	-10.4657
▁damage	-10.4657
▁horrific	-10.4657
▁prevent	-10.4657
▁Sellers	-10.4657
▁dubbing	-10.4657
▁Winston	-10.4658
▁comedic	-10.4658
▁demand	-10.4658
▁incident	-10.4658
▁motivation	-10.4658
▁Johnny	-10.4658
▁Mor	-10.4658
▁1980	-10.4658
▁Otherwise	-10.4658
▁native	-10.4658
▁solve	-10.4658
▁switch	-10.4658
▁lab	-10.4658
▁medical	-10.4658
▁alter	-10.4658
▁trade	-10.4658
▁Wayne	-10.4658
▁nude	-10.4659
▁understood	-10.4659
▁bride	-10.4659
▁Gamera	-10.4659
▁Army	-10.4659
▁Cinderella	-10.4659
▁raise	-10.466
▁crack	-10.466
▁Jackson	-10.466
▁treatment	-10.466
▁lake	-10.466
▁meaningful	-10.4661
▁Smith	-10.4663
▁Godzilla	-10.4663
▁uniform	-10.4663
▁Julie	-10.4665
▁movement	-10.4665
▁amazed	-10.4665
▁blah	-10.4667
▁acceptable	-10.4667
Henry	-10.4667
▁hunt	-10.4668
▁severe	-10.4668
▁Young	-10.4668
▁Though	-10.467
▁strict	-10.467
▁boat	-10.4672
10	-10.4674
▁grave	-10.4675
▁Whatever	-10.4677
▁hired	-10.468
▁East	-10.4681
▁voices	-10.4683
▁circumstances	-10.4683
▁cheated	-10.4684
beat	-10.4685
▁pun	-10.4689
▁senseless	-10.4689
▁Last	-10.469
▁survive	-10.4694
▁mission	-10.47
▁lying	-10.4704
▁sing	-10.4752
▁higher	-10.4753
▁Gi	-10.4754
▁Dick	-10.4757
▁ne	-10.4759
▁beach	-10.4765
▁flashbacks	-10.4767
▁teenagers	-10.4767
▁suffering	-10.4773
▁heck	-10.4776
▁quote	-10.4779
▁Per	-10.4781
cal	-10.4806
▁loves	-10.4817
▁lovely	-10.4819
TH	-10.4856
▁miles	-10.4871
▁Dur	-10.4877
▁continu	-10.4894
▁reach	-10.4894
▁replace	-10.4916
nes	-10.4925
▁king	-10.4926
▁forever	-10.4931
oo	-10.4942
ates	-10.4984
rid	-10.4985
▁El	-10.4994
▁lose	-10.5002
▁stands	-10.5004
▁stereotype	-10.5013
▁dollar	-10.5016
▁sun	-10.5018
eral	-10.5021
Ch	-10.5038
▁ST	-10.504
▁powers	-10.5051
pper	-10.5065
?!?	-10.5078
▁25	-10.5079
ug	-10.5083
▁lovers	-10.5087
OR	-10.509
bout	-10.5093
▁Bas	-10.5094
▁hasn	-10.5094
▁vo	-10.5097
▁sta	-10.5109
AY	-10.513
▁results	-10.5136
▁player	-10.5145
▁rep	-10.5147
than	-10.5148
▁/>--	-10.5158
look	-10.5172
ised	-10.5173
where	-10.5179
▁understanding	-10.5183
▁teach	-10.5202
read	-10.5214
hal	-10.5217
▁youth	-10.5217
▁shower	-10.5219
▁caus	-10.5222
Ra	-10.5223
including	-10.5226
After	-10.5227
watch	-10.5228
Avoid	-10.5233
night	-10.5234
▁artist	-10.5238
▁technical	-10.524
rch	-10.5241
▁lu	-10.5243
hero	-10.5247
tick	-10.526
let	-10.5277
▁favour	-10.5282
▁neighbor	-10.5282
+	-10.5282
▁Canadian	-10.5282
▁Evil	-10.5282
▁Lundgren	-10.5282
▁Simpson	-10.5282
▁THAT	-10.5282
▁combination	-10.5282
▁complain	-10.5282
▁corpse	-10.5282
▁corrupt	-10.5282
▁gimmick	-10.5282
▁intriguing	-10.5282
▁knife	-10.5282
▁opposite	-10.5282
▁plastic	-10.5282
▁pleasant	-10.5282
▁principal	-10.5282
▁racist	-10.5282
▁shadow	-10.5282
▁significant	-10.5282
▁spoof	-10.5282
▁stomach	-10.5282
▁strength	-10.5282
▁technology	-10.5282
▁teeth	-10.5282
▁uncomfortable	-10.5282
▁village	-10.5282
▁Sunday	-10.5282
▁basis	-10.5282
▁church	-10.5282
▁confusion	-10.5282
▁snake	-10.5282
▁vomit	-10.5282
▁rush	-10.5282
▁smoke	-10.5282
▁account	-10.5282
▁pursue	-10.5282
▁multiple	-10.5282
▁imagination	-10.5283
▁joy	-10.5283
▁minimal	-10.5283
▁psychic	-10.5283
▁security	-10.5283
▁summary	-10.5283
▁THIS	-10.5283
▁spiritual	-10.5284
▁cruel	-10.5284
▁edge	-10.5284
▁Jeff	-10.5284
▁Knight	-10.5284
▁club	-10.5284
▁spell	-10.5284
▁recycle	-10.5285
▁hideous	-10.5285
▁discussion	-10.5285
▁witty	-10.5285
▁stole	-10.5285
▁naive	-10.5285
▁Anton	-10.5286
▁faith	-10.5286
▁overdone	-10.5287
▁epic	-10.5287
▁Channel	-10.5288
▁Jennifer	-10.5288
▁Gordon	-10.5288
▁World	-10.5288
▁teenage	-10.5288
▁wedding	-10.5289
▁existence	-10.529
▁fictional	-10.529
▁unknown	-10.5291
▁hip	-10.5291
▁position	-10.5292
▁spoken	-10.5292
▁retarded	-10.5294
▁Are	-10.5295
▁Thank	-10.5295
▁IT	-10.5295
▁portrayal	-10.5296
▁Korean	-10.5299
▁Santa	-10.5304
▁stunning	-10.5304
▁III	-10.5305
▁associate	-10.5306
▁ALL	-10.5309
▁bare	-10.5315
retty	-10.5317
▁useless	-10.5318
▁chopp	-10.5318
▁Jr	-10.5322
▁nose	-10.5328
▁handled	-10.5331
▁earn	-10.5332
ett	-10.5334
▁stupidity	-10.5335
▁noticed	-10.534
▁vision	-10.5344
▁fate	-10.535
comprehensible	-10.5352
▁forgotten	-10.5353
▁described	-10.5354
▁designed	-10.536
▁Mu	-10.5364
▁BE	-10.5383
Then	-10.5408
ef	-10.5422
▁recall	-10.5425
ood	-10.5425
hearted	-10.5426
▁inept	-10.5431
▁pieces	-10.5438
▁rolling	-10.5453
▁rap	-10.5459
▁warm	-10.5475
▁Duke	-10.5481
▁hearing	-10.5514
▁da	-10.5521
......	-10.5542
▁audiences	-10.5542
Be	-10.5561
▁pictures	-10.5562
other	-10.5564
▁fu	-10.5582
▁drags	-10.5583
▁players	-10.5591
rous	-10.5611
truck	-10.562
ray	-10.5621
oke	-10.5625
▁San	-10.5641
fic	-10.5642
▁haunt	-10.5643
▁nu	-10.5654
eep	-10.566
▁gag	-10.5675
▁element	-10.5682
▁dar	-10.5697
specially	-10.57
ctor	-10.5712
class	-10.5726
pped	-10.573
q	-10.5746
▁wood	-10.5751
▁clues	-10.5766
▁seven	-10.5794
▁returns	-10.5803
Mo	-10.5812
lf	-10.5821
Go	-10.5832
▁En	-10.5839
▁stumble	-10.5841
ker	-10.5843
gi	-10.5844
▁Age	-10.5845
"?	-10.5855
▁award	-10.5871
▁escapes	-10.5879
wise	-10.5886
while	-10.5891
dimensional	-10.5892
▁prov	-10.5893
except	-10.5894
With	-10.5894
comedy	-10.5895
master	-10.59
▁Nor	-10.5901
▁listen	-10.591
raw	-10.591
,000	-10.5916
▁desire	-10.5919
▁lit	-10.5921
▁relate	-10.5922
dge	-10.5926
▁creep	-10.5929
▁luck	-10.5929
▁craz	-10.593
cast	-10.5943
▁melodrama	-10.5945
▁establish	-10.5946
▁exploit	-10.5947
▁excite	-10.5947
VERY	-10.5947
▁proceed	-10.5947
▁price	-10.5948
▁birth	-10.5948
’	-10.5949
▁Festival	-10.5949
▁Virgin	-10.5949
▁credibility	-10.5949
▁decision	-10.5949
▁expensive	-10.5949
▁fiancé	-10.5949
▁reputation	-10.5949
▁surreal	-10.5949
▁synopsis	-10.5949
▁treasure	-10.5949
▁unpleasant	-10.5949
▁Jamie	-10.5949
▁Larry	-10.5949
▁contact	-10.5949
▁jerk	-10.5949
▁Niven	-10.5949
▁concentrat	-10.5949
▁sharp	-10.5949
▁structure	-10.5949
▁headache	-10.5949
▁ignore	-10.5949
▁General	-10.5949
▁Moore	-10.5949
▁address	-10.5949
▁text	-10.5949
▁praise	-10.5949
▁asylum	-10.5949
▁silent	-10.5949
▁nightmare	-10.5949
▁search	-10.5949
▁flesh	-10.5949
▁foreign	-10.5949
▁bucks	-10.5949
▁baseball	-10.5949
▁wealth	-10.5949
▁France	-10.5949
▁court	-10.5949
▁martial	-10.5949
▁fantastic	-10.595
▁clip	-10.595
▁numer	-10.595
▁finger	-10.595
▁Head	-10.595
▁fix	-10.595
▁community	-10.595
▁trapped	-10.595
▁prime	-10.595
▁Catherine	-10.595
atrical	-10.5951
▁strip	-10.5951
▁Check	-10.5951
▁proud	-10.5951
▁moronic	-10.5951
▁grab	-10.5952
▁obsession	-10.5952
▁Walter	-10.5952
▁editor	-10.5952
▁continuity	-10.5953
▁borrow	-10.5953
▁imagery	-10.5953
▁tight	-10.5953
▁heroine	-10.5954
▁chest	-10.5955
▁Qui	-10.5955
▁seduc	-10.5956
▁trial	-10.5956
▁EVER	-10.5957
▁block	-10.5957
▁employ	-10.5958
▁broken	-10.596
▁urge	-10.5961
▁hill	-10.5962
▁Robin	-10.5963
▁tag	-10.5964
▁inspired	-10.5965
▁Death	-10.5967
▁Super	-10.5969
▁passion	-10.5969
▁IS	-10.5969
▁chosen	-10.5969
▁sink	-10.597
▁hopeless	-10.5971
▁anime	-10.5971
▁Great	-10.5973
▁frequently	-10.5973
▁Down	-10.5973
▁Bernie	-10.5974
▁Life	-10.5978
▁tie	-10.598
▁Q	-10.5982
▁warned	-10.5985
▁annoyed	-10.5987
▁seat	-10.599
▁fla	-10.599
▁games	-10.5997
▁Live	-10.5998
▁preach	-10.6003
▁justice	-10.6006
▁Sally	-10.6007
▁mentally	-10.6009
▁listening	-10.6011
▁connected	-10.6012
▁unlikely	-10.6012
▁lay	-10.6014
▁Overall	-10.6015
▁closer	-10.6016
▁served	-10.6022
AL	-10.6024
▁cringe	-10.603
handed	-10.603
▁gu	-10.603
take	-10.6036
▁har	-10.6042
▁directly	-10.6044
▁flying	-10.6051
ward	-10.6051
▁Red	-10.6052
▁Ru	-10.6054
▁sell	-10.6057
▁May	-10.6059
▁slave	-10.6062
▁destroyed	-10.607
▁comical	-10.6078
▁aside	-10.6082
▁kicking	-10.6093
▁Em	-10.6095
▁Your	-10.6098
▁according	-10.6108
▁knowing	-10.6115
▁meat	-10.6121
▁strangely	-10.6125
▁offered	-10.6129
▁bothered	-10.6158
▁Cat	-10.6161
▁tears	-10.6171
▁ver	-10.6177
▁wind	-10.618
▁Brothers	-10.6191
gu	-10.6195
▁standing	-10.6201
▁absolute	-10.6202
▁passed	-10.6205
▁Their	-10.6236
▁temp	-10.6237
▁rec	-10.6259
▁ju	-10.6259
fe	-10.627
▁react	-10.6275
▁leader	-10.6275
ane	-10.6279
▁inner	-10.6294
▁recommended	-10.6305
▁Satan	-10.6309
using	-10.6317
they	-10.6351
ude	-10.6354
▁Pu	-10.6364
▁tricks	-10.6368
▁belief	-10.6388
▁stunt	-10.6388
accidentally	-10.6396
▁parent	-10.6437
too	-10.6451
vy	-10.6454
▁Dar	-10.6454
▁Ms	-10.646
▁reviewer	-10.647
▁amuse	-10.6474
▁term	-10.6494
cker	-10.6502
▁examples	-10.6506
ole	-10.6511
▁extras	-10.6512
▁MAN	-10.6513
▁rank	-10.6527
▁boot	-10.6539
▁visuals	-10.6549
50	-10.6551
▁terror	-10.6567
eek	-10.6576
clear	-10.6588
▁wander	-10.66
minute	-10.6607
$	-10.6608
maybe	-10.6608
director	-10.6608
dead	-10.6608
national	-10.6608
▁spoil	-10.6609
bound	-10.6612
ability	-10.6618
▁surviv	-10.6618
shot	-10.6621
▁sudden	-10.6624
Fro	-10.6627
▁recognize	-10.6633
▁fill	-10.6634
qua	-10.6645
#	-10.6654
▁breaks	-10.6655
▁accus	-10.6661
▁psycho	-10.6662
▁relation	-10.6663
▁McCarthy	-10.6663
▁Oliver	-10.6663
▁landscape	-10.6663
▁mirror	-10.6663
▁preview	-10.6663
▁process	-10.6663
▁service	-10.6663
▁sympathetic	-10.6663
Gammera	-10.6663
▁Mexican	-10.6663
▁Pacino	-10.6663
▁Stephen	-10.6663
▁Taylor	-10.6663
▁altogether	-10.6663
▁attitude	-10.6663
▁automatic	-10.6663
▁department	-10.6663
▁disjointed	-10.6663
▁festival	-10.6663
▁gorgeous	-10.6663
▁gruesome	-10.6663
▁illogical	-10.6663
▁incredible	-10.6663
▁independent	-10.6663
▁inexplicabl	-10.6663
▁obscure	-10.6663
▁ordinary	-10.6663
▁ticket	-10.6663
▁unwatchable	-10.6663
▁virgin	-10.6663
▁vulgar	-10.6663
▁cousin	-10.6663
▁photo	-10.6663
▁steam	-10.6663
▁advise	-10.6663
▁varie	-10.6663
▁official	-10.6663
▁turd	-10.6663
▁Ryan	-10.6663
▁chuckl	-10.6663
▁rough	-10.6663
▁tragedy	-10.6663
▁morning	-10.6663
▁initial	-10.6663
▁Susan	-10.6663
▁REALLY	-10.6664
▁pregnant	-10.6664
▁Plus	-10.6664
▁competent	-10.6664
▁supernatural	-10.6664
▁center	-10.6664
▁monkey	-10.6664
▁superhero	-10.6664
▁narration	-10.6665
▁glass	-10.6665
▁subplot	-10.6665
▁2/10	-10.6666
▁punish	-10.6666
▁identity	-10.6666
▁bull	-10.6666
▁unbearable	-10.6666
▁excitement	-10.6666
▁gangster	-10.6666
▁Much	-10.6666
▁Warner	-10.6666
▁chair	-10.6667
▁sitcom	-10.6667
▁resort	-10.6667
▁shut	-10.6667
▁pool	-10.6667
▁shine	-10.6667
▁North	-10.6668
▁BUT	-10.6668
▁toilet	-10.6669
▁Julian	-10.6669
▁Heston	-10.6669
▁miserably	-10.6669
▁page	-10.667
▁advantage	-10.667
▁coherent	-10.667
▁Lake	-10.667
▁settle	-10.667
▁shout	-10.667
▁buff	-10.6671
▁depiction	-10.6671
▁Gene	-10.6671
▁14	-10.6671
▁uneven	-10.6672
▁crude	-10.6673
▁Paris	-10.6674
▁wreck	-10.6674
▁Ex	-10.6675
▁uninspired	-10.6677
▁Law	-10.6678
▁Gram	-10.6678
▁Part	-10.6679
▁Hi	-10.668
▁uncle	-10.6683
▁Blue	-10.6683
▁Besides	-10.6683
▁prop	-10.6683
▁topless	-10.6683
▁Grade	-10.6685
▁cable	-10.6687
▁sky	-10.6689
▁Over	-10.6692
▁hence	-10.6692
▁pitch	-10.6694
omic	-10.6695
▁FB	-10.6698
▁Boll	-10.67
aking	-10.67
▁overacting	-10.6701
▁Seriously	-10.6704
▁lengthy	-10.6706
tell	-10.6707
▁Justin	-10.6711
▁dancer	-10.6712
▁intense	-10.6714
▁nut	-10.6714
▁related	-10.6719
▁convinced	-10.672
▁fatal	-10.672
▁City	-10.6723
▁anybody	-10.6724
▁sold	-10.6727
▁Fu	-10.6729
▁campy	-10.6732
▁Yet	-10.6733
▁Cha	-10.6735
▁weight	-10.6738
▁included	-10.6742
▁revealed	-10.6743
▁Germany	-10.6745
▁Green	-10.675
▁Rose	-10.6754
▁speaks	-10.6754
*1/2	-10.6756
onnie	-10.6767
▁causes	-10.6775
▁Ri	-10.678
▁figured	-10.6798
oooo	-10.6808
pic	-10.6813
▁Movies	-10.6815
▁stinks	-10.6819
▁guts	-10.682
▁0	-10.6825
▁promot	-10.6825
▁area	-10.6829
▁massi	-10.6837
makers	-10.6838
▁breaking	-10.6857
▁hu	-10.6858
▁hundreds	-10.6861
▁attacks	-10.6862
▁Reed	-10.6866
▁magical	-10.6868
▁Lil	-10.687
grew	-10.6875
▁covered	-10.688
▁measure	-10.6881
ual	-10.6892
▁pri	-10.6897
▁rats	-10.6898
Hey	-10.6901
▁Pri	-10.6911
lle	-10.6916
▁bo	-10.692
aving	-10.6932
▁hey	-10.6942
▁Chan	-10.6954
▁Sea	-10.6956
reat	-10.6978
▁Hou	-10.699
▁arts	-10.6994
▁ratings	-10.7003
▁deadly	-10.7011
▁idiots	-10.7018
Ma	-10.7023
▁Have	-10.7024
ez	-10.7039
tress	-10.7045
▁Jar	-10.705
▁gal	-10.7078
▁wears	-10.7078
ien	-10.7088
most	-10.7101
bell	-10.7107
uous	-10.7119
lum	-10.7124
▁encourage	-10.7135
lent	-10.7147
▁bullet	-10.7159
▁criminal	-10.7161
▁skill	-10.7162
▁Brother	-10.7171
▁press	-10.7189
actor	-10.719
▁16	-10.7207
▁Roman	-10.7216
hr	-10.7238
▁Add	-10.7242
▁Sin	-10.7242
SE	-10.7254
▁boo	-10.7258
▁chicks	-10.7267
▁creat	-10.727
story	-10.7286
ix	-10.7298
▁Had	-10.7305
▁disappoint	-10.732
rage	-10.7322
udio	-10.7333
▁bra	-10.7339
Man	-10.7341
mber	-10.7349
▁cri	-10.735
llen	-10.7357
▁admire	-10.7367
▁Ol	-10.7368
Maybe	-10.7377
Unfortunately	-10.7377
from	-10.7377
twist	-10.7378
▁LA	-10.7378
Also	-10.7378
awful	-10.7378
▁kidnapp	-10.7379
loved	-10.7381
water	-10.7382
style	-10.7384
forward	-10.7387
▁ultimate	-10.7393
▁unfortunate	-10.7393
▁wor	-10.7395
RA	-10.7398
▁unintentional	-10.7399
av	-10.7402
▁Kill	-10.741
▁unbelievabl	-10.7411
▁collect	-10.7416
▁funnie	-10.7425
▁sentiment	-10.7425
▁hire	-10.7427
▁Lord	-10.7428
▁object	-10.7431
▁elect	-10.7432
▁Japan	-10.7433
▁Bollywood	-10.7433
▁Catholic	-10.7433
▁MOVIE	-10.7433
▁Project	-10.7433
▁Tarzan	-10.7433
▁Vietnam	-10.7433
▁atmospheric	-10.7433
▁bargain	-10.7433
▁blockbuster	-10.7433
▁condition	-10.7433
▁exaggerated	-10.7433
▁politics	-10.7433
▁radio	-10.7433
▁regular	-10.7433
▁sleazy	-10.7433
▁superficial	-10.7433
▁Arnold	-10.7433
▁blank	-10.7433
▁credible	-10.7433
▁descend	-10.7433
▁downhill	-10.7433
▁homage	-10.7433
▁network	-10.7433
▁ought	-10.7433
▁separate	-10.7433
▁spark	-10.7433
▁Crisp	-10.7433
▁Jerry	-10.7433
▁charisma	-10.7433
Meanwhile	-10.7433
▁NEVER	-10.7433
▁Kelly	-10.7433
▁banal	-10.7433
▁enorm	-10.7433
▁electric	-10.7433
▁psychological	-10.7433
▁Spike	-10.7433
▁Brooks	-10.7433
▁cowboy	-10.7433
▁health	-10.7433
▁Kerr	-10.7433
▁embarrassment	-10.7433
▁Science	-10.7434
▁childhood	-10.7434
▁Matrix	-10.7434
▁outfit	-10.7434
▁nuance	-10.7434
▁food	-10.7434
▁pride	-10.7434
▁print	-10.7434
▁Batman	-10.7434
▁torment	-10.7434
▁propaganda	-10.7434
EAR	-10.7434
▁dangerous	-10.7435
▁wide	-10.7435
▁(198	-10.7435
▁Khan	-10.7435
▁stalk	-10.7435
▁excessive	-10.7435
▁winner	-10.7435
▁chasing	-10.7436
▁sword	-10.7436
▁portion	-10.7436
▁rain	-10.7437
▁creation	-10.7437
▁metal	-10.7437
▁Lady	-10.7437
▁flight	-10.7438
▁maniac	-10.7438
▁flies	-10.7438
▁Australian	-10.7438
▁wrap	-10.7439
▁invest	-10.7439
▁Fred	-10.7439
▁Family	-10.744
▁contemporary	-10.744
▁meaningless	-10.7441
▁presentation	-10.7441
▁Miller	-10.7443
▁blend	-10.7444
▁Halloween	-10.7444
▁Shirley	-10.7444
▁Isabelle	-10.7444
▁Anne	-10.7445
▁Mark	-10.7448
▁relie	-10.7448
▁brainless	-10.7449
▁Elizabeth	-10.7449
▁Sorry	-10.7449
▁aspir	-10.7449
▁porno	-10.7451
▁Christ	-10.7452
▁receive	-10.7452
▁motive	-10.7453
Donald	-10.7453
▁Kid	-10.7455
▁fascinating	-10.7455
▁Plan	-10.7457
▁lucky	-10.7458
▁Dream	-10.7461
▁pot	-10.7462
▁Unless	-10.7466
▁blown	-10.7468
▁hack	-10.7475
▁hopeful	-10.7475
▁Andy	-10.748
▁counter	-10.7484
▁driver	-10.7487
▁effectively	-10.749
shi	-10.7497
▁reasonable	-10.7503
▁gory	-10.7505
▁talents	-10.7509
▁critical	-10.7522
▁screening	-10.7524
▁forth	-10.7529
aged	-10.7531
▁mini	-10.7539
▁insist	-10.7543
berg	-10.7548
▁sports	-10.7556
▁bone	-10.7561
ridge	-10.7564
wear	-10.7567
▁Absolutely	-10.7568
▁Bi	-10.7573
ively	-10.7574
▁shocked	-10.7575
lines	-10.7575
nce	-10.7578
▁Things	-10.7579
▁training	-10.7581
▁IN	-10.7585
▁unit	-10.7595
▁morons	-10.7601
▁cl	-10.762
▁breasts	-10.7624
itation	-10.7629
erg	-10.7633
▁size	-10.7633
▁stone	-10.7637
▁featured	-10.7642
ense	-10.7657
▁Rain	-10.7664
▁performers	-10.7673
▁provid	-10.7678
Whil	-10.7679
east	-10.7691
▁maker	-10.7698
▁buying	-10.7714
▁bullets	-10.7715
▁sw	-10.7728
mple	-10.7728
UR	-10.7736
▁picking	-10.7739
essentially	-10.7762
▁legend	-10.7781
azing	-10.7784
▁diver	-10.779
▁Give	-10.7798
▁robots	-10.7799
▁Hal	-10.7819
98	-10.782
▁wing	-10.7841
▁Leon	-10.7846
mail	-10.7857
▁essential	-10.792
lia	-10.7922
▁Dam	-10.7923
gle	-10.7939
iac	-10.7943
▁flaw	-10.7945
ime	-10.7954
list	-10.7965
She	-10.7981
▁forgiven	-10.7985
gene	-10.7986
▁sentence	-10.7987
▁terrorist	-10.7991
▁soldier	-10.7997
▁loser	-10.8001
▁aliens	-10.801
ither	-10.8014
▁streets	-10.8017
pl	-10.8021
hard	-10.8027
ax	-10.8035
imi	-10.8035
▁tear	-10.8037
▁Zombie	-10.8037
▁TO	-10.8048
ple	-10.8067
▁aged	-10.8075
come	-10.8105
lay	-10.8107
▁196	-10.813
efore	-10.8161
friend	-10.8161
place	-10.818
▁delivers	-10.8189
▁metaphor	-10.8192
▁rat	-10.8198
▁dress	-10.8206
▁redeem	-10.8207
characterization	-10.8208
Okay	-10.8209
Anyway	-10.821
after	-10.8211
grade	-10.8212
turn	-10.8218
▁occasional	-10.8227
▁wh	-10.8228
See	-10.8231
▁base	-10.8235
▁produce	-10.8245
▁natural	-10.8252
hold	-10.826
▁happi	-10.8263
▁fift	-10.8263
▁threat	-10.8264
▁Hard	-10.8266
▁vehicle	-10.8266
▁Actually	-10.8266
▁Branagh	-10.8266
▁England	-10.8266
▁abysmal	-10.8266
▁aforementioned	-10.8266
▁buried	-10.8266
▁crush	-10.8266
▁dignity	-10.8266
▁disguise	-10.8266
▁exercise	-10.8266
▁generic	-10.8266
▁holiday	-10.8266
▁inject	-10.8266
▁jealous	-10.8266
▁nonsensical	-10.8266
▁phony	-10.8266
▁reflect	-10.8266
▁reject	-10.8266
▁suspend	-10.8266
▁suspicious	-10.8266
▁sympathy	-10.8266
▁turtle	-10.8266
▁universe	-10.8266
▁circle	-10.8266
▁determined	-10.8266
▁shark	-10.8266
▁slapstick	-10.8266
▁Harry	-10.8266
▁Lindsay	-10.8266
▁Arnie	-10.8266
▁afternoon	-10.8266
▁smile	-10.8266
▁status	-10.8266
▁GOOD	-10.8266
taneous	-10.8266
▁flims	-10.8266
▁shift	-10.8266
▁bathroom	-10.8266
▁Albert	-10.8266
▁clothing	-10.8266
▁rubber	-10.8266
▁Coburn	-10.8266
................	-10.8266
▁facial	-10.8266
▁Victor	-10.8266
▁implausible	-10.8266
▁fond	-10.8266
▁trag	-10.8267
▁1990	-10.8267
▁Town	-10.8267
▁rapists	-10.8267
▁Mormon	-10.8267
▁lift	-10.8267
▁Timberlake	-10.8267
▁slaughter	-10.8267
▁crawl	-10.8267
▁Egyptian	-10.8267
▁thread	-10.8267
▁justify	-10.8267
made	-10.8267
▁Morgan	-10.8267
▁psychotic	-10.8267
▁resist	-10.8268
▁Romero	-10.8268
▁shake	-10.8268
▁misery	-10.8268
▁Something	-10.8268
▁Shame	-10.8268
▁consistent	-10.8269
▁unnatural	-10.8269
▁sadistic	-10.8269
▁addict	-10.8269
▁closing	-10.8269
▁string	-10.8269
▁worthwhile	-10.8269
▁acid	-10.8269
▁dump	-10.8269
▁handsome	-10.827
▁thirty	-10.8271
END	-10.8271
▁Haim	-10.8271
▁Somehow	-10.8271
▁laid	-10.8272
▁knowledge	-10.8272
▁tomb	-10.8272
▁muddled	-10.8272
▁marry	-10.8273
▁Frankenstein	-10.8274
▁Grendel	-10.8274
▁kiss	-10.8274
▁vice	-10.8274
▁Island	-10.8274
▁Sarah	-10.8275
CK	-10.8276
▁delight	-10.8276
▁fame	-10.8277
▁UK	-10.8278
▁shape	-10.8278
▁selfish	-10.8279
▁bag	-10.8279
▁Sound	-10.8279
▁tame	-10.8279
▁screw	-10.8279
losing	-10.8281
▁bow	-10.8281
▁Never	-10.8281
▁Kane	-10.8281
▁bigger	-10.8283
▁danger	-10.8283
▁shelf	-10.8284
▁Yeah	-10.8284
▁winning	-10.8284
▁24	-10.8284
▁Maria	-10.8284
▁Think	-10.8284
▁Devil	-10.8285
RY	-10.8286
▁table	-10.8288
▁viru	-10.8289
▁Nation	-10.829
▁Music	-10.8292
▁Oprah	-10.8294
eb	-10.8296
▁Angela	-10.8296
▁touches	-10.8298
▁realism	-10.8299
▁pity	-10.8304
▁SPOILERS	-10.8307
▁occasionally	-10.8308
2)	-10.8308
▁State	-10.8311
▁heroes	-10.8313
▁tri	-10.8316
▁Ada	-10.8316
▁received	-10.8329
▁Save	-10.8329
▁pr	-10.8334
▁dimensional	-10.8343
▁progress	-10.8351
▁fits	-10.8353
▁Welles	-10.8359
▁captured	-10.8366
▁row	-10.8368
▁_	-10.8369
▁West	-10.8376
▁Rangers	-10.8376
▁Bell	-10.8379
neck	-10.8381
key	-10.8384
ium	-10.8386
rating	-10.839
uk	-10.8397
▁Rogers	-10.8401
▁noir	-10.8412
▁inane	-10.8412
pr	-10.8419
▁beg	-10.842
▁um	-10.8429
sort	-10.8434
▁sexually	-10.8436
UT	-10.8438
▁Los	-10.8446
▁Home	-10.845
▁Jim	-10.8453
▁focusing	-10.8462
▁AT	-10.8471
▁indicat	-10.8483
▁button	-10.8488
▁core	-10.8491
▁protagonists	-10.8499
gun	-10.8504
▁dish	-10.8522
▁weapons	-10.8524
▁appealing	-10.8545
▁learning	-10.8552
nne	-10.8563
Dr	-10.8568
▁stunts	-10.8599
▁beliefs	-10.8599
▁beating	-10.8602
roll	-10.8626
▁protect	-10.8628
▁Rob	-10.8645
▁dollars	-10.865
▁Cho	-10.865
▁cells	-10.8675
"...	-10.8675
ERS	-10.8682
aka	-10.8705
AST	-10.8715
ston	-10.8717
▁idiotic	-10.8722
fu	-10.873
▁Pal	-10.8735
▁pu	-10.8735
pal	-10.8741
▁reduce	-10.8742
▁inspiration	-10.8753
1)	-10.8757
ya	-10.8761
▁views	-10.8766
pot	-10.8777
▁overlook	-10.8792
headed	-10.8793
▁Pat	-10.8798
leg	-10.8799
19	-10.8802
▁Tim	-10.8806
▁Len	-10.8819
........	-10.8822
IE	-10.8844
▁Gr	-10.8846
hand	-10.8846
Ste	-10.8855
rent	-10.8861
▁disc	-10.8877
rus	-10.8878
ump	-10.8879
▁weapon	-10.8899
atic	-10.8901
▁expression	-10.8904
▁believed	-10.8906
▁Hill	-10.8913
ara	-10.8914
▁performer	-10.8921
▁folk	-10.8924
▁theaters	-10.8928
▁noise	-10.8931
llow	-10.8934
▁issue	-10.8936
▁pack	-10.895
▁Win	-10.8956
ccording	-10.896
▁weeks	-10.8983
▁Bett	-10.8999
▁mass	-10.9001
rash	-10.9005
tella	-10.9033
je	-10.9052
IT	-10.9056
▁annoy	-10.9063
▁trap	-10.9085
▁Mak	-10.9087
face	-10.9092
ctic	-10.9109
gh	-10.911
ground	-10.9113
▁seasons	-10.9114
Where	-10.9119
Just	-10.912
because	-10.9121
▁pur	-10.9121
wit	-10.9121
Who	-10.9129
mark	-10.9129
fall	-10.913
▁evident	-10.9132
bel	-10.9132
human	-10.9136
Let	-10.9139
count	-10.9139
▁require	-10.9145
▁combine	-10.9145
▁Hur	-10.9148
▁organ	-10.9149
cher	-10.9151
▁philosoph	-10.9153
▁whil	-10.9155
▁compare	-10.9155
▁realise	-10.9156
▁obsess	-10.9158
ku	-10.9166
▁nation	-10.9168
▁path	-10.917
▁spit	-10.9173
▁regret	-10.9175
▁inconsisten	-10.9175
▁mountain	-10.9175
▁register	-10.9175
▁ultra	-10.9175
▁widow	-10.9175
▁1930	-10.9175
▁Bronson	-10.9175
▁Carpenter	-10.9175
▁Columbo	-10.9175
▁Dressler	-10.9175
▁Holmes	-10.9175
▁Jewish	-10.9175
▁Lommel	-10.9175
▁Lopez	-10.9175
▁Stanwyck	-10.9175
▁Stewart	-10.9175
▁Sutherland	-10.9175
▁Video	-10.9175
▁camcorder	-10.9175
▁consequence	-10.9175
▁convenient	-10.9175
▁crocodile	-10.9175
▁disgrace	-10.9175
▁education	-10.9175
▁explore	-10.9175
▁franchise	-10.9175
▁hysterical	-10.9175
▁preposterous	-10.9175
▁rival	-10.9175
▁section	-10.9175
▁silliness	-10.9175
▁sketch	-10.9175
▁throat	-10.9175
▁frightened	-10.9175
▁unfold	-10.9175
▁warehouse	-10.9175
▁SNL	-10.9175
▁border	-10.9175
▁expand	-10.9175
Bottom	-10.9175
▁afford	-10.9175
▁corner	-10.9175
▁Iraq	-10.9175
▁demonstrate	-10.9175
▁roommate	-10.9175
▁Brain	-10.9175
▁extent	-10.9175
▁faint	-10.9175
▁Intentions	-10.9175
▁heaven	-10.9175
▁errors	-10.9175
▁notorious	-10.9175
▁Picture	-10.9175
▁Sometimes	-10.9175
▁blast	-10.9175
▁Hmm	-10.9175
▁inappropriate	-10.9175
▁Witch	-10.9175
▁disease	-10.9176
▁favourite	-10.9176
▁Revolution	-10.9176
▁unexpected	-10.9176
▁launch	-10.9176
▁defend	-10.9176
▁Middle	-10.9176
▁miscast	-10.9176
▁linger	-10.9176
▁Freddy	-10.9176
▁gift	-10.9176
▁mainstream	-10.9176
nominated	-10.9176
southern	-10.9176
▁Turn	-10.9177
▁mug	-10.9177
▁resemblance	-10.9177
▁kidding	-10.9177
▁slut	-10.9177
▁forgot	-10.9177
ouble	-10.9178
▁River	-10.9178
▁Fury	-10.9178
▁pound	-10.9178
▁flame	-10.9178
▁involvement	-10.9179
▁Superman	-10.9179
ntum	-10.918
▁clumsy	-10.918
▁proof	-10.9181
▁Simpl	-10.9181
▁remarkable	-10.9182
▁suspenseful	-10.9182
▁formulaic	-10.9182
▁ABC	-10.9183
▁mafi	-10.9183
▁Kathryn	-10.9183
▁Terrible	-10.9183
▁Rachel	-10.9183
played	-10.9184
▁render	-10.9184
▁eaten	-10.9185
▁beast	-10.9186
▁wannabe	-10.9186
▁Shu	-10.9187
▁Johnson	-10.9187
▁witch	-10.9187
▁beaten	-10.9188
▁buddy	-10.9189
▁Amitabh	-10.9189
▁Beowulf	-10.9189
▁Obviously	-10.9189
▁Shaggy	-10.9189
▁Brown	-10.9189
▁cultural	-10.9189
▁Wild	-10.9189
▁lend	-10.9191
▁Such	-10.9191
▁summer	-10.9192
▁flop	-10.9193
▁sca	-10.9193
▁Back	-10.9193
▁gem	-10.9194
▁surprises	-10.9196
▁philosophy	-10.9197
▁Character	-10.9197
▁Hunter	-10.9198
▁Nichol	-10.9199
▁Danes	-10.9199
▁Fay	-10.9199
▁cutting	-10.92
▁Barry	-10.9201
▁expos	-10.9203
▁homeless	-10.9204
▁combined	-10.9205
▁fortune	-10.9205
▁goof	-10.9205
▁Bond	-10.9207
▁yelling	-10.9208
▁=	-10.9211
▁repeatedly	-10.9212
▁traditional	-10.9213
fire	-10.9213
▁Spoiler	-10.9216
▁behave	-10.9217
▁worthless	-10.9217
dler	-10.9218
▁deeper	-10.9219
▁naturally	-10.922
▁Run	-10.9221
▁butcher	-10.9223
▁unintentionally	-10.9224
▁reel	-10.9227
▁Acting	-10.9229
Yes	-10.9236
▁introduce	-10.9244
▁delivery	-10.9245
▁driven	-10.9246
▁Irish	-10.9247
▁boom	-10.925
▁admir	-10.9251
kip	-10.9252
▁performed	-10.9258
▁stranger	-10.9262
▁ski	-10.9264
▁brave	-10.9273
Mr	-10.9275
▁properly	-10.9275
▁***	-10.9276
▁Air	-10.9285
▁states	-10.9293
▁slugs	-10.9296
▁candy	-10.9297
▁quarter	-10.93
unch	-10.9302
lord	-10.9304
▁environmental	-10.9305
▁Put	-10.9312
▁simul	-10.9317
▁strongly	-10.9323
▁Girls	-10.9323
▁poster	-10.9325
▁Pie	-10.9328
▁failing	-10.934
▁delivered	-10.9344
▁months	-10.935
▁litera	-10.9353
▁Oscars	-10.9354
▁lesser	-10.9377
▁sincere	-10.9381
▁nuts	-10.939
▁cap	-10.939
late	-10.9393
ruel	-10.9401
▁sevent	-10.9403
▁twisted	-10.9412
▁dec	-10.9415
By	-10.9424
▁pose	-10.9452
▁rotte	-10.9455
Linda	-10.9455
▁RE	-10.9459
▁Hills	-10.946
gent	-10.9465
▁ram	-10.9469
erson	-10.9474
▁Ye	-10.9474
▁offering	-10.9476
▁terrorists	-10.9488
!!!!!	-10.9488
▁losers	-10.9488
nts	-10.9488
▁Hay	-10.9508
name	-10.9518
▁Barr	-10.953
▁tr	-10.9539
▁Kar	-10.9548
oul	-10.9552
▁ge	-10.9557
mour	-10.9558
ET	-10.9564
liss	-10.9577
ura	-10.9582
IVE	-10.9588
▁11	-10.9588
▁para	-10.9604
visible	-10.9605
eff	-10.9613
itz	-10.9618
OUT	-10.9628
▁Friend	-10.9637
▁explod	-10.9648
pping	-10.9667
udge	-10.9676
▁Gra	-10.9706
▁predict	-10.9706
▁Both	-10.9738
ulation	-10.9756
▁prof	-10.9758
▁dim	-10.9761
put	-10.9781
▁ear	-10.9785
▁bus	-10.9823
▁mile	-10.9825
ux	-10.9829
▁rot	-10.9885
▁protagonist	-10.9899
▁hundred	-10.9901
horn	-10.9912
▁Rod	-10.9916
rial	-10.9917
pri	-10.9941
▁tip	-10.9947
▁pin	-10.9949
▁tea	-10.9952
imp	-10.9971
hey	-10.9985
▁caring	-10.9992
rick	-11.0002
1/2	-11.0019
wan	-11.002
▁mate	-11.0037
▁transfer	-11.0044
▁Bob	-11.0055
either	-11.0061
robably	-11.0062
special	-11.008
▁tracks	-11.0082
▁creatures	-11.0082
▁believ	-11.0085
dding	-11.0086
US	-11.0086
eh	-11.0096
worth	-11.0098
ji	-11.01
mission	-11.0101
▁2)	-11.0101
▁Lauren	-11.0104
lore	-11.0106
▁sacrifice	-11.011
▁impress	-11.0116
Seriously	-11.0118
aki	-11.0118
Please	-11.0119
thriller	-11.0119
Peter	-11.0119
white	-11.012
Good	-11.0122
half	-11.0126
great	-11.0126
60	-11.0128
▁Off	-11.013
fight	-11.0131
▁tradition	-11.0133
▁AL	-11.0134
3)	-11.0137
worthy	-11.0141
▁achieve	-11.0141
▁span	-11.0144
▁squa	-11.015
about	-11.015
guy	-11.0153
▁quit	-11.0155
complete	-11.0156
▁Africa	-11.0159
hood	-11.0159
▁spoke	-11.016
EST	-11.0162
cream	-11.0166
▁invent	-11.017
▁EVERY	-11.0171
▁discuss	-11.0171
▁quest	-11.0171
▁Univers	-11.0171
▁WORS	-11.0172
▁confront	-11.0173
▁interact	-11.0173
▁Brit	-11.0173
sembl	-11.0174
▁Phil	-11.0174
▁cannibal	-11.0174
▁relentless	-11.0175
Blank	-11.0175
Direction	-11.0175
–	-11.0175
▁Arquette	-11.0175
▁Carradine	-11.0175
▁Glover	-11.0175
▁Jagger	-11.0175
▁McGovern	-11.0175
▁Quentin	-11.0175
▁Rajinikanth	-11.0175
▁Stooge	-11.0175
▁Streisand	-11.0175
▁Tolstoy	-11.0175
▁Wheeler	-11.0175
▁Wonder	-11.0175
▁accompanie	-11.0175
▁alcohol	-11.0175
▁alternate	-11.0175
▁appropriate	-11.0175
▁assault	-11.0175
▁celluloid	-11.0175
▁cyborg	-11.0175
▁disagree	-11.0175
▁french	-11.0175
▁grotesque	-11.0175
▁kitchen	-11.0175
▁menacing	-11.0175
▁misguided	-11.0175
▁naughty	-11.0175
▁outstanding	-11.0175
▁paragraph	-11.0175
▁parallel	-11.0175
▁patient	-11.0175
▁perspective	-11.0175
▁plague	-11.0175
▁producing	-11.0175
▁puppet	-11.0175
▁rambling	-11.0175
▁repetitive	-11.0175
▁sibling	-11.0175
▁smoking	-11.0175
▁terrific	-11.0175
▁translation	-11.0175
▁unlikable	-11.0175
▁wretched	-11.0175
▁Russell	-11.0175
▁clown	-11.0175
▁coffin	-11.0175
▁dedicat	-11.0175
▁imaginative	-11.0175
▁Broad	-11.0175
▁Farrell	-11.0175
▁Wolf	-11.0175
▁changing	-11.0175
▁dinner	-11.0175
▁dreck	-11.0175
▁outrageous	-11.0175
▁pirate	-11.0175
▁racial	-11.0175
▁select	-11.0175
▁sheriff	-11.0175
▁sweat	-11.0175
▁Living	-11.0175
▁drain	-11.0175
▁Worse	-11.0175
▁contestants	-11.0175
▁Derek	-11.0175
▁Trek	-11.0175
▁astonish	-11.0175
▁destin	-11.0175
▁minus	-11.0175
▁lawyer	-11.0175
▁flirt	-11.0175
▁estate	-11.0175
▁maintain	-11.0175
▁frustrated	-11.0175
▁erotic	-11.0175
▁Storm	-11.0175
conceived	-11.0175
▁Read	-11.0175
▁chief	-11.0175
▁defeat	-11.0175
▁Jenny	-11.0175
▁Eater	-11.0175
mato	-11.0175
▁exposition	-11.0175
▁Wrestlemania	-11.0175
▁Clark	-11.0175
▁private	-11.0175
▁interpretation	-11.0175
▁schlock	-11.0175
▁Bigfoot	-11.0175
▁Ayers	-11.0175
▁Huston	-11.0176
▁Miike	-11.0176
▁identif	-11.0176
▁stiff	-11.0176
▁tongue	-11.0176
▁argument	-11.0176
▁botch	-11.0176
▁Seberg	-11.0176
▁resemble	-11.0176
▁Child	-11.0176
▁Cinema	-11.0176
▁Talk	-11.0176
▁Stanley	-11.0176
▁personalities	-11.0176
▁depression	-11.0176
ummer	-11.0176
▁grasp	-11.0177
▁fluff	-11.0177
also	-11.0177
ternal	-11.0177
▁chew	-11.0177
▁Tommy	-11.0178
▁helm	-11.0178
▁easier	-11.0178
▁Maher	-11.0178
▁Boyle	-11.0178
▁subtitles	-11.0178
conscious	-11.0179
▁narrator	-11.0179
stein	-11.0179
▁countryside	-11.0179
▁elsewhere	-11.018
▁Daniel	-11.0181
▁besides	-11.0181
▁Joan	-11.0181
▁minion	-11.0181
▁madness	-11.0182
▁choreography	-11.0182
▁Moran	-11.0182
▁everywhere	-11.0182
▁transform	-11.0183
▁Eric	-11.0184
▁authority	-11.0184
cult	-11.0184
▁broke	-11.0184
▁Wright	-11.0184
▁Kenneth	-11.0184
▁Washington	-11.0184
▁phrase	-11.0184
▁dud	-11.0184
▁float	-11.0184
▁Crow	-11.0185
▁satisfying	-11.0185
▁Long	-11.0185
▁Boyer	-11.0186
▁funnier	-11.0187
▁leap	-11.0188
#2	-11.0188
▁guilty	-11.019
▁WWII	-11.019
▁function	-11.019
▁loving	-11.019
▁Mystery	-11.019
▁Tree	-11.0191
▁intro	-11.0193
▁nerv	-11.0194
▁Fall	-11.0194
▁chain	-11.0194
▁Matth	-11.0194
▁format	-11.0195
▁filler	-11.0195
ouch	-11.0195
▁mock	-11.0196
▁22	-11.0196
▁busy	-11.0198
Con	-11.0198
▁dust	-11.0198
▁blatantly	-11.0199
▁Mill	-11.0199
▁Neo	-11.0201
▁enjoyment	-11.0205
▁map	-11.0205
▁grabb	-11.0205
▁Cut	-11.0205
▁exit	-11.0207
▁Tet	-11.0208
indulgent	-11.0209
▁finest	-11.0209
▁mobile	-11.0211
▁Penn	-11.0214
thin	-11.0216
▁Rich	-11.0217
▁bitter	-11.0222
▁Thre	-11.0222
Final	-11.0224
▁fish	-11.0226
▁Try	-11.0227
▁factory	-11.0233
▁repeated	-11.0237
▁upper	-11.0239
presumably	-11.0253
▁Cur	-11.0255
▁bound	-11.0268
▁rarely	-11.0269
▁exists	-11.0273
▁teaching	-11.0279
▁port	-11.0292
▁invisible	-11.0294
▁claimed	-11.0299
▁sk	-11.0307
▁Muslims	-11.031
onic	-11.0314
▁Dumb	-11.0318
▁drinking	-11.0319
▁briefly	-11.0321
loud	-11.0323
▁succeeded	-11.0324
▁fo	-11.0327
▁pen	-11.0336
▁discovered	-11.0341
▁Ted	-11.0349
▁Cra	-11.0349
▁Fair	-11.0351
▁operat	-11.0354
AP	-11.0355
▁Val	-11.0361
iel	-11.0366
▁painting	-11.0368
▁explosions	-11.037
▁MI	-11.0371
▁legs	-11.0372
▁reward	-11.0374
▁focused	-11.0376
▁Stan	-11.0377
▁Kim	-11.038
▁dro	-11.0381
THE	-11.0385
▁angels	-11.04
ALLY	-11.0412
▁spr	-11.0419
▁web	-11.0422
▁guests	-11.0431
utter	-11.0435
▁sleeping	-11.0441
mature	-11.0446
bashing	-11.0451
▁backward	-11.0452
▁ice	-11.0455
▁Cla	-11.0471
▁expressions	-11.0492
▁noises	-11.0492
▁warn	-11.0496
▁goal	-11.0503
▁plant	-11.0514
▁Bon	-11.052
▁Zombies	-11.053
▁cow	-11.0537
▁Yu	-11.0552
▁skills	-11.0553
▁1)	-11.0553
▁Sla	-11.0556
▁ranks	-11.0579
▁winds	-11.0597
▁slim	-11.0612
Take	-11.0618
▁Ten	-11.0623
stage	-11.0628
▁gri	-11.0648
mid	-11.0667
▁rebel	-11.0669
▁meeting	-11.0671
▁rave	-11.0672
0%	-11.0678
egas	-11.0682
▁blur	-11.0685
umb	-11.0691
▁critic	-11.0695
▁nicely	-11.0707
▁revolve	-11.0712
▁harm	-11.0716
▁fr	-11.0717
liners	-11.0738
▁Char	-11.0768
▁wondered	-11.0769
6)	-11.078
▁Son	-11.0786
nny	-11.0786
▁Leg	-11.0789
ego	-11.0799
▁tro	-11.0815
ome	-11.0856
▁thanks	-11.0857
▁forty	-11.0863
body	-11.0877
very	-11.0878
parent	-11.0886
Neil	-11.0894
Alien	-11.0919
bid	-11.0925
▁Mad	-11.0926
▁fil	-11.0939
rack	-11.1002
▁*****	-11.1003
▁scarecrow	-11.1006
▁breast	-11.1013
▁guest	-11.1014
▁Ren	-11.1034
▁angle	-11.1045
▁HE	-11.106
under	-11.1064
▁command	-11.1072
wash	-11.1073
lush	-11.1106
90	-11.1107
cat	-11.1107
▁fra	-11.1135
any	-11.1149
▁Tel	-11.1149
▁refer	-11.1161
itter	-11.1162
▁cheat	-11.117
ike	-11.1184
word	-11.1201
ela	-11.1214
▁flip	-11.1221
▁surround	-11.1223
▁FOR	-11.1223
claim	-11.1229
foot	-11.1229
Black	-11.123
House	-11.123
writing	-11.1231
video	-11.1231
drama	-11.1231
Bad	-11.1231
shock	-11.1231
suit	-11.1233
action	-11.1233
John	-11.1236
▁Grant	-11.1236
▁India	-11.1237
box	-11.1238
▁Uni	-11.1244
▁frequent	-11.1246
▁mum	-11.1255
▁Zombi	-11.1255
▁valu	-11.1258
▁pit	-11.126
(!)	-11.1261
▁slight	-11.1263
can	-11.1265
HA	-11.1266
mother	-11.1269
▁exec	-11.127
▁offend	-11.1277
▁contra	-11.1278
▁Out	-11.1279
▁Prince	-11.1279
▁confess	-11.1282
▁authentic	-11.1282
▁Euro	-11.1284
make	-11.1284
▁Cagney	-11.1286
▁Cameron	-11.1286
▁Church	-11.1286
▁Dafoe	-11.1286
▁Dahmer	-11.1286
▁Hanks	-11.1286
▁Panzram	-11.1286
▁President	-11.1286
▁Ritchie	-11.1286
▁Snipes	-11.1286
▁Sophia	-11.1286
▁Spielberg	-11.1286
▁Stefan	-11.1286
▁capital	-11.1286
▁masturbat	-11.1286
▁scratch	-11.1286
complicated	-11.1286
~	-11.1286
▁Blockbuster	-11.1286
▁Exorcist	-11.1286
▁Horrible	-11.1286
▁Jessica	-11.1286
▁Normally	-11.1286
▁Numar	-11.1286
▁Savage	-11.1286
▁Should	-11.1286
▁Stuart	-11.1286
▁Wirth	-11.1286
▁benefit	-11.1286
▁cynical	-11.1286
▁deliberate	-11.1286
▁deranged	-11.1286
▁devoted	-11.1286
▁divorce	-11.1286
▁ghetto	-11.1286
▁immense	-11.1286
▁inevitable	-11.1286
▁ingredients	-11.1286
▁lackluster	-11.1286
▁miracle	-11.1286
▁nostalgic	-11.1286
▁occup	-11.1286
▁ourselves	-11.1286
▁pedestrian	-11.1286
▁president	-11.1286
▁spooky	-11.1286
▁strain	-11.1286
▁terrifying	-11.1286
▁transition	-11.1286
▁unsatisfying	-11.1286
▁wardrobe	-11.1286
▁woeful	-11.1286
▁Archie	-11.1286
▁Cooper	-11.1286
▁Guinness	-11.1286
▁Sleep	-11.1286
▁Texas	-11.1286
▁Tokyo	-11.1286
▁VHS	-11.1286
▁advertising	-11.1286
▁banned	-11.1286
▁garden	-11.1286
▁groan	-11.1286
▁macho	-11.1286
▁session	-11.1286
▁spiral	-11.1286
▁website	-11.1286
▁Creek	-11.1286
▁balance	-11.1286
▁bottle	-11.1286
▁egg	-11.1286
▁participa	-11.1286
▁sermon	-11.1286
▁warrior	-11.1286
▁whiny	-11.1286
▁Could	-11.1286
▁Niro	-11.1286
▁abilities	-11.1286
▁eager	-11.1286
Brien	-11.1286
▁Curtis	-11.1286
▁Eddie	-11.1286
▁fetish	-11.1286
▁genetic	-11.1286
▁library	-11.1286
▁BLA	-11.1286
▁confiden	-11.1286
▁convict	-11.1286
Brazil	-11.1286
▁medium	-11.1286
▁Bride	-11.1286
▁Davis	-11.1286
▁Scene	-11.1286
▁concert	-11.1286
▁ordeal	-11.1286
▁bumbl	-11.1286
▁tolerable	-11.1286
▁protest	-11.1286
▁entry	-11.1286
▁slick	-11.1286
suspens	-11.1286
▁pursuit	-11.1286
▁0/10	-11.1286
▁Kirk	-11.1286
▁Point	-11.1286
▁prostitute	-11.1286
▁ROMA	-11.1286
▁depend	-11.1286
▁conspiracy	-11.1286
▁Ferrell	-11.1287
▁timing	-11.1287
talk	-11.1287
▁documentari	-11.1287
▁tank	-11.1287
ternity	-11.1287
Edison	-11.1287
▁fraud	-11.1287
▁introduction	-11.1287
▁memori	-11.1287
▁pressure	-11.1287
▁combat	-11.1287
▁paycheck	-11.1287
▁description	-11.1287
▁Edward	-11.1287
greedy	-11.1287
▁Britain	-11.1287
▁cancer	-11.1287
▁bond	-11.1287
▁stylish	-11.1287
▁robbery	-11.1288
▁deny	-11.1288
▁Chuck	-11.1288
MENT	-11.1288
▁affect	-11.1288
▁vicious	-11.1288
▁split	-11.1288
▁daily	-11.1288
▁Lifetime	-11.1288
▁jail	-11.1288
▁incest	-11.1288
▁Theater	-11.1288
▁Spain	-11.1288
▁vain	-11.1288
▁dash	-11.1289
▁shred	-11.1289
▁Kei	-11.1289
▁foul	-11.1289
▁worry	-11.1289
▁basement	-11.1289
▁nonexistent	-11.129
▁mud	-11.129
▁slightest	-11.129
▁filth	-11.129
▁pray	-11.1291
▁Rome	-11.1291
Attack	-11.1291
▁Under	-11.1291
▁neat	-11.1291
▁stress	-11.1292
▁Real	-11.1292
▁showcase	-11.1292
▁label	-11.1292
▁investigation	-11.1292
▁committed	-11.1293
inspir	-11.1293
▁batman	-11.1293
▁intent	-11.1293
▁Dawn	-11.1293
▁Scream	-11.1293
▁argue	-11.1293
▁Orwell	-11.1293
▁indie	-11.1294
▁witless	-11.1294
▁snow	-11.1294
DID	-11.1294
▁Grand	-11.1294
▁Academy	-11.1295
▁ensure	-11.1295
▁choreographed	-11.1296
▁coast	-11.1296
▁Cox	-11.1296
▁Max	-11.1297
▁Connery	-11.1297
▁Harold	-11.1297
▁welcome	-11.1297
▁pig	-11.1297
▁parade	-11.1297
▁criticism	-11.1298
▁Later	-11.1299
aware	-11.1301
▁Shin	-11.1301
▁arrogant	-11.1301
▁Barbar	-11.1302
▁fitting	-11.1302
▁farmer	-11.1303
▁melt	-11.1303
▁Way	-11.1304
ulous	-11.1305
▁tribe	-11.1305
▁overrated	-11.1306
▁necessary	-11.1306
▁Marie	-11.1306
▁publicity	-11.1306
▁Bela	-11.1306
▁flee	-11.1307
▁cure	-11.1309
▁bab	-11.131
▁Dracula	-11.131
▁Usual	-11.131
▁Plot	-11.1311
▁Outer	-11.1311
wives	-11.1312
▁Howard	-11.1312
▁Ball	-11.1312
▁aunt	-11.1312
▁assure	-11.1313
▁cliched	-11.1313
▁mart	-11.1314
▁Cost	-11.1316
▁Name	-11.1317
▁humanity	-11.1318
▁USA	-11.132
another	-11.132
▁required	-11.1324
▁broad	-11.1324
▁Demi	-11.1327
▁CG	-11.1327
▁abandoned	-11.1327
▁artsy	-11.1327
▁removed	-11.1327
▁improved	-11.1328
Tale	-11.133
▁mistaken	-11.1334
▁recognized	-11.1335
▁realised	-11.1335
▁born	-11.1336
▁Call	-11.134
▁farce	-11.1342
▁dear	-11.1342
▁awards	-11.1346
▁surrounding	-11.135
lean	-11.135
▁alas	-11.135
▁Duran	-11.1352
▁designer	-11.1353
▁hood	-11.1353
▁Lion	-11.1353
▁Woody	-11.1353
▁unusual	-11.1362
▁Land	-11.1363
IKE	-11.1364
ox	-11.1365
▁Needle	-11.1367
ogie	-11.1369
▁PC	-11.1375
organized	-11.138
▁selling	-11.1394
▁Ali	-11.1398
▁endlessly	-11.1401
ANT	-11.1403
▁chased	-11.1403
▁Robbins	-11.1404
▁spy	-11.141
▁lifeless	-11.1412
Eye	-11.1418
▁Ape	-11.142
▁gain	-11.1425
▁twin	-11.1434
wrought	-11.1437
gal	-11.1439
▁national	-11.1441
▁fired	-11.1443
▁recorded	-11.1447
▁deeply	-11.1451
▁Dave	-11.1458
▁imagined	-11.1461
▁filmmaking	-11.1466
lmost	-11.1477
stood	-11.149
▁flower	-11.1493
▁dive	-11.1496
aught	-11.1497
▁nail	-11.1498
▁!!	-11.1505
fore	-11.1511
▁pl	-11.1519
▁judg	-11.152
80	-11.1534
▁ONE	-11.1537
▁caricatures	-11.154
▁techniques	-11.154
▁Boys	-11.1541
ford	-11.1546
IST	-11.155
school	-11.1563
▁Ly	-11.1567
▁scarecrows	-11.1574
▁angles	-11.1574
evil	-11.1591
▁logical	-11.1609
faced	-11.1613
▁ears	-11.1614
▁aired	-11.1627
escent	-11.1629
▁Kris	-11.1635
▁Ken	-11.1639
▁attacking	-11.1642
▁commented	-11.1668
▁sentences	-11.1677
▁Saw	-11.1686
▁Twi	-11.169
note	-11.1698
▁su	-11.1703
dication	-11.1713
His	-11.1719
▁spin	-11.1733
law	-11.1754
▁Laur	-11.1779
▁rang	-11.1792
▁Ford	-11.1819
▁fighter	-11.1828
▁clo	-11.1846
▁tortur	-11.1846
▁via	-11.1889
▁Flo	-11.1894
ania	-11.1905
▁Up	-11.1921
minded	-11.1932
▁Wi	-11.1933
▁blurr	-11.1937
▁Shar	-11.1945
▁Meg	-11.195
▁bin	-11.1985
quel	-11.2002
▁remark	-11.2016
ada	-11.2018
NO	-11.2041
▁Doc	-11.2047
▁(!)	-11.205
Set	-11.2055
12	-11.2056
▁grin	-11.2073
immer	-11.2075
done	-11.2075
AKE	-11.2077
Given	-11.2092
▁/>***	-11.21
unda	-11.2108
▁exchange	-11.2116
▁ya	-11.2128
Lu	-11.2138
posing	-11.2141
▁wishe	-11.2161
▁Marti	-11.2163
motion	-11.2177
erto	-11.2186
▁bash	-11.2198
ivil	-11.2206
pposed	-11.2214
▁Happ	-11.2221
lec	-11.2228
cial	-11.2229
▁stink	-11.224
tention	-11.2255
▁caricature	-11.2256
▁technique	-11.2256
▁angel	-11.2259
new	-11.2266
▁moron	-11.2271
rab	-11.2274
▁Den	-11.2278
▁Tra	-11.2296
ister	-11.2303
▁fa	-11.2305
ification	-11.2312
dance	-11.2347
▁introduc	-11.2349
termin	-11.2351
▁conc	-11.2356
▁alienat	-11.2374
▁Spirit	-11.2392
▁contribute	-11.241
▁bug	-11.2414
▁crashe	-11.2415
▁gut	-11.2418
▁disgust	-11.2421
▁Boy	-11.2443
/10	-11.2444
Cast	-11.2454
▁cheer	-11.2476
Titanic	-11.2476
Honestly	-11.2477
know	-11.2478
Spoiler	-11.2478
father	-11.2479
Life	-11.2479
cute	-11.248
suspect	-11.248
Perhaps	-11.248
famous	-11.248
James	-11.2481
world	-11.2481
▁mechanic	-11.2481
when	-11.2481
AND	-11.2481
effect	-11.2482
Nothing	-11.2482
something	-11.2482
Like	-11.2483
East	-11.2484
Paul	-11.2484
woman	-11.2484
▁limit	-11.2484
SPOILERS	-11.2484
▁Laure	-11.2485
monster	-11.2485
Look	-11.2486
again	-11.2486
▁blond	-11.2488
▁insert	-11.249
Most	-11.2492
Whi	-11.2493
Still	-11.2497
▁cliche	-11.2506
▁inspire	-11.2507
▁Hunt	-11.2513
▁necessar	-11.2514
hour	-11.2514
ential	-11.2515
▁hook	-11.2517
▁Whit	-11.252
▁Russia	-11.252
personal	-11.2523
▁Pete	-11.2527
▁Whe	-11.2532
big	-11.2534
▁Egypt	-11.2534
▁endure	-11.2534
integra	-11.2535
▁Capt	-11.2536
▁multi	-11.2536
▁occult	-11.2536
▁Georgia	-11.2536
▁Hitchcock	-11.2536
▁Jeremy	-11.2536
▁Plummer	-11.2536
▁Tarantino	-11.2536
▁acknowledge	-11.2536
▁advance	-11.2536
▁jungle	-11.2536
▁pseudo	-11.2536
▁schizophrenic	-11.2536
LOVE	-11.2536
]	-11.2536
aldwin	-11.2536
▁AWAY	-11.2536
▁Afghanistan	-11.2536
▁Bruce	-11.2536
▁Cusack	-11.2536
▁Englund	-11.2536
▁Furthermore	-11.2536
▁Kinski	-11.2536
▁Lloyd	-11.2536
▁Murder	-11.2536
▁Natural	-11.2536
▁Venice	-11.2536
▁accuracy	-11.2536
▁adequate	-11.2536
▁audition	-11.2536
▁behaviour	-11.2536
▁challenging	-11.2536
▁compound	-11.2536
▁contempt	-11.2536
▁definition	-11.2536
▁degenerate	-11.2536
▁describing	-11.2536
▁dubious	-11.2536
▁elaborate	-11.2536
▁embark	-11.2536
▁families	-11.2536
▁feminist	-11.2536
▁frustrating	-11.2536
▁glimpse	-11.2536
▁horrified	-11.2536
▁horrifying	-11.2536
▁institution	-11.2536
▁irrelevant	-11.2536
▁juvenile	-11.2536
▁massacre	-11.2536
▁montage	-11.2536
▁ninja	-11.2536
▁nowadays	-11.2536
▁obligat	-11.2536
▁opportunities	-11.2536
▁overblown	-11.2536
▁pattern	-11.2536
▁poverty	-11.2536
▁prank	-11.2536
▁precise	-11.2536
▁psychopath	-11.2536
▁reminisc	-11.2536
▁rendition	-11.2536
▁restaurant	-11.2536
▁scheme	-11.2536
▁squandered	-11.2536
▁striking	-11.2536
▁surfer	-11.2536
▁tiresome	-11.2536
▁trilogy	-11.2536
▁unattractive	-11.2536
▁unexplained	-11.2536
▁unimaginative	-11.2536
▁veteran	-11.2536
▁wrestling	-11.2536
▁́t	-11.2536
▁Field	-11.2536
▁Fonda	-11.2536
▁LOT	-11.2536
▁Nelson	-11.2536
▁announce	-11.2536
▁arrest	-11.2536
▁attached	-11.2536
▁despise	-11.2536
▁heavily	-11.2536
▁karate	-11.2536
▁monologue	-11.2536
▁peace	-11.2536
▁rehash	-11.2536
▁statue	-11.2536
▁Filth	-11.2536
▁Temple	-11.2536
▁scope	-11.2536
▁sparse	-11.2536
▁zany	-11.2536
ALIEN	-11.2536
▁cabin	-11.2536
▁savage	-11.2536
▁studie	-11.2536
▁Collins	-11.2536
▁barrel	-11.2536
▁magnificent	-11.2536
▁pollut	-11.2536
▁Lesser	-11.2536
▁Quinn	-11.2536
▁burst	-11.2536
▁grainy	-11.2536
▁milk	-11.2536
▁orchid	-11.2536
▁distance	-11.2536
▁loop	-11.2536
▁sixties	-11.2536
▁fruit	-11.2536
▁countries	-11.2536
▁boast	-11.2536
▁isolated	-11.2536
▁sinister	-11.2536
▁tomatoes	-11.2536
▁faux	-11.2536
▁alleged	-11.2536
▁Seuss	-11.2536
▁vast	-11.2536
▁tiny	-11.2536
Stupid	-11.2536
▁Finally	-11.2536
▁chock	-11.2536
▁Kapoor	-11.2536
▁sappy	-11.2536
▁Morris	-11.2536
▁moderate	-11.2536
▁jock	-11.2536
▁morbid	-11.2536
▁survivors	-11.2536
▁Misty	-11.2536
▁Jews	-11.2537
▁thumbs	-11.2537
▁doomed	-11.2537
▁2005	-11.2537
▁Ireland	-11.2537
aggie	-11.2537
▁Game	-11.2537
▁Segal	-11.2537
▁2003	-11.2537
▁Future	-11.2537
▁revolutionary	-11.2537
▁Harvey	-11.2537
▁jack	-11.2537
▁Nathan	-11.2537
▁California	-11.2537
▁Dunne	-11.2537
▁tendenc	-11.2537
▁Jimmy	-11.2537
▁Masters	-11.2537
▁profound	-11.2537
▁declare	-11.2537
▁Rosal	-11.2537
▁revelation	-11.2537
Munchie	-11.2537
▁occurred	-11.2537
▁locked	-11.2538
▁Craig	-11.2538
▁pause	-11.2538
▁Nicholson	-11.2538
▁employee	-11.2538
▁decline	-11.2538
▁Helen	-11.2538
▁blink	-11.2538
▁bedroom	-11.2538
▁contract	-11.2538
▁devil	-11.2538
▁Damme	-11.2538
▁overwhelming	-11.2538
▁anticipation	-11.2538
▁liking	-11.2538
▁bird	-11.2538
▁Downey	-11.2539
▁Grace	-11.2539
▁Akshay	-11.2539
▁rapid	-11.2539
Here	-11.2539
▁reviv	-11.2539
ROM	-11.2539
▁thankfully	-11.2539
▁tiger	-11.2539
▁Claus	-11.2539
▁achievement	-11.2539
▁Danny	-11.2539
▁Winter	-11.2539
▁faithful	-11.2539
ITY	-11.2539
▁lump	-11.254
▁Madam	-11.254
▁Bettie	-11.254
▁wow	-11.254
▁Lowe	-11.2541
▁mansion	-11.2541
▁WAY	-11.2541
▁Silver	-11.2541
▁happiness	-11.2541
▁cents	-11.2541
▁bump	-11.2541
▁Corey	-11.2541
▁lol	-11.2542
▁Year	-11.2542
▁slice	-11.2543
▁antics	-11.2544
▁wack	-11.2544
▁composer	-11.2544
▁Hope	-11.2544
▁contrast	-11.2545
AIN	-11.2545
▁grant	-11.2545
▁err	-11.2545
▁golden	-11.2546
▁Omen	-11.2546
▁engineer	-11.2546
▁Bert	-11.2547
▁dragon	-11.2547
▁Eyes	-11.2547
▁passage	-11.2547
▁unleash	-11.2547
▁duck	-11.2548
▁Interesting	-11.2548
▁spectacular	-11.2548
▁Arthur	-11.2548
▁Shock	-11.2548
▁Springer	-11.2548
▁Right	-11.2548
▁progresses	-11.2549
▁chant	-11.2549
▁cue	-11.255
▁creator	-11.255
▁Shaw	-11.2551
▁Harrison	-11.2551
▁Israeli	-11.2551
▁Charlie	-11.2551
▁17	-11.2552
▁sale	-11.2552
▁Mick	-11.2553
fish	-11.2553
mostly	-11.2553
▁2000	-11.2554
▁Bolo	-11.2554
▁Arab	-11.2556
▁albeit	-11.2556
▁Book	-11.2556
manda	-11.2556
▁Remember	-11.2556
▁speeches	-11.2557
Feel	-11.2557
▁handful	-11.2558
▁shameless	-11.2558
▁intrigued	-11.2559
▁generated	-11.2563
▁gather	-11.2563
▁Thomas	-11.2564
▁Awful	-11.2564
▁Shi	-11.2564
aging	-11.2567
▁disturbed	-11.2569
anana	-11.2574
▁nun	-11.2578
acting	-11.2579
▁Myers	-11.258
▁update	-11.2581
▁Total	-11.2582
▁stabbed	-11.2583
▁distracting	-11.2583
▁needless	-11.2586
▁Queen	-11.2587
▁disgusted	-11.259
▁mechanical	-11.2592
▁cock	-11.2593
Tom	-11.2594
VER	-11.2594
▁hallways	-11.2594
▁Honestly	-11.2595
▁desired	-11.2595
▁Granted	-11.2597
▁offended	-11.2597
▁Jay	-11.2597
▁ensue	-11.2598
tech	-11.26
▁impressed	-11.2604
▁stronger	-11.2606
▁cheating	-11.2609
ignant	-11.2612
▁Luis	-11.2616
▁kidnapped	-11.2626
▁legal	-11.263
▁packed	-11.2633
▁Stay	-11.2637
▁Kay	-11.2638
▁wildly	-11.264
▁voted	-11.264
▁swing	-11.2645
▁originality	-11.265
▁workers	-11.2652
▁Billy	-11.2656
▁tripe	-11.2658
▁shy	-11.2671
▁possessed	-11.2676
series	-11.2678
▁reached	-11.268
▁improbabl	-11.2681
▁criticiz	-11.2686
▁anger	-11.269
ridden	-11.2698
▁feed	-11.2699
▁brat	-11.27
▁OR	-11.2703
▁chops	-11.2712
yet	-11.2724
▁practice	-11.2726
▁previously	-11.273
▁sin	-11.2735
▁carrying	-11.2739
▁pub	-11.2743
HO	-11.275
▁suffered	-11.2758
▁raped	-11.2763
▁fling	-11.277
▁Band	-11.2771
iff	-11.2774
▁portraying	-11.2775
▁Award	-11.2779
ooze	-11.2782
desk	-11.2787
(..	-11.2787
Pri	-11.2787
▁pet	-11.28
dropped	-11.2801
▁shorter	-11.2824
▁jumped	-11.2828
Can	-11.283
▁slapp	-11.2832
nything	-11.2838
mill	-11.284
▁SH	-11.2843
Forget	-11.2846
Casa	-11.2852
mper	-11.2869
▁lone	-11.288
type	-11.2888
eason	-11.2896
▁heroic	-11.2956
ledge	-11.2959
▁persona	-11.2965
▁Timo	-11.2965
▁Ami	-11.2979
rapped	-11.2989
hat	-11.301
▁bust	-11.3011
anti	-11.3012
▁suitabl	-11.3015
MAKE	-11.3023
issa	-11.3053
▁croc	-11.3071
▁intentional	-11.3078
ular	-11.3087
mmed	-11.3099
raz	-11.3106
▁overact	-11.3114
▁Hat	-11.3128
satisfied	-11.3129
▁McG	-11.3135
RO	-11.3162
▁Charl	-11.3205
bir	-11.3215
cycl	-11.3225
▁mut	-11.3246
▁WAS	-11.3249
▁Hawk	-11.3251
▁reache	-11.3259
idden	-11.3262
▁si	-11.3273
▁unreal	-11.3316
gate	-11.3346
ryl	-11.3365
hit	-11.3373
▁gig	-11.3385
acted	-11.3407
▁Patric	-11.3407
ural	-11.3417
anny	-11.3418
sensitive	-11.343
iser	-11.3443
ushi	-11.3459
True	-11.3474
Ann	-11.3481
!!)	-11.3486
▁ward	-11.3493
▁CH	-11.3497
▁ple	-11.3518
ffer	-11.3543
chool	-11.3548
▁Sal	-11.3564
▁Gree	-11.3566
icked	-11.357
▁lonel	-11.3587
rade	-11.3608
▁Die	-11.3616
▁loyal	-11.3654
▁hum	-11.3656
▁Pia	-11.3658
▁sla	-11.3676
tunately	-11.3676
▁month	-11.3688
▁explosion	-11.3689
▁flashback	-11.3694
▁leg	-11.3699
▁begg	-11.371
▁teenager	-11.3714
Un	-11.3724
tube	-11.3733
Every	-11.3745
essa	-11.375
▁Jon	-11.3756
ambo	-11.3768
NA	-11.3774
roth	-11.3795
scene	-11.3798
▁preced	-11.3809
▁receiv	-11.3819
▁Lind	-11.3819
▁slip	-11.3868
Q	-11.3869
vic	-11.3869
signed	-11.3874
▁Thing	-11.3877
teria	-11.3888
SPOILER	-11.3898
original	-11.3903
historic	-11.3905
Demons	-11.3905
funny	-11.3905
Queen	-11.3906
=	-11.3907
two	-11.3907
Zombie	-11.3908
Second	-11.3908
Watch	-11.3909
George	-11.3909
sexual	-11.3909
talented	-11.3909
documentary	-11.3909
power	-11.3909
please	-11.3909
daughter	-11.3909
different	-11.3909
people	-11.391
production	-11.391
wild	-11.391
▁emerge	-11.3911
▁craft	-11.3911
Which	-11.3911
▁abandon	-11.3912
sorry	-11.3913
rock	-11.3914
nothing	-11.3915
Down	-11.3915
boring	-11.3915
Kong	-11.3916
Wow	-11.3919
Once	-11.3921
▁fee	-11.3922
▁Bern	-11.3922
same	-11.3925
produced	-11.3926
ille	-11.3926
UP	-11.3929
▁generate	-11.3934
▁influence	-11.3934
Did	-11.3935
▁extrem	-11.3935
▁confuse	-11.3936
Other	-11.3936
dog	-11.3942
▁trend	-11.3943
▁guilt	-11.3943
▁budd	-11.3943
ology	-11.3945
Mister	-11.3945
pass	-11.3948
▁Korea	-11.3948
▁Spring	-11.3954
▁compose	-11.3956
▁dispos	-11.3957
▁dimension	-11.3957
▁Europe	-11.3958
named	-11.3959
▁scienti	-11.396
▁comfort	-11.3962
▁Profess	-11.3963
ombie	-11.3963
hroughout	-11.3963
romise	-11.3964
▁compete	-11.3964
▁Francis	-11.3964
Brando	-11.3965
▁Follow	-11.3965
▁Elicot	-11.3965
▁Evangeli	-11.3965
▁Thompson	-11.3965
▁enlighten	-11.3965
RATING	-11.3965
distinguish	-11.3965
ompliment	-11.3965
▁1999	-11.3965
▁AVOID	-11.3965
▁Bacall	-11.3965
▁Bogart	-11.3965
▁Cushing	-11.3965
▁Drummond	-11.3965
▁Dylan	-11.3965
▁FIRST	-11.3965
▁Flemming	-11.3965
▁Freeman	-11.3965
▁Gilbert	-11.3965
▁Guttenberg	-11.3965
▁Hopkins	-11.3965
▁Joseph	-11.3965
▁McDowell	-11.3965
▁Michelle	-11.3965
▁Milligan	-11.3965
▁Murphy	-11.3965
▁Parsons	-11.3965
▁Porsche	-11.3965
▁Preminger	-11.3965
▁Reloaded	-11.3965
▁SUCK	-11.3965
▁Soldiers	-11.3965
▁Sunshine	-11.3965
▁Vincent	-11.3965
▁WATCH	-11.3965
▁WRONG	-11.3965
▁adolescent	-11.3965
▁arrange	-11.3965
▁assumption	-11.3965
▁brilliance	-11.3965
▁chocolate	-11.3965
▁clunky	-11.3965
▁conclude	-11.3965
▁contradict	-11.3965
▁decency	-11.3965
▁departure	-11.3965
▁dynamic	-11.3965
▁eccentric	-11.3965
▁empathy	-11.3965
▁emphasis	-11.3965
▁equipment	-11.3965
▁equivalen	-11.3965
▁expedition	-11.3965
▁fundamental	-11.3965
▁hallucination	-11.3965
▁imbecil	-11.3965
▁insipid	-11.3965
▁insomnia	-11.3965
▁lovable	-11.3965
▁magazine	-11.3965
▁misleading	-11.3965
▁politician	-11.3965
▁racism	-11.3965
▁radiation	-11.3965
▁recruit	-11.3965
▁respond	-11.3965
▁sasquatch	-11.3965
▁sidekick	-11.3965
▁sophisticat	-11.3965
▁surfing	-11.3965
▁surpass	-11.3965
▁terrified	-11.3965
▁territory	-11.3965
▁tobacco	-11.3965
▁unappealing	-11.3965
▁variation	-11.3965
▁werewolves	-11.3965
Original	-11.3965
ü	-11.3965
▁Rodriguez	-11.3965
▁Special	-11.3965
▁Wilson	-11.3965
▁Yash	-11.3965
▁atrocity	-11.3965
▁competition	-11.3965
▁conduct	-11.3965
▁diction	-11.3965
▁emphasize	-11.3965
▁evoke	-11.3965
▁frog	-11.3965
▁gentlem	-11.3965
▁incorrect	-11.3965
▁irrational	-11.3965
▁orchestra	-11.3965
▁pulp	-11.3965
▁rampage	-11.3965
▁resolve	-11.3965
▁response	-11.3965
▁shrill	-11.3965
▁wheelchair	-11.3965
▁wilderness	-11.3965
iblical	-11.3965
▁Foster	-11.3965
▁Hallam	-11.3965
▁Kattan	-11.3965
▁Ralph	-11.3965
▁Slasher	-11.3965
▁access	-11.3965
▁article	-11.3965
▁dentist	-11.3965
▁enemy	-11.3965
▁frightening	-11.3965
▁graveyard	-11.3965
▁journalist	-11.3965
▁nonetheless	-11.3965
▁puzzle	-11.3965
▁Cohen	-11.3965
▁Ingrid	-11.3965
▁drown	-11.3965
▁essence	-11.3965
▁interior	-11.3965
▁millionaire	-11.3965
▁reunion	-11.3965
▁Compar	-11.3965
▁smash	-11.3965
caliber	-11.3965
▁Bacon	-11.3965
▁Welch	-11.3965
▁misstep	-11.3965
▁nomination	-11.3965
▁resident	-11.3965
▁tango	-11.3965
Lorenz	-11.3965
▁Berlin	-11.3965
▁Woman	-11.3965
▁deleted	-11.3965
▁distort	-11.3965
Except	-11.3965
▁Elvis	-11.3965
▁coincidence	-11.3965
▁joking	-11.3965
▁urban	-11.3965
▁Shepard	-11.3965
▁mankind	-11.3965
▁Potter	-11.3965
▁laboratory	-11.3965
▁meandering	-11.3965
▁mayhem	-11.3965
UCH	-11.3965
▁Terry	-11.3965
▁irony	-11.3965
▁digital	-11.3965
▁Zero	-11.3965
▁partially	-11.3965
▁Fear	-11.3965
▁LADY	-11.3965
▁crabs	-11.3965
▁composition	-11.3965
▁contest	-11.3965
▁Utter	-11.3965
▁advertised	-11.3965
▁menace	-11.3965
▁meteor	-11.3965
▁bait	-11.3965
▁Natas	-11.3965
▁agony	-11.3965
▁geek	-11.3965
▁shirt	-11.3965
▁neighborhood	-11.3965
▁Shot	-11.3965
Ghost	-11.3965
▁hammerhead	-11.3965
▁dopey	-11.3965
▁outdated	-11.3965
nspector	-11.3965
▁henchm	-11.3965
▁planning	-11.3965
▁defense	-11.3965
rofessional	-11.3965
▁robbers	-11.3965
Hamlet	-11.3965
Soviet	-11.3965
estranged	-11.3965
▁2004	-11.3965
▁Stephanie	-11.3965
ylv	-11.3965
▁premiere	-11.3965
▁extend	-11.3965
▁2001	-11.3965
▁sprinkle	-11.3965
▁molest	-11.3965
▁hippie	-11.3965
▁worship	-11.3966
AVE	-11.3966
▁Francisco	-11.3966
▁Captain	-11.3966
Animal	-11.3966
▁ambiguous	-11.3966
▁alarm	-11.3966
▁Mitchum	-11.3966
▁thunder	-11.3966
▁Mitch	-11.3966
jured	-11.3966
▁depressed	-11.3966
▁destruction	-11.3966
▁shaking	-11.3966
▁adaption	-11.3966
▁jacket	-11.3966
▁kung	-11.3966
▁NBC	-11.3966
▁Hopper	-11.3967
▁kiddie	-11.3967
▁Lohan	-11.3967
▁patch	-11.3967
▁manipulation	-11.3967
▁Horrorfest	-11.3967
▁irre	-11.3967
▁pimp	-11.3967
▁revers	-11.3967
▁resolution	-11.3967
▁dropping	-11.3967
▁petty	-11.3967
▁hammer	-11.3967
▁spaceship	-11.3967
▁DNA	-11.3967
▁unfair	-11.3967
▁Planet	-11.3967
▁couch	-11.3967
▁glow	-11.3967
▁morph	-11.3968
▁option	-11.3968
▁imitation	-11.3968
Title	-11.3968
▁wipe	-11.3968
▁GET	-11.3968
▁edition	-11.3968
▁Salman	-11.3968
▁vary	-11.3968
▁proceedings	-11.3968
▁construction	-11.3969
▁Logan	-11.3969
▁Pitt	-11.3969
▁bro	-11.3969
▁SHOW	-11.3969
bott	-11.3969
▁boil	-11.3969
▁Massacre	-11.3969
▁Hood	-11.397
▁unrelated	-11.397
▁Palestinian	-11.397
▁laser	-11.397
▁Bush	-11.3971
▁spew	-11.3971
▁nerd	-11.3971
▁stair	-11.3971
▁3000	-11.3971
▁wire	-11.3971
▁Griffith	-11.3971
▁hoop	-11.3972
▁safety	-11.3972
▁foxes	-11.3972
▁grandma	-11.3972
ville	-11.3972
▁bread	-11.3972
▁tax	-11.3973
▁secretary	-11.3973
▁melodramatic	-11.3973
▁cube	-11.3974
▁giggles	-11.3974
▁earnest	-11.3974
▁mercifully	-11.3975
▁Carter	-11.3975
▁sentimental	-11.3976
▁Huh	-11.3976
▁attraction	-11.3976
▁maid	-11.3976
▁Boring	-11.3977
▁Body	-11.3977
▁billion	-11.3977
▁stabb	-11.3977
▁Six	-11.3978
▁clueless	-11.3978
▁bang	-11.3978
▁deriv	-11.3978
▁zoom	-11.3978
ummy	-11.3979
▁Elli	-11.3979
submit	-11.398
▁drunken	-11.3981
▁dresses	-11.3981
▁enable	-11.3981
▁fairness	-11.3981
▁poison	-11.3982
▁Luck	-11.3982
▁brow	-11.3983
▁300	-11.3984
▁35	-11.3985
▁MER	-11.3986
▁pour	-11.3986
▁Cool	-11.3986
▁2006	-11.3987
▁lust	-11.3987
▁bible	-11.3987
atory	-11.3987
▁Believ	-11.3988
▁Reno	-11.3988
▁Teen	-11.3989
▁Moon	-11.399
olice	-11.399
▁Clock	-11.3991
▁Joel	-11.3995
▁darkness	-11.3996
▁influenced	-11.3996
▁wolf	-11.3997
▁Andrew	-11.3997
▁hooker	-11.3998
▁overlong	-11.3998
▁passable	-11.3999
▁Nasc	-11.3999
▁Olivier	-11.4
▁Parker	-11.4
▁Sky	-11.4
▁21	-11.4001
▁construct	-11.4002
▁endured	-11.4002
▁Sade	-11.4002
▁cook	-11.4002
▁visitor	-11.4002
▁experimental	-11.4003
bbing	-11.4004
▁Heart	-11.4004
characterisation	-11.4004
▁Hardy	-11.4005
▁define	-11.4005
▁rub	-11.4005
▁debut	-11.4006
▁GO	-11.4007
▁Earl	-11.4007
think	-11.4009
▁Force	-11.4011
▁padd	-11.4012
▁mumbl	-11.4013
▁Blood	-11.4015
▁shove	-11.4015
Claude	-11.4015
▁historic	-11.4016
▁snail	-11.4016
▁salt	-11.4016
▁sexist	-11.4017
▁choppy	-11.4018
▁crafted	-11.4019
▁clone	-11.402
▁Made	-11.4022
biography	-11.4024
rrowing	-11.4024
▁Demons	-11.4025
▁Spacey	-11.4026
Speak	-11.4026
▁Darkness	-11.4027
▁understandable	-11.4031
▁clay	-11.4031
▁icon	-11.4032
▁worn	-11.4039
▁Vampire	-11.404
▁befriend	-11.4043
placed	-11.4047
▁cancel	-11.4053
▁progressed	-11.4055
FORE	-11.4056
▁Cole	-11.4061
▁weep	-11.4063
▁merc	-11.4063
everal	-11.4063
▁flawed	-11.4063
▁technically	-11.4066
lways	-11.4066
▁correctly	-11.4072
save	-11.4083
Low	-11.4094
▁wandering	-11.41
▁slipp	-11.4105
▁SP	-11.4107
▁Ang	-11.4116
▁cave	-11.4121
Silen	-11.4122
▁oldest	-11.4132
rape	-11.4139
▁historically	-11.414
▁stares	-11.4141
▁referr	-11.4142
wait	-11.4147
▁Hero	-11.415
▁troubled	-11.4154
▁lea	-11.4155
▁Surely	-11.4158
▁Lamb	-11.4162
▁agreed	-11.4164
▁trashy	-11.418
▁Men	-11.4188
▁poke	-11.4191
▁sand	-11.4192
idal	-11.4199
Bobby	-11.4204
arring	-11.4204
▁grim	-11.4206
▁Bat	-11.4208
▁Jan	-11.4214
▁tortured	-11.4215
▁celebrate	-11.4216
▁staged	-11.4228
▁sea	-11.4238
ourne	-11.426
▁Bull	-11.4261
▁cav	-11.4269
Cub	-11.4271
rish	-11.4284
▁twit	-11.4313
Al	-11.4335
BC	-11.4339
▁eu	-11.4346
▁glove	-11.4355
lanche	-11.4359
Alice	-11.4397
▁intr	-11.44
ubi	-11.4406
▁communicate	-11.4406
▁misse	-11.4423
▁grandpa	-11.4436
▁End	-11.4438
Hav	-11.4442
11	-11.4481
▁lur	-11.4483
▁Carr	-11.4493
▁flicker	-11.4496
animate	-11.4528
▁fac	-11.4532
comic	-11.4537
rising	-11.4555
nik	-11.4568
iko	-11.459
OH	-11.4612
eur	-11.4614
UST	-11.4617
ddled	-11.4628
▁hateful	-11.4632
▁disco	-11.4636
▁realiz	-11.4644
DON	-11.4672
trip	-11.4745
umming	-11.4751
kov	-11.4755
gree	-11.4755
Christ	-11.476
▁scrap	-11.4764
hum	-11.4767
uke	-11.4783
▁explode	-11.4787
▁Rid	-11.4794
usive	-11.4797
chin	-11.4848
▁san	-11.4908
▁stran	-11.4926
serving	-11.4929
ipped	-11.4937
tense	-11.4984
owers	-11.499
eller	-11.4994
▁arc	-11.5001
▁epi	-11.5003
nation	-11.5007
orde	-11.5009
▁Apollo	-11.5013
rsion	-11.5042
duced	-11.5066
KA	-11.512
▁communicat	-11.5135
▁Mard	-11.5147
ounce	-11.5167
▁stag	-11.5181
▁rob	-11.5192
oma	-11.5199
HE	-11.5212
rne	-11.5252
Make	-11.5269
▁soooo	-11.527
zen	-11.5309
ppy	-11.5314
▁Edg	-11.5322
!!!!!!!!	-11.5323
▁Cop	-11.5329
cause	-11.533
Blit	-11.5341
*****	-11.5352
▁Patt	-11.5352
▁Roger	-11.5361
fun	-11.5365
▁sport	-11.5373
icken	-11.5379
▁Girl	-11.5382
▁hole	-11.5388
▁Trac	-11.5395
▁fulfill	-11.5395
▁expectation	-11.54
moving	-11.5401
▁Class	-11.5405
breaking	-11.5449
▁Mom	-11.5481
▁Gia	-11.5481
▁char	-11.5483
Gas	-11.5489
▁sto	-11.5499
pun	-11.5511
▁edit	-11.552
▁presum	-11.5524
rocket	-11.5543
▁behav	-11.5558
▁distract	-11.5564
natural	-11.5567
related	-11.5569
▁yell	-11.5569
▁stunn	-11.557
surprising	-11.5571
Blood	-11.5572
Darkness	-11.5572
broad	-11.5573
fortune	-11.5574
Oprah	-11.5574
Dream	-11.5574
Plan	-11.5574
Super	-11.5575
spoiler	-11.5575
Santa	-11.5575
exploitation	-11.5575
literally	-11.5575
Two	-11.5575
creature	-11.5575
military	-11.5575
intelligent	-11.5575
Jones	-11.5575
yeah	-11.5575
mouth	-11.5576
wrote	-11.5576
Robert	-11.5576
David	-11.5576
directed	-11.5576
written	-11.5576
Although	-11.5576
understand	-11.5576
DVD	-11.5576
little	-11.5576
game	-11.5576
▁pol	-11.5576
free	-11.5576
born	-11.5577
Rock	-11.5578
Unless	-11.5578
White	-11.5579
such	-11.5579
Great	-11.5579
check	-11.5583
case	-11.5585
whatever	-11.5586
based	-11.5588
ALL	-11.5588
high	-11.5589
Over	-11.559
killer	-11.559
▁blatant	-11.559
lame	-11.5591
cool	-11.5591
New	-11.5594
▁China	-11.5601
▁intrigue	-11.5601
▁mode	-11.5607
Bill	-11.5607
▁origin	-11.561
More	-11.561
▁disast	-11.561
▁crud	-11.5615
▁engine	-11.5617
cademy	-11.5618
kill	-11.5621
▁Brad	-11.5623
magine	-11.5624
▁fox	-11.5626
▁dirt	-11.5626
▁nausea	-11.5628
etween	-11.5628
▁document	-11.5629
▁ironic	-11.563
▁monk	-11.563
rinkle	-11.563
▁vamp	-11.5631
GHT	-11.5631
▁plod	-11.5631
plausible	-11.5631
▁increasing	-11.5631
▁Hepburn	-11.5631
▁Lembach	-11.5631
▁Longoria	-11.5631
▁Redgrave	-11.5631
▁enhance	-11.5631
▁monstro	-11.5631
▁smooth	-11.5631
▁sufficient	-11.5631
▁swallow	-11.5631
▁tele	-11.5631
▁unnerving	-11.5631
Berkowitz	-11.5631
Citizen	-11.5631
Engle	-11.5631
Essentially	-11.5631
Perfect	-11.5631
substantial	-11.5631
}	-11.5631
▁1936	-11.5631
▁Abraham	-11.5631
▁Affleck	-11.5631
▁Argento	-11.5631
▁Artemisia	-11.5631
▁Ashanti	-11.5631
▁BETTER	-11.5631
▁Behind	-11.5631
▁Belushi	-11.5631
▁Bergman	-11.5631
▁Corpse	-11.5631
▁Creature	-11.5631
▁Culkin	-11.5631
▁Denzel	-11.5631
▁Eccleston	-11.5631
▁Elvira	-11.5631
▁Evelyn	-11.5631
▁Genoa	-11.5631
▁Grinch	-11.5631
▁HUGE	-11.5631
▁Hamilton	-11.5631
▁KNOW	-11.5631
▁Lampoon	-11.5631
▁Leigh	-11.5631
▁Loretta	-11.5631
▁Madison	-11.5631
▁McShane	-11.5631
▁Medusan	-11.5631
▁Millionaire	-11.5631
▁Personally	-11.5631
▁Ramtha	-11.5631
▁Sasquatch	-11.5631
▁Scorsese	-11.5631
▁Shanghai	-11.5631
▁Takashi	-11.5631
▁Woolsey	-11.5631
▁YAWN	-11.5631
▁acquire	-11.5631
▁airplane	-11.5631
▁analysis	-11.5631
▁apologiz	-11.5631
▁bastard	-11.5631
▁cemetery	-11.5631
▁citizen	-11.5631
▁clunker	-11.5631
▁collaborat	-11.5631
▁collaps	-11.5631
▁condemn	-11.5631
▁controversy	-11.5631
▁conventional	-11.5631
▁culminat	-11.5631
▁deteriorat	-11.5631
▁discernible	-11.5631
▁disconnected	-11.5631
▁dispatch	-11.5631
▁distasteful	-11.5631
▁dysfunction	-11.5631
▁elevate	-11.5631
▁entitled	-11.5631
▁evolve	-11.5631
▁executive	-11.5631
▁expense	-11.5631
▁exploring	-11.5631
▁financi	-11.5631
▁gradually	-11.5631
▁guarantee	-11.5631
▁hilarity	-11.5631
▁horrid	-11.5631
▁humiliate	-11.5631
▁identical	-11.5631
▁illegal	-11.5631
▁immigrants	-11.5631
▁inevitably	-11.5631
▁interrupt	-11.5631
▁loony	-11.5631
▁misogyny	-11.5631
▁mundane	-11.5631
▁murky	-11.5631
▁neutral	-11.5631
▁passenger	-11.5631
▁patriotic	-11.5631
▁popcorn	-11.5631
▁possibilities	-11.5631
▁purchased	-11.5631
▁recognition	-11.5631
▁redemption	-11.5631
▁replacing	-11.5631
▁rewrite	-11.5631
▁rhyme	-11.5631
▁sleaze	-11.5631
▁sleeve	-11.5631
▁smirk	-11.5631
▁sophomoric	-11.5631
▁splatter	-11.5631
▁subtext	-11.5631
▁surgery	-11.5631
▁telegraph	-11.5631
▁travesty	-11.5631
▁tunnel	-11.5631
▁undeniabl	-11.5631
▁uneasy	-11.5631
▁unengag	-11.5631
▁uninvolving	-11.5631
▁unscathed	-11.5631
▁unsettling	-11.5631
▁'70	-11.5631
▁Chopra	-11.5631
▁Club	-11.5631
▁Dennis	-11.5631
▁Domino	-11.5631
▁Hindi	-11.5631
▁Lewis	-11.5631
▁Mirren	-11.5631
▁RPG	-11.5631
▁Straight	-11.5631
▁Supposedly	-11.5631
▁TRU	-11.5631
▁Uncle	-11.5631
▁WWE	-11.5631
▁absence	-11.5631
▁ambition	-11.5631
▁buzz	-11.5631
▁captain	-11.5631
▁champion	-11.5631
▁chemical	-11.5631
▁colour	-11.5631
▁hackneyed	-11.5631
▁minimum	-11.5631
▁radical	-11.5631
▁refreshing	-11.5631
▁stead	-11.5631
▁suffice	-11.5631
OST	-11.5631
▁1993	-11.5631
▁Ashley	-11.5631
▁Dillon	-11.5631
▁Third	-11.5631
▁Wrong	-11.5631
▁absent	-11.5631
▁anguish	-11.5631
▁apply	-11.5631
▁courage	-11.5631
▁demise	-11.5631
▁discarded	-11.5631
▁dreary	-11.5631
▁piano	-11.5631
▁trace	-11.5631
▁Keitel	-11.5631
▁Tyler	-11.5631
▁gritty	-11.5631
▁immature	-11.5631
▁patron	-11.5631
▁sneak	-11.5631
▁superpowers	-11.5631
▁trait	-11.5631
Charlotte	-11.5631
tricate	-11.5631
▁Crenna	-11.5631
▁Women	-11.5631
▁scatter	-11.5631
▁socket	-11.5631
▁bonus	-11.5631
▁implied	-11.5631
▁smack	-11.5631
▁dismay	-11.5631
▁injury	-11.5631
▁mutants	-11.5631
▁admittedly	-11.5631
▁CAN	-11.5631
▁Porter	-11.5631
▁smell	-11.5631
▁Baker	-11.5631
▁whining	-11.5631
WHAT	-11.5631
▁Brandon	-11.5631
▁agenda	-11.5631
▁river	-11.5631
▁smuggl	-11.5631
▁BIG	-11.5631
▁Ogre	-11.5631
▁exceed	-11.5631
▁banter	-11.5631
▁storm	-11.5631
▁queen	-11.5631
▁Clue	-11.5632
▁crisis	-11.5632
▁Rosco	-11.5632
▁Glen	-11.5632
▁shabb	-11.5632
▁rational	-11.5632
▁storytelling	-11.5632
▁Zod	-11.5632
▁Sanders	-11.5632
▁horny	-11.5632
▁allusion	-11.5632
▁Toni	-11.5632
▁Indeed	-11.5632
▁gripping	-11.5632
ssassin	-11.5632
▁investigate	-11.5632
▁Morning	-11.5632
▁steer	-11.5632
▁tolerate	-11.5632
▁demented	-11.5632
INI	-11.5632
▁instinct	-11.5632
▁motor	-11.5632
hainsaw	-11.5632
▁broadcast	-11.5632
▁league	-11.5632
▁Chandler	-11.5632
▁Franco	-11.5632
▁Renaissance	-11.5632
▁refine	-11.5632
▁newspaper	-11.5632
▁yawn	-11.5632
▁idol	-11.5632
▁curse	-11.5632
inducing	-11.5632
▁infant	-11.5632
▁symbolism	-11.5632
▁Metal	-11.5632
▁Yeung	-11.5632
Taxi	-11.5632
▁abrupt	-11.5632
▁Barbra	-11.5632
▁Qua	-11.5632
▁grandfather	-11.5632
▁translate	-11.5632
▁utilize	-11.5632
▁debate	-11.5632
▁2007	-11.5632
▁Rhod	-11.5632
Major	-11.5632
▁Phillips	-11.5632
provoking	-11.5632
▁Burns	-11.5632
▁existential	-11.5632
▁Magic	-11.5632
▁edgy	-11.5633
▁hollow	-11.5633
▁hokey	-11.5633
▁PLEASE	-11.5633
▁proclaim	-11.5633
▁awaited	-11.5633
▁spree	-11.5633
▁Joanna	-11.5633
▁Lisa	-11.5633
▁Patricia	-11.5633
▁Iowa	-11.5633
▁Miles	-11.5633
▁wimp	-11.5633
▁accomplishment	-11.5633
▁mummy	-11.5633
▁assistant	-11.5633
Hudson	-11.5633
▁stripper	-11.5633
▁Alison	-11.5633
Slackers	-11.5633
▁info	-11.5633
▁keyboard	-11.5633
▁underdeveloped	-11.5633
▁Odd	-11.5633
▁hammy	-11.5633
▁straw	-11.5634
▁crypt	-11.5634
▁guide	-11.5634
▁ventur	-11.5634
▁link	-11.5634
▁Actors	-11.5634
▁eternal	-11.5634
▁commendable	-11.5634
▁drab	-11.5634
▁Ruby	-11.5634
▁Bachelor	-11.5634
Wanna	-11.5634
▁decay	-11.5634
▁nine	-11.5634
▁Kind	-11.5634
▁bleed	-11.5634
▁thug	-11.5634
▁detract	-11.5634
▁Robinson	-11.5634
Visual	-11.5635
▁decorat	-11.5635
▁convoluted	-11.5635
▁yard	-11.5635
▁nauseating	-11.5635
▁dismal	-11.5635
▁fascination	-11.5635
▁unhappy	-11.5635
▁Fast	-11.5635
▁comfortable	-11.5635
▁Action	-11.5635
▁judgment	-11.5635
▁Benson	-11.5635
▁chill	-11.5635
▁harsh	-11.5635
▁applies	-11.5635
▁objective	-11.5636
▁continually	-11.5636
▁babies	-11.5636
▁Rick	-11.5636
▁Keep	-11.5636
▁ballet	-11.5636
Heaven	-11.5636
urgeon	-11.5636
ARD	-11.5636
▁spotlight	-11.5636
▁GOD	-11.5636
▁Wedding	-11.5636
▁Price	-11.5636
▁Trish	-11.5636
▁repell	-11.5636
▁gear	-11.5637
▁Know	-11.5637
▁admirable	-11.5637
LESS	-11.5637
▁brick	-11.5637
▁innovative	-11.5637
▁Kusturica	-11.5637
▁significance	-11.5637
▁puke	-11.5637
ACE	-11.5638
▁Room	-11.5638
▁Wray	-11.5638
▁lick	-11.5638
▁Rank	-11.5638
▁Order	-11.5638
ilver	-11.5638
▁Curse	-11.5638
▁thrust	-11.5638
▁delay	-11.5638
▁foolish	-11.5638
approximat	-11.5638
▁Christie	-11.5638
▁unoriginal	-11.5638
▁Danielle	-11.5639
▁waist	-11.5639
ization	-11.5639
Necro	-11.5639
▁interaction	-11.564
▁Hawn	-11.564
cerebra	-11.564
CAR	-11.564
▁fanatic	-11.564
▁pomp	-11.564
udos	-11.5641
▁Alone	-11.5641
▁App	-11.5641
▁modest	-11.5641
▁Play	-11.5641
▁Grey	-11.5641
plica	-11.5641
▁Train	-11.5642
▁punk	-11.5642
▁alert	-11.5642
▁fad	-11.5642
▁Robertson	-11.5643
▁peril	-11.5643
▁Carlo	-11.5643
▁stale	-11.5644
▁appreciati	-11.5644
▁Four	-11.5644
▁unlikeable	-11.5644
▁FX	-11.5645
▁Heath	-11.5645
▁Dante	-11.5645
▁freeze	-11.5646
▁fancy	-11.5646
▁Annie	-11.5646
▁Rather	-11.5646
nior	-11.5647
▁Ferr	-11.5647
▁coach	-11.5648
▁JJ	-11.5648
▁Admittedly	-11.5648
▁controversial	-11.5648
▁STAR	-11.5648
▁idealist	-11.5649
▁anonymous	-11.5649
▁remove	-11.5649
▁Thai	-11.5649
▁Near	-11.5649
▁geni	-11.565
INAL	-11.565
warm	-11.5651
▁luckily	-11.5651
▁surprising	-11.5651
▁novelty	-11.5652
▁mutated	-11.5652
▁overcome	-11.5653
olita	-11.5653
▁Nine	-11.5653
▁duo	-11.5655
▁relevant	-11.5656
▁gullib	-11.5656
************	-11.5656
▁everyday	-11.5656
▁scant	-11.5656
ador	-11.5657
venger	-11.5657
▁items	-11.5657
▁motivated	-11.5657
▁medication	-11.5658
sympathize	-11.5658
▁Lex	-11.5658
▁Must	-11.5658
▁shaky	-11.5659
▁childish	-11.5659
▁Bridget	-11.5659
▁Alas	-11.5659
▁Might	-11.5659
▁illustrate	-11.566
▁Definitely	-11.566
▁advert	-11.5661
▁Bates	-11.5661
▁spare	-11.5661
▁triple	-11.5661
▁awaken	-11.5661
▁sack	-11.5663
▁Angeles	-11.5663
▁DJ	-11.5664
▁Englishman	-11.5664
▁UN	-11.5665
▁Diane	-11.5666
▁inhabited	-11.5666
▁accomplished	-11.5666
▁Deep	-11.5667
▁dripp	-11.5668
▁Line	-11.5668
▁fallen	-11.5669
▁Extreme	-11.567
▁evolution	-11.567
▁solution	-11.567
▁bath	-11.5671
▁Dance	-11.5671
▁abortion	-11.5672
▁Nope	-11.5673
Murray	-11.5673
▁weakness	-11.5674
▁fade	-11.5675
▁Gone	-11.5676
▁talentless	-11.5676
▁syn	-11.5676
▁brand	-11.5677
▁popped	-11.5677
▁strut	-11.5679
▁colorful	-11.5682
▁cheek	-11.5682
burn	-11.5682
▁gel	-11.5683
▁improve	-11.5683
▁squad	-11.5685
▁achieved	-11.5686
▁fascist	-11.5688
▁tall	-11.5688
▁carefully	-11.5689
▁NC	-11.569
▁ease	-11.5691
logist	-11.5692
▁breed	-11.5694
bora	-11.5695
▁SPOILER	-11.5696
getting	-11.5697
Star	-11.5702
▁Dog	-11.5702
▁prize	-11.5703
▁musician	-11.5703
▁defy	-11.5703
▁lifetime	-11.5706
.5/10	-11.5706
▁inserted	-11.5706
▁repris	-11.5708
esque	-11.5709
▁facilit	-11.5709
▁evidently	-11.5713
▁Titanic	-11.5714
▁sir	-11.5715
▁numbing	-11.5723
▁Main	-11.5727
▁penn	-11.5728
▁Vinn	-11.5731
▁noble	-11.5738
▁summ	-11.5739
breed	-11.5739
▁bitch	-11.574
▁Willie	-11.5742
▁UP	-11.5742
▁thick	-11.5742
emic	-11.5743
▁Heder	-11.5746
▁flipp	-11.5754
alien	-11.5756
▁intend	-11.5757
Psycho	-11.5759
▁sch	-11.5761
▁riddle	-11.5761
ension	-11.5764
▁Fle	-11.5771
apping	-11.5799
iva	-11.5808
▁layer	-11.5808
▁contribut	-11.5809
salt	-11.5829
rawl	-11.5831
▁rear	-11.5841
profile	-11.5842
▁Pier	-11.5843
ease	-11.5845
▁Denis	-11.5846
▁skinn	-11.5848
▁graduat	-11.585
▁terrorize	-11.5864
▁HER	-11.5865
▁seal	-11.5866
stray	-11.5869
▁robbe	-11.5871
▁sampl	-11.5878
▁owe	-11.589
▁tease	-11.5894
▁lure	-11.5937
▁qualif	-11.594
▁drugg	-11.5979
▁downward	-11.5981
▁Cle	-11.5983
package	-11.5988
!!!!!!!!!!	-11.5993
▁stro	-11.6013
tract	-11.602
lain	-11.6028
LL	-11.6032
RG	-11.6049
▁Philipp	-11.6063
ief	-11.6106
82	-11.6134
▁bounc	-11.6139
▁Suppo	-11.6198
vier	-11.62
▁Hog	-11.622
▁Budd	-11.622
▁Strange	-11.6245
▁Roa	-11.6275
▁pale	-11.63
▁forgive	-11.6302
epid	-11.6319
give	-11.632
▁Mario	-11.6367
▁Ruth	-11.6377
nco	-11.6393
eems	-11.6394
lumber	-11.6406
▁NE	-11.6408
panic	-11.6416
reality	-11.6437
OD	-11.6441
DY	-11.6449
hhhh	-11.6452
fashioned	-11.6455
starred	-11.6463
▁Lili	-11.6464
▁bun	-11.6485
haunted	-11.6522
▁eerie	-11.6562
▁stepp	-11.6574
▁Ok	-11.658
▁Kan	-11.6601
BBC	-11.6626
Friends	-11.6632
gla	-11.664
garet	-11.6641
store	-11.6645
glo	-11.6667
Basic	-11.6695
dating	-11.6702
▁flashe	-11.6733
sibly	-11.674
atrix	-11.6753
▁manipulate	-11.6758
▁1972	-11.6794
45	-11.6796
uthless	-11.6802
▁mega	-11.681
Noise	-11.6815
▁rav	-11.6831
umber	-11.6898
answered	-11.6901
▁rag	-11.6931
TAY	-11.6941
▁practic	-11.6949
(?)	-11.6963
alent	-11.6969
ock	-11.6975
▁Ki	-11.698
ntil	-11.7019
39	-11.7041
hail	-11.7059
▁mute	-11.706
▁cam	-11.7069
▁Philip	-11.7131
ENT	-11.7146
▁chop	-11.7168
▁thru	-11.7263
maker	-11.7267
cture	-11.727
bility	-11.727
▁celebrat	-11.728
Buddy	-11.7281
goers	-11.7287
oche	-11.7301
▁quot	-11.7321
vsky	-11.7334
will	-11.7338
▁Brun	-11.735
▁Muslim	-11.7354
▁Ranger	-11.7356
▁stab	-11.7357
▁slug	-11.7365
cross	-11.7365
quality	-11.7383
▁lac	-11.7421
ords	-11.7431
▁Amb	-11.7454
▁Roll	-11.7461
▁cretin	-11.7494
▁commun	-11.7502
▁captur	-11.7508
▁Fann	-11.7511
▁imitat	-11.7514
▁embarrass	-11.7517
▁disturb	-11.7517
adia	-11.7528
boo	-11.7528
▁choos	-11.7533
▁mag	-11.7549
▁indulge	-11.7549
▁slid	-11.7549
▁compar	-11.756
▁200	-11.7564
▁fascinat	-11.7565
▁Act	-11.7566
▁compell	-11.757
present	-11.7571
member	-11.7571
numbing	-11.7572
construct	-11.7572
Character	-11.7574
Nichol	-11.7574
Acting	-11.7574
Satan	-11.7574
Blue	-11.7574
Besides	-11.7574
Death	-11.7574
entertain	-11.7575
Story	-11.7575
Power	-11.7575
Blair	-11.7575
frame	-11.7575
paper	-11.7575
Jason	-11.7575
Sadly	-11.7575
drug	-11.7575
source	-11.7575
Save	-11.7575
modern	-11.7576
Last	-11.7576
third	-11.7576
Richard	-11.7576
apparently	-11.7576
Joe	-11.7576
control	-11.7576
message	-11.7576
average	-11.7576
Michael	-11.7576
perhaps	-11.7576
family	-11.7576
camera	-11.7576
worst	-11.7576
help	-11.7577
edited	-11.7577
Grade	-11.7577
South	-11.7577
Home	-11.7578
social	-11.7578
market	-11.7578
level	-11.7578
weird	-11.7579
cheek	-11.758
load	-11.758
▁contriv	-11.758
plus	-11.7583
sick	-11.7583
speak	-11.7588
thank	-11.7588
NOTH	-11.7588
▁environment	-11.7588
around	-11.7592
End	-11.7595
book	-11.7595
▁awake	-11.7596
inium	-11.7598
Will	-11.7601
▁motivate	-11.7602
▁amaze	-11.7603
▁woo	-11.7607
▁activit	-11.7608
guess	-11.7611
▁zoo	-11.7612
worn	-11.7612
▁profession	-11.7613
▁Julia	-11.7616
Big	-11.7616
orge	-11.7617
Sure	-11.7618
▁narrat	-11.7618
feel	-11.7618
psych	-11.7624
▁posse	-11.7625
▁distinct	-11.7627
▁commend	-11.7628
neath	-11.7628
▁south	-11.7628
fected	-11.7629
▁IMD	-11.7629
▁ridicul	-11.7629
HOW	-11.7629
semblance	-11.763
confus	-11.763
rray	-11.763
atherine	-11.763
stream	-11.763
ublic	-11.7631
ccasionally	-11.7631
▁revolution	-11.7631
▁censor	-11.7631
è	-11.7631
▁intellect	-11.7631
stantly	-11.7631
▁smug	-11.7631
▁abduct	-11.7631
▁claptrap	-11.7631
▁hypothe	-11.7631
▁techno	-11.7631
###	-11.7631
▁Secret	-11.7631
▁candidate	-11.7631
▁civilian	-11.7631
▁continent	-11.7631
▁fragment	-11.7631
▁inflict	-11.7631
▁recognis	-11.7631
▁sabretooth	-11.7631
▁satisfaction	-11.7631
▁scrub	-11.7631
Deneuve	-11.7631
DinoCroc	-11.7631
Jenifer	-11.7631
Technical	-11.7631
abundance	-11.7631
articulate	-11.7631
examination	-11.7631
forgivable	-11.7631
illennium	-11.7631
inocroc	-11.7631
	-11.7631
▁(1931)	-11.7631
▁BORING	-11.7631
▁Bachchan	-11.7631
▁Barclay	-11.7631
▁Brosnan	-11.7631
▁Brynner	-11.7631
▁Buñuel	-11.7631
▁Clooney	-11.7631
▁Cécile	-11.7631
▁Empire	-11.7631
▁Enterprise	-11.7631
▁FILM	-11.7631
▁Gleason	-11.7631
▁Govinda	-11.7631
▁Hannah	-11.7631
▁KILLER	-11.7631
▁Kareena	-11.7631
▁Kornbluth	-11.7631
▁Leonardo	-11.7631
▁Liotta	-11.7631
▁Madeleine	-11.7631
▁Marshall	-11.7631
▁Mexico	-11.7631
▁NIGHT	-11.7631
▁Oswald	-11.7631
▁Paresh	-11.7631
▁Perlman	-11.7631
▁Phyllis	-11.7631
▁Revol	-11.7631
▁Rohmer	-11.7631
▁SCARECROWS	-11.7631
▁Savini	-11.7631
▁Schneider	-11.7631
▁Scotland	-11.7631
▁Sundance	-11.7631
▁Tarkovsky	-11.7631
▁Tunnel	-11.7631
▁Vacation	-11.7631
▁Verhoeven	-11.7631
▁Voyager	-11.7631
▁WTF	-11.7631
▁Wagner	-11.7631
▁Wallace	-11.7631
▁Widmark	-11.7631
▁abstract	-11.7631
▁adrenalin	-11.7631
▁advertisement	-11.7631
▁archaeological	-11.7631
▁astronaut	-11.7631
▁blasphemous	-11.7631
▁bucket	-11.7631
▁captivat	-11.7631
▁celebrit	-11.7631
▁civilization	-11.7631
▁coffee	-11.7631
▁confirm	-11.7631
▁congratulate	-11.7631
▁creativity	-11.7631
▁curiosity	-11.7631
▁decapitate	-11.7631
▁diabolical	-11.7631
▁diamond	-11.7631
▁disorder	-11.7631
▁dwarf	-11.7631
▁earthquake	-11.7631
▁ecologic	-11.7631
▁empathi	-11.7631
▁endeavor	-11.7631
▁ensemble	-11.7631
▁envelope	-11.7631
▁escaping	-11.7631
▁exclusive	-11.7631
▁fluid	-11.7631
▁footsteps	-11.7631
▁frustration	-11.7631
▁glorious	-11.7631
▁historian	-11.7631
▁hunchback	-11.7631
▁ignorance	-11.7631
▁ignorant	-11.7631
▁impregnate	-11.7631
▁inconsequential	-11.7631
▁inconsistencies	-11.7631
▁incorporate	-11.7631
▁innocence	-11.7631
▁instruct	-11.7631
▁irritated	-11.7631
▁luxur	-11.7631
▁marginal	-11.7631
▁marvelous	-11.7631
▁miniature	-11.7631
▁necessity	-11.7631
▁neglect	-11.7631
▁nemesis	-11.7631
▁nostalgia	-11.7631
▁otaku	-11.7631
▁peculiar	-11.7631
▁perverse	-11.7631
▁phenomenal	-11.7631
▁pistol	-11.7631
▁plaster	-11.7631
▁potboiler	-11.7631
▁predilection	-11.7631
▁profanity	-11.7631
▁promptly	-11.7631
▁proportion	-11.7631
▁publishe	-11.7631
▁puddle	-11.7631
▁quirky	-11.7631
▁redundant	-11.7631
▁refuge	-11.7631
▁resurrect	-11.7631
▁retired	-11.7631
▁rhetoric	-11.7631
▁salvage	-11.7631
▁sarcastic	-11.7631
▁servant	-11.7631
▁shrug	-11.7631
▁skelet	-11.7631
▁sloppy	-11.7631
▁snobb	-11.7631
▁software	-11.7631
▁squeez	-11.7631
▁squirm	-11.7631
▁stilted	-11.7631
▁surface	-11.7631
▁suspicion	-11.7631
▁threadbare	-11.7631
▁traffic	-11.7631
▁translator	-11.7631
▁transplant	-11.7631
▁tremor	-11.7631
▁triumph	-11.7631
▁uncertain	-11.7631
▁unquestionabl	-11.7631
▁vacation	-11.7631
▁vacuous	-11.7631
▁vaudeville	-11.7631
▁vegetable	-11.7631
▁vignettes	-11.7631
▁voodoo	-11.7631
▁whisper	-11.7631
▁yourselves	-11.7631
Manhattan	-11.7631
Nemesis	-11.7631
Terminator	-11.7631
^	-11.7631
▁Borlenghi	-11.7631
▁Clearly	-11.7631
▁Emperor	-11.7631
▁Gruner	-11.7631
▁Hackman	-11.7631
▁Hartman	-11.7631
▁Hilary	-11.7631
▁Hoffman	-11.7631
▁Hooper	-11.7631
▁Kumar	-11.7631
▁Leslie	-11.7631
▁NYC	-11.7631
▁Reeves	-11.7631
▁Rudolf	-11.7631
▁Sidney	-11.7631
▁Spears	-11.7631
▁TIME	-11.7631
▁Tsai	-11.7631
▁VCR	-11.7631
▁WITH	-11.7631
▁Would	-11.7631
▁betrayed	-11.7631
▁bimbo	-11.7631
▁breathtaking	-11.7631
▁corridor	-11.7631
▁guitar	-11.7631
▁hokum	-11.7631
▁intensity	-11.7631
▁method	-11.7631
▁mysticism	-11.7631
▁narrow	-11.7631
▁racing	-11.7631
▁shaft	-11.7631
▁silence	-11.7631
▁universal	-11.7631
▁/>1/10	-11.7631
▁/>4/10	-11.7631
▁BEVERLY	-11.7631
▁Biggie	-11.7631
▁Furious	-11.7631
▁Monday	-11.7631
▁Soloist	-11.7631
▁Statham	-11.7631
▁Sydney	-11.7631
▁WHY	-11.7631
▁Warrior	-11.7631
▁bulk	-11.7631
▁maxim	-11.7631
▁prolonged	-11.7631
▁reunite	-11.7631
▁slashing	-11.7631
▁tattoo	-11.7631
▁uncover	-11.7631
Penguin	-11.7631
olonia	-11.7631
▁Waters	-11.7631
▁ineffective	-11.7631
▁intrinsic	-11.7631
▁outlandish	-11.7631
▁phase	-11.7631
▁recaptur	-11.7631
▁suppress	-11.7631
▁conceit	-11.7631
▁Consider	-11.7631
▁Daisy	-11.7631
▁IMHO	-11.7631
▁LDS	-11.7631
▁Owl	-11.7631
▁Shatner	-11.7631
▁bleak	-11.7631
▁casual	-11.7631
▁despicabl	-11.7631
▁firm	-11.7631
▁robbing	-11.7631
▁snuff	-11.7631
▁strive	-11.7631
▁worried	-11.7631
▁Writer	-11.7631
▁gesture	-11.7631
▁handicap	-11.7631
▁locate	-11.7631
▁Canyon	-11.7631
▁Helsing	-11.7631
▁Shelley	-11.7631
▁rogue	-11.7631
▁Hershey	-11.7631
▁Zeta	-11.7631
-17	-11.7631
▁Peak	-11.7631
▁Small	-11.7631
▁Worth	-11.7631
▁marine	-11.7631
▁stimulat	-11.7631
▁GAME	-11.7631
▁ploy	-11.7631
▁tolerance	-11.7631
▁Ledger	-11.7631
▁SEE	-11.7631
▁elder	-11.7631
▁panties	-11.7631
▁stunk	-11.7631
▁wreak	-11.7631
▁glaring	-11.7631
▁restrain	-11.7631
▁relieved	-11.7631
▁Islam	-11.7631
1979	-11.7631
▁Wendy	-11.7631
▁chunk	-11.7631
Daughters	-11.7631
▁mutilated	-11.7632
owski	-11.7632
▁Clyde	-11.7632
▁acclaim	-11.7632
▁Cube	-11.7632
▁Southern	-11.7632
▁McKe	-11.7632
▁Tapes	-11.7632
▁plodding	-11.7632
▁Norris	-11.7632
▁puppy	-11.7632
▁Lead	-11.7632
▁Cruise	-11.7632
▁ACS	-11.7632
▁packaging	-11.7632
▁Series	-11.7632
▁crisp	-11.7632
▁cliff	-11.7632
Lawrence	-11.7632
▁manga	-11.7632
▁Jesse	-11.7632
▁imaginable	-11.7632
Neal	-11.7632
▁Peet	-11.7632
rilla	-11.7632
▁asinine	-11.7632
▁zone	-11.7632
▁Taste	-11.7632
▁arguably	-11.7632
▁whisk	-11.7632
ULL	-11.7632
▁Kurt	-11.7632
▁Robbie	-11.7632
▁inclin	-11.7632
▁stint	-11.7632
▁disrespect	-11.7632
▁Sebastian	-11.7632
▁joe	-11.7632
▁Lamas	-11.7632
▁Sandler	-11.7632
▁Peck	-11.7632
▁convent	-11.7632
▁furious	-11.7632
coincidental	-11.7632
▁elegan	-11.7632
▁twelve	-11.7632
▁Atkins	-11.7632
▁substitute	-11.7632
▁Leave	-11.7632
▁yellow	-11.7632
raising	-11.7632
▁arrow	-11.7632
▁Kea	-11.7632
▁conservative	-11.7632
▁extensive	-11.7632
▁gender	-11.7632
▁Elliot	-11.7632
▁Finney	-11.7632
▁dismember	-11.7632
www	-11.7632
▁Graham	-11.7632
▁Wayans	-11.7632
▁rode	-11.7633
▁characteristics	-11.7633
▁ankle	-11.7633
▁enrag	-11.7633
▁cancelled	-11.7633
▁Navy	-11.7633
▁Walker	-11.7633
▁unseen	-11.7633
▁transport	-11.7633
▁Gere	-11.7633
▁reincarnation	-11.7633
▁uptight	-11.7633
▁Blais	-11.7633
▁whack	-11.7633
▁Greg	-11.7633
▁Whoville	-11.7633
devout	-11.7633
▁triang	-11.7633
▁Tabu	-11.7633
▁bloke	-11.7633
▁customers	-11.7633
▁Travi	-11.7633
rises	-11.7633
▁satanic	-11.7633
EVENT	-11.7633
▁lightning	-11.7633
▁withstand	-11.7633
▁homosexuality	-11.7633
▁Runner	-11.7633
▁resent	-11.7633
▁midnight	-11.7633
▁stomp	-11.7633
Rudol	-11.7633
▁Atwill	-11.7633
aunting	-11.7634
▁Beatty	-11.7634
orough	-11.7634
▁Aust	-11.7634
▁Woo	-11.7634
▁atheist	-11.7634
▁prequel	-11.7634
▁Camill	-11.7634
▁hatred	-11.7634
▁Krista	-11.7634
▁Sharif	-11.7634
▁Return	-11.7634
▁polish	-11.7634
▁DULL	-11.7634
buckle	-11.7634
▁deplo	-11.7634
▁observation	-11.7634
▁distress	-11.7634
▁interfer	-11.7634
▁Genius	-11.7634
▁Clint	-11.7634
▁constitut	-11.7634
▁Angelina	-11.7634
▁Sweden	-11.7634
▁spread	-11.7634
▁Unknown	-11.7634
Marilyn	-11.7635
▁whine	-11.7635
▁population	-11.7635
▁Prison	-11.7635
▁eyeball	-11.7635
▁gripe	-11.7635
▁COULD	-11.7635
▁hung	-11.7635
▁companion	-11.7635
▁Egg	-11.7636
▁Cheap	-11.7636
OWN	-11.7636
▁Harv	-11.7636
▁Rush	-11.7636
▁cinematographer	-11.7636
OTT	-11.7636
▁Sammy	-11.7636
▁Foxx	-11.7636
▁romp	-11.7636
▁Malco	-11.7637
▁$3	-11.7637
▁hoot	-11.7637
▁Doctor	-11.7637
▁transformation	-11.7637
▁careful	-11.7637
▁Josh	-11.7637
▁Turk	-11.7637
▁90%	-11.7637
▁85	-11.7637
▁Falk	-11.7637
▁WORSE	-11.7637
▁Madness	-11.7638
▁Seeley	-11.7638
▁vein	-11.7638
threatening	-11.7638
▁sculptor	-11.7638
▁CQ	-11.7638
qualified	-11.7638
▁splice	-11.7638
▁static	-11.7638
POS	-11.7638
▁TOO	-11.7638
▁investment	-11.7638
▁friendship	-11.7639
▁Luke	-11.7639
▁extraordinary	-11.7639
▁shotgun	-11.7639
▁wig	-11.7639
▁Candy	-11.7639
▁programme	-11.7639
▁Hammer	-11.7639
▁confession	-11.7639
▁Code	-11.764
▁establishment	-11.764
▁duty	-11.764
therapy	-11.764
trong	-11.764
▁75	-11.764
▁Jill	-11.764
▁opt	-11.764
▁Alda	-11.764
▁GRE	-11.7641
▁replacement	-11.7641
▁Werewol	-11.7641
▁huh	-11.7641
▁dung	-11.7641
▁fog	-11.7641
▁Pons	-11.7642
▁Laugh	-11.7642
▁Luci	-11.7642
▁knot	-11.7642
▁theories	-11.7642
▁Norman	-11.7642
▁penis	-11.7642
▁pants	-11.7642
▁remade	-11.7643
uppie	-11.7643
▁Sister	-11.7644
▁Mason	-11.7644
▁pier	-11.7644
Eastern	-11.7644
▁protection	-11.7645
▁comeback	-11.7645
▁plight	-11.7646
▁Princess	-11.7646
▁threesome	-11.7646
▁payoff	-11.7646
▁madman	-11.7647
▁rust	-11.7647
▁factual	-11.7647
▁Stranger	-11.7647
▁Gang	-11.7647
▁Lordi	-11.7648
berry	-11.7648
▁CRA	-11.7648
▁MAD	-11.7648
▁observ	-11.7649
Wait	-11.7649
▁Farra	-11.765
▁Atten	-11.7651
▁havoc	-11.7651
▁clock	-11.7651
▁Mont	-11.7651
▁sadism	-11.7652
▁grating	-11.7653
Visit	-11.7653
▁replay	-11.7654
▁activity	-11.7655
▁Lane	-11.7655
▁Brav	-11.7655
Fu	-11.7655
▁wheel	-11.7656
▁Beyond	-11.7656
▁Tara	-11.7657
▁businessman	-11.7658
▁fist	-11.7658
hriek	-11.7658
▁paranoi	-11.7659
▁inventive	-11.7659
▁absurdity	-11.766
▁Brady	-11.766
▁Grave	-11.766
paint	-11.766
▁mob	-11.766
▁dominat	-11.7661
▁superf	-11.7661
▁obsessive	-11.7662
yank	-11.7662
▁34	-11.7663
▁labor	-11.7663
▁Gothi	-11.7663
▁weirdness	-11.7665
▁trendy	-11.7665
▁Fight	-11.7666
▁Slow	-11.7666
▁moon	-11.7667
▁collective	-11.7667
▁Seven	-11.7667
▁retrea	-11.7668
▁101	-11.7668
ICK	-11.7668
▁stretches	-11.7669
▁hag	-11.767
▁superman	-11.767
▁Skin	-11.7671
▁Post	-11.7672
▁witnesses	-11.7673
ova	-11.7674
▁Sara	-11.7674
▁peak	-11.7674
▁Bowe	-11.7676
▁questionable	-11.7676
bone	-11.7676
▁gasp	-11.7676
bury	-11.7676
useum	-11.7677
▁disk	-11.7677
▁followers	-11.7677
▁Beat	-11.7678
▁Fine	-11.7678
▁belt	-11.7678
▁cruci	-11.7679
▁.........	-11.7681
▁summariz	-11.7683
▁delv	-11.7685
poor	-11.7686
▁helpful	-11.7688
▁23	-11.7688
▁adore	-11.769
▁Buck	-11.7691
▁bay	-11.7691
▁snap	-11.7691
▁grader	-11.7695
▁val	-11.7696
▁Page	-11.7698
▁Went	-11.7699
plug	-11.7699
▁staff	-11.7703
▁List	-11.7706
▁ARE	-11.7706
osity	-11.771
▁caper	-11.7715
▁assist	-11.772
▁imitate	-11.7721
responsibility	-11.7723
▁slide	-11.7723
▁criticis	-11.7734
▁Wall	-11.774
▁Pen	-11.7743
▁mus	-11.7743
▁moan	-11.7746
▁DR	-11.7753
elig	-11.7754
Goodnight	-11.7768
▁sacrific	-11.777
cular	-11.7775
Gee	-11.7782
▁trivi	-11.7785
Office	-11.7787
▁Shann	-11.7809
cock	-11.7825
Robot	-11.7831
▁Anti	-11.7836
pinning	-11.784
▁bugg	-11.7851
Aunt	-11.7853
▁masterful	-11.7858
▁Count	-11.7875
Country	-11.788
Ugh	-11.7883
IND	-11.7883
antom	-11.7884
Dir	-11.7889
▁Louis	-11.7889
recogniz	-11.7894
dicu	-11.7908
▁transferr	-11.7914
▁Claudi	-11.7915
Five	-11.7936
▁Histor	-11.7946
▁Feli	-11.7977
▁tub	-11.7977
▁stumbl	-11.7986
▁rom	-11.7989
▁telepath	-11.8015
reams	-11.8076
▁fur	-11.8088
stable	-11.8089
classic	-11.8132
Live	-11.8143
UV	-11.8173
▁inform	-11.8198
Gilli	-11.8237
▁$4	-11.824
itive	-11.8249
pock	-11.8278
Possibl	-11.8286
RING	-11.8296
77	-11.8317
RIT	-11.8333
abba	-11.8345
▁tripp	-11.835
LES	-11.8394
representation	-11.8422
TON	-11.8448
Gues	-11.8454
Too	-11.8467
▁popp	-11.8483
irage	-11.8492
HERE	-11.853
clar	-11.8531
strang	-11.854
Crash	-11.8545
UG	-11.8551
Santo	-11.8561
Dino	-11.8607
nuel	-11.8614
etti	-11.8639
spirational	-11.869
▁deck	-11.8709
▁192	-11.8723
▁prob	-11.875
Actor	-11.876
pong	-11.8791
oops	-11.884
94	-11.888
▁useful	-11.8886
▁copie	-11.8935
▁perk	-11.8964
hhh	-11.8964
▁Dian	-11.8966
▁fri	-11.8977
▁legendar	-11.8986
spirited	-11.9013
rails	-11.9052
▁rou	-11.9118
entai	-11.9145
▁consume	-11.9194
▁Condo	-11.9286
▁twi	-11.9299
▁Christin	-11.9301
Dukes	-11.9311
▁limb	-11.9396
▁Blanc	-11.944
▁WHE	-11.9449
cou	-11.9462
▁Cru	-11.9507
omaniac	-11.953
▁Gil	-11.9533
nails	-11.9571
16	-11.9661
▁Zi	-11.9673
progressive	-11.9688
▁Fai	-11.9688
▁simulat	-11.9721
▁controll	-11.9728
destructi	-11.9795
Chris	-11.9849
▁Robbin	-11.9852
archi	-11.9882
▁improv	-11.9889
usually	-11.9919
reacher	-11.9933
shir	-11.9948
▁ethic	-11.9949
▁equ	-11.9951
IAN	-11.9977
▁weigh	-11.9985
ilities	-12.0001
▁import	-12.0013
▁1.5	-12.0016
▁THAN	-12.0017
▁releas	-12.0026
produce	-12.0043
▁fascis	-12.0044
wolf	-12.0045
▁numb	-12.0052
solution	-12.0067
evolution	-12.0068
▁summari	-12.0069
▁appall	-12.007
Extreme	-12.0071
colorful	-12.0071
bbie	-12.0072
abortion	-12.0072
trust	-12.0072
Olivier	-12.0072
developed	-12.0072
Thomas	-12.0073
Awful	-12.0073
define	-12.0073
Dracula	-12.0073
Usual	-12.0073
folk	-12.0074
Plot	-12.0074
Think	-12.0074
winning	-12.0074
Yeah	-12.0074
Thre	-12.0074
Elizabeth	-12.0074
▁accomplish	-12.0074
Stay	-12.0074
Sorry	-12.0074
Green	-12.0074
Thank	-12.0075
Though	-12.0075
capable	-12.0075
dubbed	-12.0075
adventure	-12.0075
typical	-12.0075
Poor	-12.0075
Lugosi	-12.0075
Since	-12.0075
length	-12.0075
People	-12.0075
normal	-12.0075
victim	-12.0075
intended	-12.0076
build	-12.0076
villain	-12.0076
Indian	-12.0076
Adam	-12.0076
husband	-12.0076
experience	-12.0076
Sean	-12.0076
climax	-12.0076
flick	-12.0076
blood	-12.0076
Hollywood	-12.0076
second	-12.0076
black	-12.0076
character	-12.0076
culture	-12.0076
would	-12.0076
▁inhabit	-12.0077
lived	-12.0077
front	-12.0078
close	-12.0079
Music	-12.008
strict	-12.008
Devil	-12.008
▁retard	-12.0081
breath	-12.0081
decent	-12.0082
scary	-12.0083
Someone	-12.0083
duction	-12.0085
week	-12.0091
▁immediate	-12.0092
orientat	-12.0092
found	-12.0092
▁uninspir	-12.0094
▁dread	-12.0097
rilling	-12.0097
▁marr	-12.0097
▁Israel	-12.01
boat	-12.0102
job	-12.0102
onymous	-12.0104
mask	-12.0105
Frid	-12.0113
▁mutate	-12.0114
▁excess	-12.0122
▁occasion	-12.0122
▁subtitl	-12.0123
▁nymph	-12.0123
▁sculpt	-12.0123
▁KID	-12.0124
▁prince	-12.0125
▁dang	-12.0126
▁compani	-12.0127
iddle	-12.0127
▁explosi	-12.0127
OULD	-12.0127
▁anticipat	-12.0127
▁abort	-12.0128
▁stylis	-12.0128
▁ambigu	-12.0129
annibal	-12.0129
liché	-12.013
▁Swed	-12.013
▁imagina	-12.013
▁revel	-12.013
Phillip	-12.013
tensive	-12.0131
appointed	-12.0131
bject	-12.0131
▁fabric	-12.0131
▁Finn	-12.0131
▁differ	-12.0131
▁Dragon	-12.0131
Command	-12.0131
▁stereo	-12.0131
THINK	-12.0131
▁Hawaii	-12.0131
▁tarnish	-12.0131
▁unremarkabl	-12.0131
▁vindictive	-12.0131
▁Arcati	-12.0131
▁absorb	-12.0131
▁applaud	-12.0131
▁diagnos	-12.0131
▁etcetera	-12.0131
Beautiful	-12.0131
Belafonte	-12.0131
Cyborg	-12.0131
Depardieu	-12.0131
Guido	-12.0131
Helgeland	-12.0131
Jarmusch	-12.0131
Pasolini	-12.0131
Platoon	-12.0131
Pranks	-12.0131
Scrooge	-12.0131
Sullivan	-12.0131
Superchick	-12.0131
Surprisingly	-12.0131
Survivor	-12.0131
Suzanne	-12.0131
Trigger	-12.0131
Ultimately	-12.0131
Written	-12.0131
cinct	-12.0131
efficient	-12.0131
exploration	-12.0131
heerleader	-12.0131
naccuracies	-12.0131
onsequently	-12.0131
paghetti	-12.0131
satisfactory	-12.0131
simplified	-12.0131
vulnerability	-12.0131
▁1932	-12.0131
▁1940	-12.0131
▁1955	-12.0131
▁1959	-12.0131
▁1981	-12.0131
▁1985	-12.0131
▁1991	-12.0131
▁747	-12.0131
▁Absurd	-12.0131
▁Amazingly	-12.0131
▁BOMB	-12.0131
▁Bailey	-12.0131
▁Bennett	-12.0131
▁Blonde	-12.0131
▁Cambodia	-12.0131
▁Caucasian	-12.0131
▁Century	-12.0131
▁Chicago	-12.0131
▁Costello	-12.0131
▁Depression	-12.0131
▁Dinosaur	-12.0131
▁Directed	-12.0131
▁DuckTales	-12.0131
▁Emilio	-12.0131
▁Episode	-12.0131
▁Experiment	-12.0131
▁FUNNY	-12.0131
▁Fassbinder	-12.0131
▁Freeze	-12.0131
▁Halperin	-12.0131
▁Hazzard	-12.0131
▁Holocaust	-12.0131
▁Hopalong	-12.0131
▁Incredible	-12.0131
▁Instinct	-12.0131
▁Irwin	-12.0131
▁Jordan	-12.0131
▁Kennedy	-12.0131
▁Knoxville	-12.0131
▁Lonnrot	-12.0131
▁McAvoy	-12.0131
▁McElwee	-12.0131
▁Munsters	-12.0131
▁NIGHTMARE	-12.0131
▁Nekromantik	-12.0131
▁Netflix	-12.0131
▁Particularly	-12.0131
▁Pertwee	-12.0131
▁Sabretooth	-12.0131
▁Savalas	-12.0131
▁Scarlet	-12.0131
▁Schwartzman	-12.0131
▁Seattle	-12.0131
▁Senator	-12.0131
▁Shepherd	-12.0131
▁Sidaris	-12.0131
▁Sorvino	-12.0131
▁Splatter	-12.0131
▁Suspense	-12.0131
▁Switzerland	-12.0131
▁TMNT	-12.0131
▁Thornton	-12.0131
▁Tremors	-12.0131
▁Valentine	-12.0131
▁Zadora	-12.0131
▁Zuniga	-12.0131
▁abomination	-12.0131
▁acquaintance	-12.0131
▁aftertaste	-12.0131
▁american	-12.0131
▁antagonist	-12.0131
▁archeologist	-12.0131
▁artifact	-12.0131
▁assignment	-12.0131
▁attorney	-12.0131
▁backdrop	-12.0131
▁baffled	-12.0131
▁betrayal	-12.0131
▁blossom	-12.0131
▁brigade	-12.0131
▁burglar	-12.0131
▁calibre	-12.0131
▁categories	-12.0131
▁centuries	-12.0131
▁cigarette	-12.0131
▁claustrophobic	-12.0131
▁cleavage	-12.0131
▁cocaine	-12.0131
▁colonial	-12.0131
▁comatose	-12.0131
▁complications	-12.0131
▁condescending	-12.0131
▁conscience	-12.0131
▁consistency	-12.0131
▁corporate	-12.0131
▁critique	-12.0131
▁cruise	-12.0131
▁culprit	-12.0131
▁dazzling	-12.0131
▁delusion	-12.0131
▁demographic	-12.0131
▁denouement	-12.0131
▁devour	-12.0131
▁disfigured	-12.0131
▁disobey	-12.0131
▁disregard	-12.0131
▁economy	-12.0131
▁electronic	-12.0131
▁elicit	-12.0131
▁eliminate	-12.0131
▁emulat	-12.0131
▁enthusiasm	-12.0131
▁entrance	-12.0131
▁excerpt	-12.0131
▁exhaust	-12.0131
▁exhibit	-12.0131
▁explicit	-12.0131
▁fantasies	-12.0131
▁fuzzy	-12.0131
▁genitalia	-12.0131
▁global	-12.0131
▁halloween	-12.0131
▁hijack	-12.0131
▁hooligan	-12.0131
▁horizon	-12.0131
▁hybrid	-12.0131
▁idiocy	-12.0131
▁inaccurate	-12.0131
▁incessant	-12.0131
▁infatuat	-12.0131
▁infuriating	-12.0131
▁insignificant	-12.0131
▁integrity	-12.0131
▁interchangeable	-12.0131
▁intestines	-12.0131
▁intimacy	-12.0131
▁jewel	-12.0131
▁lightweight	-12.0131
▁liquor	-12.0131
▁lunatic	-12.0131
▁lyrics	-12.0131
▁mesmerizing	-12.0131
▁miraculous	-12.0131
▁mishmash	-12.0131
▁misinform	-12.0131
▁monitor	-12.0131
▁monotonous	-12.0131
▁monument	-12.0131
▁motorcycle	-12.0131
▁nephew	-12.0131
▁notwithstanding	-12.0131
▁objectivity	-12.0131
▁obscurity	-12.0131
▁oriental	-12.0131
▁outweigh	-12.0131
▁overshadowed	-12.0131
▁palace	-12.0131
▁pancake	-12.0131
▁pedophile	-12.0131
▁perception	-12.0131
▁perpetuat	-12.0131
▁phenomenon	-12.0131
▁physics	-12.0131
▁plagiari	-12.0131
▁platoon	-12.0131
▁poetry	-12.0131
▁prejudice	-12.0131
▁pretensions	-12.0131
▁prevail	-12.0131
▁primitive	-12.0131
▁principle	-12.0131
▁promiscuity	-12.0131
▁psychiatrist	-12.0131
▁psychology	-12.0131
▁rebellious	-12.0131
▁reception	-12.0131
▁reruns	-12.0131
▁retrospect	-12.0131
▁ritual	-12.0131
▁sabotage	-12.0131
▁scholar	-12.0131
▁screech	-12.0131
▁sensibilit	-12.0131
▁species	-12.0131
▁splend	-12.0131
▁subversive	-12.0131
▁supply	-12.0131
▁syrup	-12.0131
▁thieves	-12.0131
▁titillation	-12.0131
▁transcend	-12.0131
▁turmoil	-12.0131
▁unconventional	-12.0131
▁uncredited	-12.0131
▁unwitting	-12.0131
▁upstairs	-12.0131
▁urinates	-12.0131
▁vacant	-12.0131
▁vapid	-12.0131
▁verdict	-12.0131
▁vessel	-12.0131
▁voyeur	-12.0131
▁whimper	-12.0131
▁wisdom	-12.0131
▁yesterday	-12.0131
/15	-12.0131
@	-12.0131
Animator	-12.0131
OINT	-12.0131
▁(195	-12.0131
▁Agatha	-12.0131
▁Annakin	-12.0131
▁Bigelow	-12.0131
▁Brenda	-12.0131
▁DEAD	-12.0131
▁Decision	-12.0131
▁DiCaprio	-12.0131
▁Dietrich	-12.0131
▁Empress	-12.0131
▁Fiction	-12.0131
▁Hammond	-12.0131
▁Huppert	-12.0131
▁Nudity	-12.0131
▁Pearl	-12.0131
▁Proog	-12.0131
▁Rebane	-12.0131
▁STRANGE	-12.0131
▁Terror	-12.0131
▁Watson	-12.0131
▁acquit	-12.0131
▁apocalyp	-12.0131
▁chapter	-12.0131
▁clutch	-12.0131
▁contemplat	-12.0131
▁delicate	-12.0131
▁disrobe	-12.0131
▁experiencing	-12.0131
▁finance	-12.0131
▁flavor	-12.0131
▁fought	-12.0131
▁glamor	-12.0131
▁increase	-12.0131
▁inferior	-12.0131
▁irresponsible	-12.0131
▁nineteen	-12.0131
▁recreation	-12.0131
▁rumor	-12.0131
▁shield	-12.0131
▁skull	-12.0131
▁streak	-12.0131
▁temperature	-12.0131
▁twentie	-12.0131
:40	-12.0131
ö	-12.0131
▁#1	-12.0131
▁Alpha	-12.0131
▁Bambi	-12.0131
▁Bozic	-12.0131
▁Dillman	-12.0131
▁Dunaway	-12.0131
▁Enemy	-12.0131
▁Gilligan	-12.0131
▁Klingon	-12.0131
▁Sierra	-12.0131
▁Work	-12.0131
▁amazon	-12.0131
▁balloon	-12.0131
▁buffoon	-12.0131
▁devious	-12.0131
▁expend	-12.0131
▁ladder	-12.0131
▁pocket	-12.0131
▁roast	-12.0131
▁scarier	-12.0131
▁smear	-12.0131
▁statistic	-12.0131
▁uplift	-12.0131
VIEW	-12.0131
discriminat	-12.0131
▁Davies	-12.0131
▁Nacho	-12.0131
▁Nicol	-12.0131
▁Ozu	-12.0131
▁Teffe	-12.0131
▁crown	-12.0131
▁feather	-12.0131
▁micro	-12.0131
▁refund	-12.0131
▁warrant	-12.0131
dministration	-12.0131
▁/>3/10	-12.0131
▁Blade	-12.0131
▁Burton	-12.0131
▁Cobb	-12.0131
▁Largo	-12.0131
▁Square	-12.0131
▁catalog	-12.0131
▁conquer	-12.0131
▁crook	-12.0131
▁disgr	-12.0131
▁nurse	-12.0131
▁ocean	-12.0131
▁tramp	-12.0131
▁Burke	-12.0131
▁Driver	-12.0131
▁Herbie	-12.0131
▁Jolie	-12.0131
▁Panther	-12.0131
▁Payne	-12.0131
▁aggressive	-12.0131
▁captive	-12.0131
▁digress	-12.0131
▁examine	-12.0131
▁mimic	-12.0131
▁piercing	-12.0131
Hamburg	-12.0131
▁Govern	-12.0131
▁Rawal	-12.0131
▁crotch	-12.0131
▁mythical	-12.0131
Review	-12.0131
frozen	-12.0131
onopoly	-12.0131
▁Close	-12.0131
▁Neeson	-12.0131
▁Parent	-12.0131
▁Perkins	-12.0131
▁varian	-12.0131
imperialis	-12.0131
▁Creep	-12.0131
▁Fool	-12.0131
▁Gould	-12.0131
▁Lorenzo	-12.0131
▁comprise	-12.0131
▁lapse	-12.0131
▁regrettable	-12.0131
▁snack	-12.0131
▁spouse	-12.0131
▁Kathy	-12.0131
▁permit	-12.0131
▁plead	-12.0131
▁spider	-12.0131
▁spoon	-12.0131
mmoral	-12.0131
▁Lumet	-12.0131
▁echo	-12.0131
chipper	-12.0131
▁jelly	-12.0131
▁Betsy	-12.0131
▁Fernandez	-12.0131
▁Raider	-12.0131
▁concoct	-12.0131
▁garner	-12.0131
▁steel	-12.0131
Example	-12.0131
Unhinged	-12.0131
volunt	-12.0131
▁Cliff	-12.0131
▁Nightmare	-12.0131
▁conceivabl	-12.0131
▁groom	-12.0131
▁patent	-12.0131
▁region	-12.0131
▁blunt	-12.0131
▁filmography	-12.0131
▁limitations	-12.0131
▁repuls	-12.0131
▁sorrow	-12.0131
▁wrist	-12.0131
▁Smallville	-12.0131
▁abusive	-12.0131
▁tangle	-12.0131
▁yacht	-12.0131
▁nevertheless	-12.0132
Dangerous	-12.0132
▁salesman	-12.0132
▁trunk	-12.0132
▁honor	-12.0132
LIGHT	-12.0132
▁Center	-12.0132
▁motel	-12.0132
▁NAS	-12.0132
▁hostages	-12.0132
▁inherent	-12.0132
▁fracture	-12.0132
▁RULE	-12.0132
democracy	-12.0132
▁confine	-12.0132
▁jaw	-12.0132
1933	-12.0132
ANCE	-12.0132
▁spear	-12.0132
▁Altman	-12.0132
▁bloodshed	-12.0132
▁mannerisms	-12.0132
▁Frye	-12.0132
▁Rabbi	-12.0132
▁HELL	-12.0132
▁Wanda	-12.0132
▁investigating	-12.0132
▁skirt	-12.0132
▁newcomer	-12.0132
▁Jokes	-12.0132
ENCE	-12.0132
▁riot	-12.0132
▁REAL	-12.0132
▁groov	-12.0132
▁loathsome	-12.0132
▁seagal	-12.0132
▁sewer	-12.0132
▁vibrant	-12.0132
▁heighten	-12.0132
▁Troy	-12.0132
▁osten	-12.0132
ichè	-12.0132
▁Dialogue	-12.0132
▁essay	-12.0132
▁crank	-12.0132
▁deviate	-12.0132
▁inflat	-12.0132
▁humiliating	-12.0132
▁4-(	-12.0132
▁Busey	-12.0132
▁SHOOTING	-12.0132
▁trainwreck	-12.0132
SOME	-12.0132
▁raid	-12.0132
▁Rudd	-12.0132
▁roam	-12.0132
▁Nasty	-12.0132
▁Contra	-12.0132
▁orphan	-12.0132
▁centre	-12.0132
▁vengeance	-12.0132
▁Hipp	-12.0132
▁fragil	-12.0132
▁retain	-12.0132
▁mutual	-12.0132
▁sanct	-12.0132
▁cement	-12.0132
miere	-12.0132
00000	-12.0132
▁Gross	-12.0132
▁polite	-12.0132
fetched	-12.0132
▁gym	-12.0132
▁rope	-12.0132
Problem	-12.0132
▁perceiv	-12.0132
▁senior	-12.0132
▁Mulda	-12.0132
▁Organiz	-12.0132
▁vital	-12.0132
▁hippy	-12.0132
▁misogynistic	-12.0132
▁Flat	-12.0132
▁Rican	-12.0132
▁fabricated	-12.0132
▁Logic	-12.0132
▁programming	-12.0132
▁taboo	-12.0132
▁prototyp	-12.0132
▁AAA	-12.0132
▁Biggs	-12.0132
▁forehead	-12.0132
▁Thunder	-12.0132
▁Trans	-12.0132
▁calm	-12.0132
HILLS	-12.0132
▁Florid	-12.0132
▁facade	-12.0132
▁inmates	-12.0132
▁1977	-12.0133
Flash	-12.0133
▁housewife	-12.0133
▁literature	-12.0133
▁toxic	-12.0133
▁terrorizing	-12.0133
thirst	-12.0133
Paltrow	-12.0133
fathom	-12.0133
▁stagger	-12.0133
▁Canada	-12.0133
▁Trot	-12.0133
▁retro	-12.0133
▁Manchu	-12.0133
▁assistance	-12.0133
▁crystal	-12.0133
▁upbringing	-12.0133
▁grief	-12.0133
WOW	-12.0133
▁Speed	-12.0133
Quest	-12.0133
▁HATE	-12.0133
▁templar	-12.0133
▁exposure	-12.0133
▁Meyer	-12.0133
▁Greenaway	-12.0133
▁munch	-12.0133
▁manipulative	-12.0133
▁vocal	-12.0133
▁sociolog	-12.0133
▁football	-12.0133
▁temporar	-12.0133
▁Dumbland	-12.0133
▁morgue	-12.0133
▁Workout	-12.0133
▁1968	-12.0133
▁bloat	-12.0133
▁schizophrenia	-12.0133
▁sillie	-12.0133
▁labour	-12.0133
▁nastie	-12.0133
▁contend	-12.0133
▁fiend	-12.0133
▁Throw	-12.0133
▁commandos	-12.0133
▁Chief	-12.0134
▁stutter	-12.0134
▁differentiate	-12.0134
▁Gavin	-12.0134
▁Samberg	-12.0134
Crimin	-12.0134
▁biker	-12.0134
▁valid	-12.0134
▁birthday	-12.0134
▁Hamill	-12.0134
▁juice	-12.0134
▁Spawn	-12.0134
▁ironically	-12.0134
anthology	-12.0134
▁equation	-12.0134
▁lazi	-12.0134
▁Safe	-12.0134
▁Godfather	-12.0134
▁misfire	-12.0134
▁ravish	-12.0134
Dallas	-12.0134
▁Singh	-12.0134
▁Emmy	-12.0134
▁angst	-12.0134
▁hungry	-12.0134
▁Erik	-12.0134
▁Khanna	-12.0134
▁Likewise	-12.0134
▁cease	-12.0134
▁remainder	-12.0135
▁machina	-12.0135
▁glory	-12.0135
▁Single	-12.0135
▁5/10	-12.0135
▁drape	-12.0135
▁cannibalism	-12.0135
▁Palance	-12.0135
▁Funny	-12.0135
▁underneath	-12.0135
▁Moreover	-12.0135
▁rude	-12.0135
▁improvement	-12.0135
▁candle	-12.0136
zzzzzzzzzzzzzzzz	-12.0136
▁Barney	-12.0136
▁mouse	-12.0136
▁Barbarian	-12.0136
▁Burg	-12.0136
▁cringing	-12.0136
▁gutter	-12.0136
▁Chiba	-12.0136
▁Ivan	-12.0136
▁WHO	-12.0136
▁adultery	-12.0137
mpact	-12.0137
▁Fortunately	-12.0137
▁Tritt	-12.0137
▁OVER	-12.0137
▁pastime	-12.0137
▁miserabl	-12.0137
▁distinction	-12.0137
▁mike	-12.0137
▁boggl	-12.0137
▁Anglo	-12.0137
▁Report	-12.0137
▁ditch	-12.0137
▁internet	-12.0137
▁Coleman	-12.0137
▁Locker	-12.0138
▁10/10	-12.0138
▁Judy	-12.0138
Comment	-12.0138
▁sanity	-12.0138
▁dense	-12.0138
▁$7	-12.0138
▁sank	-12.0138
▁sentimentality	-12.0138
CAU	-12.0138
▁distraction	-12.0138
▁stamp	-12.0138
oopers	-12.0138
▁confrontation	-12.0139
▁KIDS	-12.0139
▁ruse	-12.0139
▁Nobody	-12.0139
▁ideals	-12.0139
▁Money	-12.0139
▁Help	-12.0139
Cindy	-12.0139
▁princess	-12.0139
▁passport	-12.0139
▁airhead	-12.0139
▁Doug	-12.0139
▁Polly	-12.0139
▁Molly	-12.0139
▁limbo	-12.014
▁funding	-12.014
▁throwback	-12.014
▁harmless	-12.014
▁June	-12.014
▁shall	-12.014
▁authenticity	-12.014
▁poop	-12.014
▁Holly	-12.014
▁bench	-12.014
▁Extr	-12.014
▁randy	-12.0141
▁wax	-12.0141
▁dolt	-12.0141
▁University	-12.0141
▁fifties	-12.0141
▁accusation	-12.0142
▁Nash	-12.0142
▁Jude	-12.0142
▁stoop	-12.0142
ashmi	-12.0142
ptitude	-12.0142
▁mystifie	-12.0143
▁invention	-12.0143
▁summon	-12.0144
▁sightings	-12.0144
xious	-12.0144
uilty	-12.0144
AGE	-12.0145
▁65	-12.0145
▁Siege	-12.0145
▁priceless	-12.0145
▁leak	-12.0145
▁Thus	-12.0145
▁profit	-12.0145
▁glue	-12.0146
possibility	-12.0146
▁coward	-12.0146
▁hairdo	-12.0146
indulgence	-12.0147
▁fright	-12.0147
▁Serv	-12.0147
▁THERE	-12.0148
▁Trash	-12.0148
▁batter	-12.0148
tastic	-12.0148
▁Rule	-12.0149
▁fisherm	-12.0149
▁86	-12.015
▁assert	-12.015
▁ingenu	-12.015
nough	-12.0152
▁Milo	-12.0152
ussie	-12.0152
▁growth	-12.0152
▁Latin	-12.0152
▁500	-12.0152
quisit	-12.0152
Rani	-12.0154
Produced	-12.0156
▁Megan	-12.0157
Zoe	-12.0158
▁siren	-12.0158
▁Hong	-12.0158
▁Forbid	-12.016
▁baddie	-12.016
▁interminabl	-12.0161
izzy	-12.0162
▁Menc	-12.0162
YBO	-12.0164
1949	-12.0165
▁verse	-12.0166
radle	-12.0167
▁Monk	-12.0168
▁liar	-12.0169
▁Audr	-12.0171
office	-12.0172
ochon	-12.0172
▁dramatiz	-12.0173
▁bush	-12.0174
▁patholog	-12.0177
Production	-12.0177
distant	-12.0178
omebody	-12.0186
▁ecl	-12.0188
INTER	-12.019
▁improvise	-12.019
Jaws	-12.0198
ancid	-12.0201
hodi	-12.0204
untle	-12.0211
▁Taco	-12.0211
dimwit	-12.0213
▁propell	-12.0213
▁marrie	-12.0221
▁giggl	-12.0225
siege	-12.0233
issy	-12.0237
lusive	-12.0238
▁Finl	-12.0241
▁veer	-12.0241
▁cosm	-12.0245
MAN	-12.0246
▁slack	-12.0248
▁cheerful	-12.0266
sperse	-12.027
▁bog	-12.0275
▁remov	-12.028
naming	-12.0281
timid	-12.0281
Coming	-12.03
2002	-12.032
restored	-12.0324
ensible	-12.0338
▁crucifix	-12.0353
Hollow	-12.0356
meaning	-12.037
saturate	-12.0389
oten	-12.039
circ	-12.044
creati	-12.0478
ctively	-12.05
fulfillment	-12.0515
▁Classic	-12.0518
88	-12.052
Salma	-12.0532
isoned	-12.0537
TOP	-12.0538
Judi	-12.0544
eird	-12.055
▁deform	-12.0597
Burn	-12.061
nybody	-12.0616
protector	-12.0623
1965	-12.0626
oobie	-12.064
▁fortunate	-12.0682
lestine	-12.0694
iffle	-12.0694
Storyline	-12.0716
▁unsur	-12.0718
loyalty	-12.0731
Lucy	-12.0744
ealth	-12.0747
▁Arb	-12.0758
TION	-12.0817
sperate	-12.083
Walk	-12.0882
happy	-12.089
burger	-12.0917
formed	-12.0946
▁Romania	-12.1013
winded	-12.1069
▁Wicke	-12.1104
Cap	-12.1127
pressed	-12.115
92	-12.1173
▁encourag	-12.1266
▁stru	-12.1306
wick	-12.1312
unny	-12.135
▁rail	-12.1357
▁manipulat	-12.1369
atric	-12.1375
▁protecti	-12.1384
▁matri	-12.1392
hype	-12.1447
fuss	-12.1473
Rats	-12.1496
verge	-12.153
appiness	-12.1602
▁revolv	-12.1671
arlton	-12.1681
NCH	-12.1685
▁eeri	-12.1705
chille	-12.1795
fair	-12.1806
hristian	-12.1817
Charle	-12.1899
nimated	-12.1953
ANN	-12.2194
▁Ewa	-12.2232
▁considerabl	-12.224
▁adventur	-12.2281
▁measur	-12.2379
RIO	-12.2546
finitely	-12.2621
ounty	-12.2625
▁Express	-12.2835
▁doubl	-12.2885
gamers	-12.2907
▁condo	-12.2936
graduate	-12.3004
environmentalist	-12.3014
jective	-12.3094
Complete	-12.3098
▁refr	-12.3109
ubbi	-12.3159
▁ensu	-12.3255
nswer	-12.3257
Beast	-12.3263
▁Shakespear	-12.3335
▁Fran	-12.3339
thicker	-12.3375
▁drip	-12.3386
possibly	-12.3401
laughter	-12.3405
Girl	-12.3405
Bridget	-12.3405
advert	-12.3405
Definitely	-12.3405
shaky	-12.3406
Believ	-12.3406
albeit	-12.3406
trikes	-12.3407
Barbar	-12.3407
packed	-12.3407
WWII	-12.3407
function	-12.3407
Mystery	-12.3407
Remember	-12.3407
Amitabh	-12.3407
Beowulf	-12.3407
Obviously	-12.3407
Shaggy	-12.3407
flop	-12.3407
wreck	-12.3407
Wild	-12.3407
loving	-12.3407
Halloween	-12.3408
Isabelle	-12.3408
Brother	-12.3408
Shirley	-12.3408
cultural	-12.3408
Paris	-12.3408
employ	-12.3408
Robin	-12.3408
Korean	-12.3408
dollar	-12.3408
wife	-12.3408
blah	-12.3408
respect	-12.3408
statement	-12.3408
Christopher	-12.3408
subtle	-12.3408
Again	-12.3409
Dolph	-12.3409
change	-12.3409
marriage	-12.3409
Brown	-12.3409
Scooby	-12.3409
location	-12.3409
European	-12.3409
horse	-12.3409
Killer	-12.3409
Frank	-12.3409
Director	-12.3409
William	-12.3409
Little	-12.3409
featur	-12.3409
screw	-12.3409
perfect	-12.3409
mystery	-12.3409
political	-12.3409
murder	-12.3409
Tree	-12.3409
important	-12.3409
popular	-12.3409
secret	-12.3409
English	-12.3409
particularly	-12.3409
Instead	-12.3409
danger	-12.3409
paid	-12.3409
warning	-12.3409
behind	-12.341
involved	-12.341
	-12.341
obvious	-12.341
basically	-12.341
group	-12.341
Dead	-12.341
already	-12.341
shoot	-12.341
freak	-12.341
jokes	-12.341
living	-12.341
sadly	-12.341
much	-12.341
better	-12.341
short	-12.3412
walk	-12.3415
tribe	-12.3418
hunt	-12.3418
▁eventual	-12.3426
position	-12.3427
issue	-12.3427
▁muddle	-12.3435
charg	-12.3439
climactic	-12.3439
▁argu	-12.344
fast	-12.344
▁cub	-12.3442
▁thirt	-12.3443
▁clums	-12.3443
▁unnecessar	-12.3444
▁Australia	-12.3448
Hai	-12.3449
▁Hamm	-12.3451
▁innovati	-12.3452
nternet	-12.3457
stitute	-12.3457
▁adapt	-12.3459
achelor	-12.3459
▁Germ	-12.3459
▁depressi	-12.3459
▁populat	-12.3461
imberlake	-12.3461
▁homosexual	-12.3461
▁Griffi	-12.3461
▁custom	-12.3462
gnant	-12.3462
scription	-12.3462
scribe	-12.3462
EVEN	-12.3462
servation	-12.3462
▁hypnoti	-12.3462
▁conservat	-12.3463
rystal	-12.3463
chiev	-12.3463
▁symbol	-12.3463
rogram	-12.3463
avorite	-12.3464
onceiv	-12.3464
welve	-12.3464
naissance	-12.3464
investigat	-12.3464
clusion	-12.3464
leasure	-12.3464
▁comprehen	-12.3464
▁Dialog	-12.3464
mayo	-12.3464
eceived	-12.3464
▁loath	-12.3464
▁excel	-12.3465
figurative	-12.3465
OOOOOOOOOOOOOOO	-12.3465
journal	-12.3465
MacGyver	-12.3465
▁PROF	-12.3465
acquaint	-12.3465
▁conspicuous	-12.3465
dictator	-12.3465
▁Demongeot	-12.3465
▁Entertain	-12.3465
▁WORLD	-12.3465
▁damsel	-12.3465
▁insufficient	-12.3465
▁prosecution	-12.3465
▁schedule	-12.3465
AWFUL	-12.3465
Audition	-12.3465
Boogeyman	-12.3465
Directing	-12.3465
GIRLS	-12.3465
Gloria	-12.3465
Hairspray	-12.3465
Incidentally	-12.3465
MMPR	-12.3465
Magnolia	-12.3465
Mensonges	-12.3465
OUND	-12.3465
PATH	-12.3465
Seinfeld	-12.3465
Shrek	-12.3465
Surprise	-12.3465
Thirteen	-12.3465
VENGE	-12.3465
Wuhrer	-12.3465
apologetic	-12.3465
arcelona	-12.3465
atabase	-12.3465
burlesque	-12.3465
clandestine	-12.3465
entagram	-12.3465
estimated	-12.3465
exterminator	-12.3465
flaccid	-12.3465
foreboding	-12.3465
futuristic	-12.3465
kryptonite	-12.3465
lligator	-12.3465
nachronism	-12.3465
nthusiastic	-12.3465
ockumentary	-12.3465
prostitution	-12.3465
satisfactorily	-12.3465
syndrome	-12.3465
termittent	-12.3465
tigmata	-12.3465
traumatic	-12.3465
▁$$$	-12.3465
▁(1930)	-12.3465
▁(1990	-12.3465
▁(2003)	-12.3465
▁1946	-12.3465
▁1971	-12.3465
▁1973	-12.3465
▁1974	-12.3465
▁1986	-12.3465
▁1989	-12.3465
▁1995	-12.3465
▁9/11	-12.3465
▁90210	-12.3465
▁Additionally	-12.3465
▁Adventure	-12.3465
▁Akbar	-12.3465
▁Apprentice	-12.3465
▁Attempt	-12.3465
▁BOOMSLANG	-12.3465
▁Bakula	-12.3465
▁Barbeau	-12.3465
▁Barricade	-12.3465
▁Baxter	-12.3465
▁Beckinsale	-12.3465
▁Bhaiyyaji	-12.3465
▁Breckin	-12.3465
▁Burgundy	-12.3465
▁Burrough	-12.3465
▁CANYON	-12.3465
▁COMEDY	-12.3465
▁Caligari	-12.3465
▁Candidate	-12.3465
▁Carpathia	-12.3465
▁Chawla	-12.3465
▁College	-12.3465
▁Columbia	-12.3465
▁Combin	-12.3465
▁Communis	-12.3465
▁Comstock	-12.3465
▁Confidential	-12.3465
▁Coppola	-12.3465
▁Daggett	-12.3465
▁DeVito	-12.3465
▁Defoe	-12.3465
▁DuVall	-12.3465
▁Duchaussoy	-12.3465
▁Dungeon	-12.3465
▁EXPLANATION	-12.3465
▁Elsewhere	-12.3465
▁Enlightenment	-12.3465
▁FICTION	-12.3465
▁Fantasy	-12.3465
▁Female	-12.3465
▁Filipino	-12.3465
▁Geisha	-12.3465
▁Gwyn	-12.3465
▁HUAC	-12.3465
▁Haggard	-12.3465
▁Hallmark	-12.3465
▁Halloran	-12.3465
▁Herzog	-12.3465
▁Hiltz	-12.3465
▁Hrothgar	-12.3465
▁ISOYG	-12.3465
▁Journal	-12.3465
▁KONG	-12.3465
▁Kaminska	-12.3465
▁Kendrick	-12.3465
▁Kilmer	-12.3465
▁Krueger	-12.3465
▁Lansbury	-12.3465
▁Lombard	-12.3465
▁Lovelace	-12.3465
▁Lybbert	-12.3465
▁Madonna	-12.3465
▁Maguire	-12.3465
▁Mastroianni	-12.3465
▁McCallum	-12.3465
▁McMahon	-12.3465
▁Mifune	-12.3465
▁Milford	-12.3465
▁Minnelli	-12.3465
▁Miracle	-12.3465
▁Modesty	-12.3465
▁Nevada	-12.3465
▁Nickelodeon	-12.3465
▁October	-12.3465
▁Peace	-12.3465
▁Peckinpah	-12.3465
▁Performance	-12.3465
▁Pestilence	-12.3465
▁Pharaoh	-12.3465
▁Phoenicia	-12.3465
▁Poitier	-12.3465
▁Predictable	-12.3465
▁Prescott	-12.3465
▁Producer	-12.3465
▁Prophecy	-12.3465
▁Python	-12.3465
▁Quasimodo	-12.3465
▁REVOLVER	-12.3465
▁Razzie	-12.3465
▁Ricardo	-12.3465
▁Rossitto	-12.3465
▁Rothschild	-12.3465
▁SERIOUS	-12.3465
▁Samurai	-12.3465
▁Script	-12.3465
▁Sergeant	-12.3465
▁Similarly	-12.3465
▁Sinatra	-12.3465
▁Skywalker	-12.3465
▁Sokurov	-12.3465
▁Strangelove	-12.3465
▁Structural	-12.3465
▁Student	-12.3465
▁Surrender	-12.3465
▁Susannah	-12.3465
▁Swanson	-12.3465
▁SyFy	-12.3465
▁Syndrome	-12.3465
▁Talbot	-12.3465
▁Teenager	-12.3465
▁Templar	-12.3465
▁Temptation	-12.3465
▁Thinnes	-12.3465
▁Timecop	-12.3465
▁Tucci	-12.3465
▁Tuesday	-12.3465
▁Typical	-12.3465
▁Ustinov	-12.3465
▁WNSD	-12.3465
▁Wisconsin	-12.3465
▁YouTube	-12.3465
▁Yvonne	-12.3465
▁acrobatic	-12.3465
▁agape	-12.3465
▁ambitious	-12.3465
▁ammunition	-12.3465
▁amnesia	-12.3465
▁anthropologist	-12.3465
▁appetite	-12.3465
▁applause	-12.3465
▁apprehen	-12.3465
▁approval	-12.3465
▁arbitrar	-12.3465
▁artificial	-12.3465
▁attachment	-12.3465
▁autobiography	-12.3465
▁belabor	-12.3465
▁bilge	-12.3465
▁catastroph	-12.3465
▁ceremonies	-12.3465
▁ceremony	-12.3465
▁colleague	-12.3465
▁compassionate	-12.3465
▁compilation	-12.3465
▁congress	-12.3465
▁consuming	-12.3465
▁consumption	-12.3465
▁convolutions	-12.3465
▁cooperate	-12.3465
▁crossbow	-12.3465
▁cynicism	-12.3465
▁debacle	-12.3465
▁degrading	-12.3465
▁denigrat	-12.3465
▁depravity	-12.3465
▁despair	-12.3465
▁desperation	-12.3465
▁detached	-12.3465
▁devastat	-12.3465
▁diarrh	-12.3465
▁disconcerting	-12.3465
▁disinterested	-12.3465
▁dislodge	-12.3465
▁distribution	-12.3465
▁draft	-12.3465
▁drift	-12.3465
▁emperor	-12.3465
▁encapsulate	-12.3465
▁enemies	-12.3465
▁energetic	-12.3465
▁entries	-12.3465
▁escapade	-12.3465
▁expletive	-12.3465
▁exterior	-12.3465
▁fatigue	-12.3465
▁fierce	-12.3465
▁fodder	-12.3465
▁foreshadow	-12.3465
▁ghastly	-12.3465
▁gibberish	-12.3465
▁haphazard	-12.3465
▁hockey	-12.3465
▁hollywood	-12.3465
▁holocaust	-12.3465
▁hormone	-12.3465
▁hypocrisy	-12.3465
▁impatience	-12.3465
▁impeccabl	-12.3465
▁impersonation	-12.3465
▁incompetence	-12.3465
▁inconceivabl	-12.3465
▁infiltrat	-12.3465
▁infomercial	-12.3465
▁insecure	-12.3465
▁insecurities	-12.3465
▁installment	-12.3465
▁insufferable	-12.3465
▁interject	-12.3465
▁invisibility	-12.3465
▁jumbo	-12.3465
▁ketchup	-12.3465
▁knitt	-12.3465
▁languish	-12.3465
▁lecherous	-12.3465
▁loopholes	-12.3465
▁lullaby	-12.3465
▁malicious	-12.3465
▁mannequin	-12.3465
▁marbles	-12.3465
▁masquerad	-12.3465
▁mediocrity	-12.3465
▁merchandis	-12.3465
▁minstrel	-12.3465
▁misinterpret	-12.3465
▁molasses	-12.3465
▁monastery	-12.3465
▁mullet	-12.3465
▁narcissistic	-12.3465
▁necrophilia	-12.3465
▁neglig	-12.3465
▁nightclub	-12.3465
▁nipple	-12.3465
▁nobodies	-12.3465
▁nonchalant	-12.3465
▁nugget	-12.3465
▁occurrence	-12.3465
▁opponent	-12.3465
▁overbearing	-12.3465
▁paralyzed	-12.3465
▁patriarch	-12.3465
▁pedophilia	-12.3465
▁pencil	-12.3465
▁perpetrat	-12.3465
▁persecut	-12.3465
▁pervasive	-12.3465
▁platform	-12.3465
▁procedure	-12.3465
▁prominent	-12.3465
▁prosthetic	-12.3465
▁pyrotechnics	-12.3465
▁raccoon	-12.3465
▁railroad	-12.3465
▁rehearsal	-12.3465
▁reluctant	-12.3465
▁renegade	-12.3465
▁reptilian	-12.3465
▁retirement	-12.3465
▁revolting	-12.3465
▁sarcasm	-12.3465
▁semester	-12.3465
▁sensational	-12.3465
▁sergeant	-12.3465
▁shambles	-12.3465
▁shawl	-12.3465
▁shudder	-12.3465
▁simplistic	-12.3465
▁sledgehammer	-12.3465
▁sloppi	-12.3465
▁smitten	-12.3465
▁snobs	-12.3465
▁spectacle	-12.3465
▁squint	-12.3465
▁stereotyping	-12.3465
▁stupefying	-12.3465
▁supplie	-12.3465
▁televangelis	-12.3465
▁travelogue	-12.3465
▁uncommon	-12.3465
▁unharmed	-12.3465
▁unimaginabl	-12.3465
▁unimpressive	-12.3465
▁university	-12.3465
▁unredeem	-12.3465
▁upheaval	-12.3465
▁vegetarian	-12.3465
▁versatile	-12.3465
▁vigilan	-12.3465
▁virtue	-12.3465
▁vulnerable	-12.3465
▁witchcraft	-12.3465
▁zealot	-12.3465
Airplane	-12.3465
Predator	-12.3465
Slugs	-12.3465
Stoltz	-12.3465
ieutenant	-12.3465
lycanthrop	-12.3465
▁Carlito	-12.3465
▁Cassidy	-12.3465
▁Columbine	-12.3465
▁Compass	-12.3465
▁Dreyfus	-12.3465
▁Effect	-12.3465
▁Giovann	-12.3465
▁HOUR	-12.3465
▁Hilton	-12.3465
▁Hrishit	-12.3465
▁Jacob	-12.3465
▁Leguizamo	-12.3465
▁Pooja	-12.3465
▁berserk	-12.3465
▁campaign	-12.3465
▁ethnic	-12.3465
▁evaluat	-12.3465
▁ghoul	-12.3465
▁gigolo	-12.3465
▁hypocrit	-12.3465
▁muscle	-12.3465
▁prospect	-12.3465
▁pygmies	-12.3465
▁renovat	-12.3465
▁supervisor	-12.3465
▁undoubt	-12.3465
▁unfamiliar	-12.3465
▁unravel	-12.3465
Beyonce	-12.3465
MASS	-12.3465
Politics	-12.3465
Tempest	-12.3465
affirm	-12.3465
▁<=8.	-12.3465
▁ALERT	-12.3465
▁Candles	-12.3465
▁Doggett	-12.3465
▁Duvall	-12.3465
▁Flanders	-12.3465
▁Gammon	-12.3465
▁Gemma	-12.3465
▁Miami	-12.3465
▁Nevertheless	-12.3465
▁Patient	-12.3465
▁RKO	-12.3465
▁Randall	-12.3465
▁Rapture	-12.3465
▁Shield	-12.3465
▁Streep	-12.3465
▁UGLY	-12.3465
▁Webber	-12.3465
▁aesthetic	-12.3465
▁concrete	-12.3465
▁dementia	-12.3465
▁depriv	-12.3465
▁disclaimer	-12.3465
▁drummer	-12.3465
▁dumbfounded	-12.3465
▁enlisted	-12.3465
▁enviro	-12.3465
▁mythology	-12.3465
▁opposition	-12.3465
▁peasant	-12.3465
▁reverend	-12.3465
▁salacious	-12.3465
▁saloon	-12.3465
▁scheming	-12.3465
▁steward	-12.3465
▁sugar	-12.3465
▁wield	-12.3465
Scratch	-12.3465
jerking	-12.3465
▁Camera	-12.3465
▁Cultur	-12.3465
▁Mihic	-12.3465
▁Reunion	-12.3465
▁Spider	-12.3465
▁Titans	-12.3465
▁Vatican	-12.3465
▁Weapon	-12.3465
▁bloom	-12.3465
▁caretaker	-12.3465
▁circus	-12.3465
▁client	-12.3465
▁column	-12.3465
▁garble	-12.3465
▁invasion	-12.3465
▁overweight	-12.3465
▁panache	-12.3465
▁rigor	-12.3465
▁scarce	-12.3465
▁sleepwalking	-12.3465
▁stellar	-12.3465
keptico	-12.3465
▁Asuka	-12.3465
▁Brody	-12.3465
▁Gardner	-12.3465
▁MUN	-12.3465
▁OOP	-12.3465
▁Orange	-12.3465
▁dunno	-12.3465
▁extravagan	-12.3465
▁farcical	-12.3465
▁jaded	-12.3465
▁jazz	-12.3465
▁nick	-12.3465
▁palsy	-12.3465
▁pastiche	-12.3465
▁penetrat	-12.3465
▁recipe	-12.3465
▁ribs	-12.3465
▁savor	-12.3465
▁tailor	-12.3465
▁tunic	-12.3465
▁volume	-12.3465
Butterfly	-12.3465
IBLE	-12.3465
ZZZZZZZZ	-12.3465
addles	-12.3465
ouncil	-12.3465
reconcil	-12.3465
▁(1987)	-12.3465
▁Edition	-12.3465
▁LOL	-12.3465
▁Leith	-12.3465
▁Sudden	-12.3465
▁TWO	-12.3465
▁autops	-12.3465
▁clerk	-12.3465
▁disciplin	-12.3465
▁hesitate	-12.3465
▁implies	-12.3465
▁jumble	-12.3465
▁theoretical	-12.3465
▁tumor	-12.3465
▁1996	-12.3465
▁DEE	-12.3465
▁Heiress	-12.3465
▁Ouch	-12.3465
▁Troma	-12.3465
▁Wheeling	-12.3465
▁hyuck	-12.3465
▁ingenious	-12.3465
▁intermingle	-12.3465
▁resume	-12.3465
▁shelves	-12.3465
▁trumpet	-12.3465
SILO	-12.3465
goblins	-12.3465
▁Capra	-12.3465
▁Gathering	-12.3465
digger	-12.3465
▁Lerner	-12.3465
▁Maddin	-12.3465
▁NBA	-12.3465
▁SWE	-12.3465
▁accompany	-12.3465
▁altar	-12.3465
▁auteur	-12.3465
▁chirp	-12.3465
▁BOY	-12.3465
▁Cartland	-12.3465
▁Freak	-12.3465
▁Freud	-12.3465
▁Holland	-12.3465
▁inhabitants	-12.3465
▁royal	-12.3465
▁worries	-12.3465
-20	-12.3465
ceiver	-12.3465
▁Almod	-12.3465
▁Birds	-12.3465
▁SIX	-12.3465
▁conceal	-12.3465
▁diaper	-12.3465
▁Blah	-12.3465
▁administ	-12.3465
▁Network	-12.3465
▁alleyway	-12.3465
▁relish	-12.3465
▁unfriendly	-12.3465
▁fiber	-12.3465
▁rasp	-12.3465
eyewitness	-12.3465
irlift	-12.3465
▁Aiken	-12.3465
▁comprehension	-12.3465
▁recovers	-12.3465
esquire	-12.3465
▁Bauer	-12.3465
▁Frollo	-12.3465
▁Marvel	-12.3465
▁Surf	-12.3465
▁abnormal	-12.3465
▁gunshots	-12.3465
loaf	-12.3465
▁Sartre	-12.3465
▁Vernon	-12.3465
▁demoli	-12.3465
▁Certainly	-12.3465
▁Regina	-12.3465
▁drek	-12.3465
▁razor	-12.3465
▁retelling	-12.3465
▁;-)	-12.3465
▁chatter	-12.3465
▁delude	-12.3465
▁medicin	-12.3465
Greendale	-12.3465
▁Content	-12.3465
▁Cross	-12.3465
▁cheesi	-12.3465
▁regenerat	-12.3465
▁Bava	-12.3465
▁Bradbury	-12.3465
rchitect	-12.3465
▁Face	-12.3465
▁basketball	-12.3465
ndependence	-12.3465
▁biggie	-12.3465
▁deaf	-12.3465
▁disabled	-12.3465
▁QUA	-12.3465
▁personnel	-12.3465
▁Hyde	-12.3465
1975	-12.3465
ICE	-12.3465
1934	-12.3465
▁Disco	-12.3465
▁Sheila	-12.3465
▁Borges	-12.3465
▁Steel	-12.3465
▁befuddl	-12.3465
▁chubby	-12.3465
denominat	-12.3465
▁Kirst	-12.3465
▁magnet	-12.3465
crammed	-12.3465
pulsion	-12.3465
▁Stinks	-12.3465
▁pacifi	-12.3465
▁1692	-12.3465
▁Sandra	-12.3465
▁abode	-12.3465
▁chore	-12.3465
▁shelter	-12.3465
Bait	-12.3465
▁(1968	-12.3465
▁Sirtis	-12.3465
▁Hotel	-12.3465
▁Goldsmith	-12.3465
▁stirr	-12.3465
▁Balan	-12.3465
▁Madsen	-12.3465
▁Fiona	-12.3465
▁Rhys	-12.3465
▁Lately	-12.3465
▁breakthrough	-12.3465
imdb	-12.3465
▁Berry	-12.3465
solving	-12.3465
▁Siam	-12.3465
▁oppress	-12.3465
▁righteous	-12.3465
kitten	-12.3465
▁Team	-12.3465
▁dried	-12.3465
▁Media	-12.3465
▁droning	-12.3465
▁impaled	-12.3465
trophy	-12.3465
▁Forrest	-12.3465
▁beefy	-12.3465
▁boobs	-12.3465
▁guidelines	-12.3465
▁informative	-12.3465
TEEN	-12.3465
▁advers	-12.3465
▁censorship	-12.3465
▁climb	-12.3465
▁loft	-12.3465
▁comparative	-12.3465
▁foremost	-12.3465
ermaid	-12.3465
▁verbal	-12.3465
▁Cecil	-12.3465
▁audaci	-12.3465
athon	-12.3465
▁frantic	-12.3465
▁emit	-12.3465
▁lumbering	-12.3465
▁Bridges	-12.3465
▁MacMurray	-12.3465
▁secular	-12.3466
Dragonfly	-12.3466
Adolf	-12.3466
papier	-12.3466
▁headlights	-12.3466
emoting	-12.3466
▁singular	-12.3466
▁2008	-12.3466
▁sociological	-12.3466
▁Trini	-12.3466
▁gown	-12.3466
▁Novel	-12.3466
▁quasi	-12.3466
▁ilk	-12.3466
▁DIWAN	-12.3466
Keef	-12.3466
▁Insane	-12.3466
▁isolation	-12.3466
▁endear	-12.3466
▁sideways	-12.3466
▁Danning	-12.3466
Curdled	-12.3466
▁Foe	-12.3466
▁Dusk	-12.3466
▁desolat	-12.3466
▁tenants	-12.3466
▁hurl	-12.3466
▁teleporte	-12.3466
▁wiseguy	-12.3466
Knots	-12.3466
athlete	-12.3466
▁sweep	-12.3466
▁griev	-12.3466
▁Wesley	-12.3466
▁recreate	-12.3466
▁swung	-12.3466
▁Bjor	-12.3466
▁devise	-12.3466
▁Lange	-12.3466
▁indoor	-12.3466
▁provoke	-12.3467
▁victori	-12.3467
▁glitz	-12.3467
▁Ladd	-12.3467
▁secretions	-12.3467
▁meanders	-12.3467
▁lunch	-12.3467
horren	-12.3467
Turbo	-12.3467
▁debt	-12.3467
▁hypnotize	-12.3467
▁BII	-12.3467
esbian	-12.3467
nterlude	-12.3467
seamless	-12.3467
wagon	-12.3467
▁tourist	-12.3467
▁"10"	-12.3467
▁dispute	-12.3467
▁Doris	-12.3468
Slither	-12.3468
▁sublim	-12.3468
▁Arago	-12.3468
▁Inform	-12.3468
▁dining	-12.3468
▁TEL	-12.3468
rrelation	-12.3468
▁Marcus	-12.3468
Easily	-12.3468
mutilat	-12.3468
▁integrate	-12.3469
▁Massac	-12.3469
▁Acre	-12.3469
▁detest	-12.3469
▁Tamb	-12.3469
rivate	-12.347
Newhart	-12.347
▁Babe	-12.347
▁shave	-12.347
luding	-12.3471
▁Gunn	-12.3471
Buffa	-12.3472
▁skeptic	-12.3472
▁Buffo	-12.3472
zombiefied	-12.3472
▁neuro	-12.3472
Chabrol	-12.3473
emains	-12.3473
▁invade	-12.3473
TCH	-12.3474
▁psyche	-12.3475
Connor	-12.3475
parlor	-12.3475
ATE	-12.3475
nymphomaniac	-12.3477
▁chord	-12.3477
▁Tarr	-12.3477
▁mamma	-12.3478
audible	-12.3479
Antitrust	-12.348
ACT	-12.348
FAR	-12.348
▁husk	-12.3481
▁Yad	-12.3481
▁overstat	-12.3482
▁appli	-12.3484
▁Geni	-12.3484
ASH	-12.3486
baked	-12.3487
▁FEE	-12.3487
utionary	-12.349
enace	-12.3499
▁gouge	-12.35
▁socio	-12.35
▁Stric	-12.3502
ernel	-12.3503
▁Snid	-12.3504
QUE	-12.3505
trepid	-12.3508
OBO	-12.3509
WAT	-12.351
shape	-12.3514
▁sedate	-12.3515
dental	-12.3516
anza	-12.3516
Geor	-12.352
▁Smil	-12.3526
▁unemoti	-12.3532
creenwriter	-12.3533
▁emb	-12.354
predictable	-12.3554
istening	-12.3562
8/10	-12.3566
humbs	-12.3567
HIS	-12.3582
Files	-12.3586
▁Zipp	-12.3601
▁emergenc	-12.3605
wench	-12.3615
skates	-12.3626
THANK	-12.3626
egna	-12.3627
▁Amri	-12.3634
▁capabilit	-12.3641
▁unsuccessful	-12.3654
▁distributor	-12.3661
coats	-12.3676
hallenge	-12.3685
communist	-12.3692
urni	-12.37
ammers	-12.3707
Brook	-12.3707
eavy	-12.3728
ethical	-12.373
Polar	-12.3772
fresh	-12.3786
▁organise	-12.3805
truthful	-12.3812
eminar	-12.3814
▁rewind	-12.3842
Anyhow	-12.387
piritual	-12.39
trapping	-12.3914
▁destruct	-12.3948
Mayer	-12.3963
▁friggin	-12.4007
runette	-12.4021
current	-12.4226
▁spik	-12.4463
▁chronic	-12.4577
▁Lanc	-12.4818
▁exchang	-12.4827
smith	-12.4905
▁sensitiv	-12.4985
▁comb	-12.5018
arrier	-12.5037
favorably	-12.5056
28	-12.5115
expressive	-12.5117
▁remarkabl	-12.5175
▁easi	-12.5355
▁predictabl	-12.5411
ollett	-12.5545
awkins	-12.5576
darn	-12.577
sabel	-12.5795
▁satisfie	-12.5999
ccidental	-12.6102
tempora	-12.6128
Faris	-12.6158
1941	-12.6182
▁visibl	-12.6261
Strangely	-12.6501
hronicle	-12.6874
IONAL	-12.7072
▁induce	-12.7075
▁DIS	-12.7132
▁recurr	-12.7256
Alexandr	-12.755
quarters	-12.7658
▁THOU	-12.7726
demean	-12.7831
Angels	-12.7926
▁Psych	-12.8023
▁utili	-12.8074
▁quo	-12.8105
▁gyps	-12.8149
Vampires	-12.8154
▁hallway	-12.8187
▁circumstance	-12.8197
▁unpredictab	-12.8225
ssociat	-12.8238
mobiles	-12.8251
fraid	-12.8255
nnoying	-12.8261
▁motiv	-12.8292
ñ	-13.8465
ó	-13.8465
	-14.1544
	-14.1545
£	-14.1546
{	-14.1547
[	-14.1548
́	-14.1549
>	-14.155
