▁xxunk	0
▁xxpad	0
▁xxbos	0
▁xxeos	0
▁xxfld	0
▁xxrep	0
▁xxwrep	0
▁xxup	0
▁xxmaj	0
<unk>	0
▁the	-3.31418
.	-3.35964
,	-3.39264
s	-3.57921
▁a	-3.85831
▁and	-3.8802
▁of	-3.97896
▁to	-4.14043
'	-4.24438
▁is	-4.2884
br	-4.42078
<	-4.43519
▁/>	-4.44144
▁in	-4.45464
▁I	-4.57813
▁it	-4.62953
▁that	-4.75651
▁this	-4.93674
t	-5.04389
▁	-5.13973
ing	-5.15374
▁was	-5.17637
▁film	-5.21235
▁with	-5.21784
▁for	-5.22637
-	-5.22812
▁as	-5.25206
▁movie	-5.27281
ed	-5.42003
▁The	-5.46595
▁but	-5.4869
▁on	-5.4895
▁you	-5.52685
ly	-5.53186
▁(	-5.57309
▁are	-5.60194
▁his	-5.63853
▁"	-5.68573
▁not	-5.73303
▁be	-5.73391
y	-5.74213
▁have	-5.74802
▁one	-5.75698
d	-5.79773
▁he	-5.82532
▁who	-5.89008
▁an	-5.8909
"	-5.90382
▁by	-5.91076
▁all	-5.91535
▁from	-6.01127
)	-6.01462
▁at	-6.0397
▁It	-6.06895
e	-6.09778
▁her	-6.09788
▁has	-6.14038
▁about	-6.17657
▁out	-6.18744
▁so	-6.19186
▁like	-6.19426
▁very	-6.19935
▁they	-6.23399
▁or	-6.31477
▁good	-6.3162
▁more	-6.3299
▁can	-6.35043
▁This	-6.39896
!	-6.41387
▁time	-6.42537
▁some	-6.43317
▁story	-6.43525
▁when	-6.43864
▁just	-6.45063
▁great	-6.45712
▁what	-6.46639
▁see	-6.48729
The	-6.51963
m	-6.53433
▁their	-6.53754
▁well	-6.54304
▁me	-6.55787
er	-6.56158
n	-6.5718
▁my	-6.58426
▁which	-6.59114
▁she	-6.5979
▁up	-6.60393
▁really	-6.60677
▁will	-6.63326
▁would	-6.63753
▁there	-6.65177
▁were	-6.65953
▁A	-6.66426
▁only	-6.68193
▁most	-6.69145
I	-6.69386
f	-6.69537
▁other	-6.69784
▁had	-6.69843
▁first	-6.7184
▁if	-6.7255
▁people	-6.75682
▁also	-6.76137
ve	-6.78816
▁him	-6.79046
:	-6.8007
▁-	-6.80417
▁life	-6.80477
▁much	-6.80615
▁into	-6.81466
▁than	-6.83293
▁show	-6.8365
▁we	-6.85217
re	-6.8623
▁get	-6.86575
▁been	-6.87754
▁no	-6.87964
...	-6.88021
▁way	-6.88387
▁best	-6.88867
al	-6.90596
▁even	-6.91288
▁think	-6.93022
▁made	-6.95633
▁do	-6.9607
a	-6.9631
▁seen	-6.97114
r	-6.97281
▁love	-6.9886
▁how	-6.9917
?	-6.99208
▁many	-6.99388
▁because	-7.01861
▁them	-7.03546
▁make	-7.0476
▁character	-7.04911
es	-7.0643
in	-7.08533
▁But	-7.09901
▁watch	-7.11093
▁two	-7.12573
▁over	-7.1386
▁never	-7.14325
▁too	-7.1515
▁characters	-7.16277
▁don	-7.16332
▁i	-7.16407
▁know	-7.17185
▁its	-7.18332
▁little	-7.18398
).	-7.18503
;	-7.18854
▁any	-7.20258
▁could	-7.20806
▁movies	-7.2106
▁ever	-7.22649
▁He	-7.23086
▁where	-7.23386
i	-7.24585
▁'	-7.25672
▁still	-7.26313
▁S	-7.26345
▁man	-7.2737
▁after	-7.27586
▁years	-7.30225
▁films	-7.32541
▁end	-7.32723
▁does	-7.32743
▁say	-7.33168
p	-7.33784
ll	-7.33945
▁then	-7.34474
▁being	-7.34829
c	-7.34952
▁scene	-7.3513
▁real	-7.3704
▁did	-7.37273
o	-7.37359
▁should	-7.37376
▁lot	-7.37439
▁And	-7.37539
▁those	-7.37669
▁back	-7.38278
▁such	-7.38796
▁your	-7.39129
▁find	-7.39441
),	-7.40217
▁There	-7.40763
▁better	-7.41094
▁go	-7.41268
▁work	-7.41695
A	-7.42382
on	-7.42803
▁In	-7.42838
▁acting	-7.45636
▁series	-7.46146
▁plot	-7.47066
▁cast	-7.47354
or	-7.48508
S	-7.48602
▁part	-7.49107
▁scenes	-7.49267
▁here	-7.49419
▁young	-7.50091
▁role	-7.50583
▁always	-7.51441
/	-7.53441
▁funny	-7.5572
▁same	-7.5638
▁these	-7.56657
▁old	-7.56662
▁again	-7.57008
▁watching	-7.57292
▁!	-7.5782
▁look	-7.57824
▁through	-7.58064
▁un	-7.58139
se	-7.582
th	-7.58407
▁world	-7.58438
▁makes	-7.58677
▁us	-7.59159
▁both	-7.59442
▁want	-7.59586
and	-7.59607
▁own	-7.59946
▁something	-7.6016
▁few	-7.6051
it	-7.61185
le	-7.6147
▁bit	-7.61566
▁family	-7.61928
▁quite	-7.61932
▁T	-7.62429
g	-7.64367
▁B	-7.65493
▁between	-7.66297
▁bad	-7.66331
▁actually	-7.6637
▁though	-7.66804
▁may	-7.67068
▁before	-7.67432
▁while	-7.67841
▁every	-7.67898
▁now	-7.67925
▁C	-7.68011
▁doesn	-7.68378
▁thought	-7.6844
▁off	-7.68504
l	-7.69701
▁fact	-7.69996
▁times	-7.70296
▁new	-7.71229
▁saw	-7.7127
▁feel	-7.71471
▁actors	-7.71666
▁come	-7.72054
the	-7.72425
▁performance	-7.72443
▁director	-7.73319
▁fun	-7.73926
▁excellent	-7.74037
▁must	-7.74295
h	-7.7598
▁things	-7.76268
u	-7.77802
▁She	-7.77869
▁P	-7.77874
▁interesting	-7.78318
▁didn	-7.7837
▁down	-7.79216
▁going	-7.79439
▁each	-7.79838
▁thing	-7.80064
man	-7.80514
▁comedy	-7.81591
▁last	-7.81999
b	-7.82493
▁another	-7.83223
▁done	-7.83384
an	-7.8388
▁take	-7.84455
▁got	-7.84906
▁hard	-7.85144
▁right	-7.85156
▁music	-7.85813
▁action	-7.86457
ie	-7.86777
▁give	-7.8721
▁pretty	-7.87362
▁since	-7.87364
ion	-7.87918
▁without	-7.88016
▁original	-7.8826
▁long	-7.88682
▁F	-7.88794
as	-7.88834
▁different	-7.89235
▁around	-7.89687
▁beautiful	-7.90247
▁DVD	-7.90645
ar	-7.90844
▁day	-7.90877
k	-7.91288
▁our	-7.91715
ri	-7.92871
▁kind	-7.93045
▁far	-7.93618
ur	-7.93838
st	-7.94533
▁You	-7.94566
▁found	-7.95006
w	-7.95145
▁enjoy	-7.95499
▁&	-7.96042
▁put	-7.96064
▁true	-7.96522
▁girl	-7.96785
▁almost	-7.97007
▁might	-7.9701
▁probabl	-7.9713
▁As	-7.98092
▁wonderful	-7.98141
▁seems	-7.98447
▁TV	-7.98589
▁away	-7.98644
▁perfect	-7.98647
ies	-7.98794
▁enough	-7.99054
▁why	-7.99067
ic	-7.99131
▁course	-7.99572
▁place	-7.99603
▁big	-8.00069
▁job	-8.00097
▁woman	-8.00114
This	-8.0056
▁shows	-8.00577
ness	-8.01153
▁keep	-8.01784
▁human	-8.02379
D	-8.02615
ity	-8.02776
▁horror	-8.03287
▁worth	-8.0352
▁loved	-8.03598
▁re	-8.03808
T	-8.04164
▁whole	-8.04768
▁book	-8.04878
▁yet	-8.04907
▁set	-8.05087
▁audience	-8.06032
en	-8.06259
▁b	-8.06475
▁wife	-8.06592
el	-8.06932
▁episode	-8.07157
It	-8.07497
▁isn	-8.0755
▁especially	-8.07743
▁gets	-8.07946
▁They	-8.08066
▁For	-8.08627
▁tell	-8.08807
▁everyone	-8.08838
ch	-8.10142
▁performances	-8.10539
▁short	-8.10542
▁American	-8.1086
▁sense	-8.11169
▁screen	-8.11197
C	-8.11633
▁D	-8.11684
▁sure	-8.11721
▁That	-8.12372
is	-8.12647
▁won	-8.12906
▁script	-8.13502
able	-8.13563
il	-8.13664
▁plays	-8.13672
▁We	-8.1399
▁point	-8.14315
est	-8.14387
▁anyone	-8.14971
▁truly	-8.1529
▁together	-8.15299
▁second	-8.15303
(	-8.15928
M	-8.16122
▁played	-8.1765
▁ending	-8.17908
▁home	-8.18352
▁father	-8.18386
▁classic	-8.18915
▁E	-8.19371
▁year	-8.19469
▁rather	-8.19642
▁mind	-8.19674
ers	-8.19913
▁comes	-8.20292
▁am	-8.20374
▁play	-8.20853
▁de	-8.20896
▁war	-8.21276
P	-8.21389
ce	-8.2153
▁making	-8.21638
▁When	-8.21677
less	-8.22337
▁recommend	-8.23016
▁goes	-8.23068
▁death	-8.2416
▁watched	-8.24233
▁himself	-8.24865
▁dur	-8.25014
▁let	-8.25129
▁So	-8.25196
▁least	-8.25523
▁help	-8.25657
▁takes	-8.25663
▁guy	-8.26186
▁under	-8.26226
▁main	-8.26492
▁left	-8.26879
▁three	-8.26897
▁understand	-8.2695
▁actor	-8.27562
▁having	-8.27563
▁live	-8.27609
▁10	-8.27658
▁s	-8.28174
B	-8.28417
▁once	-8.28707
▁O	-8.28812
▁heart	-8.28926
▁high	-8.29112
▁What	-8.29133
▁small	-8.29647
▁drama	-8.29649
▁nothing	-8.29651
▁version	-8.29653
▁everything	-8.29654
F	-8.29805
▁nice	-8.29953
E	-8.3085
up	-8.31007
▁later	-8.3113
▁need	-8.31422
▁liked	-8.31446
▁M	-8.31973
".	-8.32225
▁seeing	-8.32528
▁However	-8.3332
▁friends	-8.33436
▁W	-8.33449
--	-8.33763
▁seem	-8.33973
▁fan	-8.34133
▁read	-8.34307
▁trying	-8.34384
▁looking	-8.34517
▁special	-8.34526
▁wasn	-8.34529
▁John	-8.3474
▁house	-8.34783
▁R	-8.34803
▁fine	-8.35406
▁amazing	-8.3576
▁enjoyed	-8.3609
▁night	-8.36223
",	-8.36595
ment	-8.36896
▁definite	-8.36924
▁believe	-8.36926
▁All	-8.36958
▁favorite	-8.37135
▁start	-8.37603
▁couple	-8.3768
▁anything	-8.37681
▁N	-8.37776
ro	-8.37987
▁remember	-8.38017
ra	-8.38223
ck	-8.38679
▁Not	-8.38903
▁My	-8.39001
▁gives	-8.39243
ist	-8.39339
▁ga	-8.3998
▁came	-8.40725
▁production	-8.40778
▁often	-8.41363
▁shot	-8.41971
▁become	-8.42019
▁boy	-8.42035
▁G	-8.43
▁cinema	-8.4315
▁said	-8.43156
▁support	-8.4394
▁Hollywood	-8.43989
▁2	-8.4408
L	-8.442
▁One	-8.44277
▁brilliant	-8.44383
▁school	-8.44787
us	-8.45003
▁idea	-8.45173
▁close	-8.45178
▁along	-8.45228
▁men	-8.45458
▁camera	-8.45613
▁entertaining	-8.45684
▁strong	-8.45866
▁moments	-8.45978
▁picture	-8.46189
▁children	-8.46431
▁To	-8.46568
▁today	-8.47081
▁top	-8.48156
▁style	-8.48167
R	-8.4862
ne	-8.48694
▁case	-8.4896
ting	-8.48974
ish	-8.49058
▁v	-8.49318
ia	-8.49476
▁humor	-8.49776
▁based	-8.49884
▁turn	-8.50006
▁past	-8.50207
▁De	-8.50278
▁use	-8.50578
▁minutes	-8.50692
ous	-8.51561
▁although	-8.51578
▁rest	-8.51628
▁someone	-8.51635
▁ago	-8.51729
te	-8.52072
to	-8.52222
▁hope	-8.52259
▁history	-8.52402
▁early	-8.52456
▁line	-8.52973
▁looks	-8.5337
▁used	-8.53854
▁full	-8.53871
▁game	-8.54135
▁black	-8.54181
▁mother	-8.54184
▁fall	-8.54191
▁Man	-8.54498
▁co	-8.54866
▁until	-8.55086
▁K	-8.55171
ry	-8.55481
un	-8.55564
▁half	-8.55989
at	-8.56252
▁others	-8.56356
▁H	-8.56814
▁kids	-8.56839
▁absolute	-8.56906
▁lives	-8.56943
N	-8.57025
▁d	-8.57539
▁No	-8.57653
▁next	-8.57846
v	-8.5825
▁effects	-8.59023
▁--	-8.59163
▁person	-8.59276
▁expect	-8.59597
▁else	-8.59708
▁animation	-8.5971
▁David	-8.59769
▁viewer	-8.59887
▁dialogue	-8.60665
In	-8.60699
O	-8.60937
▁hand	-8.61234
▁less	-8.6134
▁women	-8.61625
▁simply	-8.61682
▁New	-8.61814
▁simple	-8.61915
▁highly	-8.62176
▁stars	-8.62394
▁throughout	-8.62633
ol	-8.62634
et	-8.62713
▁art	-8.62741
▁completely	-8.62827
▁try	-8.63092
▁beginning	-8.63578
▁With	-8.63678
▁reality	-8.63692
ian	-8.63705
▁reason	-8.63745
▁star	-8.6453
▁score	-8.64569
▁went	-8.64616
▁Oscar	-8.64714
▁season	-8.64767
▁fans	-8.6535
▁late	-8.65565
▁future	-8.6558
▁title	-8.65592
▁however	-8.65625
▁His	-8.65641
▁certainly	-8.65816
▁sound	-8.65855
▁At	-8.66042
▁works	-8.66077
▁child	-8.66568
▁U	-8.66583
▁quality	-8.66597
▁James	-8.66626
!!	-8.6675
li	-8.66876
▁son	-8.67046
z	-8.67436
▁head	-8.67888
▁lead	-8.67932
la	-8.68045
▁musical	-8.6825
▁f	-8.68395
K	-8.68438
▁c	-8.68448
▁episodes	-8.68578
▁stories	-8.68626
▁documentary	-8.68628
tic	-8.68921
ton	-8.69379
W	-8.69415
▁sort	-8.69677
▁realistic	-8.69695
▁L	-8.69977
▁given	-8.69984
▁Of	-8.7
▁laugh	-8.70029
▁sex	-8.7041
um	-8.70447
ent	-8.70674
▁directed	-8.70884
▁against	-8.70889
▁age	-8.70915
▁3	-8.71292
▁side	-8.71448
▁sever	-8.7162
▁opinion	-8.71785
▁wrong	-8.71785
▁genre	-8.71785
lo	-8.7192
ation	-8.72008
▁superb	-8.72469
▁bring	-8.72483
▁playing	-8.72756
▁care	-8.72857
▁television	-8.7286
▁direction	-8.72871
▁white	-8.72882
▁THE	-8.72913
▁type	-8.72946
▁final	-8.73316
▁Al	-8.7362
G	-8.73681
▁money	-8.73948
▁video	-8.73963
▁Robert	-8.7399
ty	-8.74092
▁face	-8.74188
ally	-8.74381
▁novel	-8.74408
ive	-8.74604
ine	-8.74684
▁subject	-8.75047
▁fantastic	-8.75047
ate	-8.75063
▁matter	-8.75534
▁relationship	-8.75578
▁entire	-8.75755
▁Mr	-8.75763
am	-8.75823
▁On	-8.75988
▁actress	-8.76071
like	-8.76116
▁writing	-8.76157
▁	-8.76161
▁name	-8.76411
▁becomes	-8.76754
▁moment	-8.76763
▁extreme	-8.77281
▁hilarious	-8.77281
▁After	-8.77384
▁Whil	-8.77402
▁mean	-8.77546
▁parts	-8.78191
▁shown	-8.78241
▁low	-8.78385
▁Some	-8.78401
▁getting	-8.78581
▁finally	-8.78837
▁dark	-8.79435
▁light	-8.79507
▁view	-8.79549
▁daughter	-8.79566
▁team	-8.79583
▁feeling	-8.79592
▁viewing	-8.80149
▁hit	-8.80433
▁either	-8.8073
▁car	-8.80824
▁lines	-8.8089
ul	-8.81251
im	-8.8147
▁piece	-8.81504
▁cinematography	-8.81906
▁sometimes	-8.81909
▁soon	-8.82738
▁chance	-8.83097
▁romantic	-8.83115
▁attention	-8.83131
▁Bo	-8.83162
▁number	-8.83907
▁roles	-8.83938
co	-8.84035
▁Her	-8.84057
▁days	-8.84103
▁able	-8.84156
▁example	-8.84301
▁living	-8.84302
▁message	-8.84304
▁written	-8.84348
▁released	-8.84587
ther	-8.84638
ling	-8.84812
▁friend	-8.84813
▁change	-8.84834
▁run	-8.85426
▁violence	-8.85531
▁lost	-8.85537
▁rare	-8.8557
▁Michael	-8.85575
▁Also	-8.85626
▁town	-8.85632
x	-8.85698
▁follow	-8.85859
▁t	-8.86537
▁behind	-8.86766
▁Disney	-8.86781
▁felt	-8.8681
▁hold	-8.86829
▁self	-8.86871
▁budget	-8.86905
▁greatest	-8.87084
▁similar	-8.88005
▁themselves	-8.88005
▁group	-8.88008
▁An	-8.88077
▁enjoyable	-8.88079
▁p	-8.88103
▁etc	-8.88116
ant	-8.88177
ma	-8.88341
▁personal	-8.88462
ance	-8.88544
na	-8.88823
▁finds	-8.88912
▁songs	-8.8915
▁husband	-8.89271
▁moving	-8.89312
▁experience	-8.90018
be	-8.90024
▁usual	-8.9017
▁wish	-8.90475
▁already	-8.90553
▁major	-8.90564
▁told	-8.90579
▁happen	-8.90595
▁evil	-8.90609
▁involved	-8.90641
one	-8.90645
▁fight	-8.91071
But	-8.9128
▁dream	-8.91775
▁country	-8.91848
▁memorable	-8.91852
▁order	-8.9201
▁Well	-8.9203
ard	-8.92324
V	-8.92384
▁deal	-8.92595
▁dead	-8.92834
▁events	-8.92931
▁stuff	-8.9317
ag	-8.932
▁somewhat	-8.93267
▁guys	-8.93303
▁theme	-8.93424
▁heard	-8.93744
▁sad	-8.94312
."	-8.9437
▁British	-8.94506
5	-8.94954
▁took	-8.95407
▁Go	-8.95436
▁8	-8.95704
age	-8.95796
▁move	-8.95813
▁tale	-8.95866
▁Richard	-8.95882
▁including	-8.95985
▁stay	-8.9603
▁stage	-8.96077
▁Re	-8.96372
ful	-8.96567
▁comic	-8.96836
son	-8.96932
▁class	-8.96949
▁dance	-8.97039
▁wants	-8.97159
▁voice	-8.97234
time	-8.97374
▁across	-8.97414
out	-8.97532
de	-8.97854
▁present	-8.98163
▁perfectly	-8.98296
▁slow	-8.9837
▁strange	-8.984
▁Peter	-8.98617
▁4	-8.98624
▁era	-8.98641
▁maybe	-8.98699
▁cannot	-8.98723
▁doing	-8.98825
▁interest	-8.99002
▁eyes	-8.9924
▁sit	-8.99564
rought	-9.00002
▁coming	-9.00023
▁perhaps	-9.00074
▁itself	-9.00266
▁turns	-9.0035
tally	-9.00358
▁happened	-9.0051
▁serious	-9.01046
▁7	-9.01115
▁French	-9.01454
▁appear	-9.01538
▁kid	-9.01542
▁Although	-9.01583
by	-9.01618
▁nature	-9.01718
▁career	-9.01845
ary	-9.02236
▁guess	-9.02289
▁unique	-9.02897
▁believable	-9.029
▁overall	-9.02937
▁level	-9.02996
")	-9.03133
▁V	-9.03159
▁song	-9.03298
espite	-9.03331
▁murder	-9.03576
There	-9.03587
he	-9.03867
tries	-9.03922
▁important	-9.04002
ter	-9.04007
▁America	-9.04065
▁working	-9.04366
▁happens	-9.04371
▁powerful	-9.04379
▁myself	-9.04404
but	-9.04447
▁stop	-9.04485
1	-9.04485
▁usually	-9.04829
▁hear	-9.04861
ac	-9.0519
▁War	-9.05233
▁started	-9.0526
▁wonder	-9.05277
▁release	-9.05555
▁open	-9.05739
▁business	-9.05862
▁yourself	-9.05877
▁society	-9.05879
▁pick	-9.05913
▁exactly	-9.0593
who	-9.06017
▁flick	-9.06055
ism	-9.06553
▁seemed	-9.06788
▁starts	-9.06891
no	-9.06923
▁figure	-9.07085
▁atmosphere	-9.07375
▁entertainment	-9.07382
▁among	-9.074
▁surprised	-9.07594
▁killer	-9.07613
▁brother	-9.07642
▁80	-9.08151
▁due	-9.08307
▁known	-9.08411
▁near	-9.08516
me	-9.08544
▁stand	-9.08624
▁Jack	-9.08873
▁difficult	-9.08877
▁English	-9.08955
ni	-9.0913
▁ex	-9.09199
▁particularly	-9.09276
▁Dr	-9.09289
▁leave	-9.09341
▁called	-9.09379
▁taken	-9.09396
▁Do	-9.09438
ever	-9.09908
side	-9.10204
▁20	-9.10403
▁incredible	-9.10476
▁soundtrack	-9.10476
▁period	-9.10528
▁thriller	-9.10643
do	-9.10902
▁pre	-9.10918
▁5	-9.10957
▁says	-9.11013
▁opening	-9.11088
▁comments	-9.11094
▁kill	-9.1111
▁Bes	-9.11209
▁means	-9.11214
der	-9.11406
ial	-9.11477
▁haven	-9.11618
▁certain	-9.11688
▁emotional	-9.11746
pe	-9.11762
ta	-9.11838
▁viewers	-9.11999
▁above	-9.12066
▁typical	-9.12116
▁Like	-9.12136
▁doubt	-9.12144
▁touch	-9.12179
▁problem	-9.12536
io	-9.13111
▁front	-9.13264
▁rock	-9.13669
▁easy	-9.13677
▁possible	-9.13677
▁middle	-9.13677
▁modern	-9.13678
▁happy	-9.13678
▁romance	-9.13678
▁taking	-9.13684
▁rating	-9.13765
▁form	-9.13962
▁sister	-9.14109
▁sequence	-9.14151
▁huge	-9.15318
▁cool	-9.15349
▁buy	-9.15488
ir	-9.16017
ha	-9.16021
▁consider	-9.16092
▁return	-9.16512
fi	-9.16587
dy	-9.16598
▁complete	-9.16609
cy	-9.16626
ns	-9.16864
▁material	-9.16982
▁became	-9.16983
▁beauty	-9.16998
▁sweet	-9.17027
▁win	-9.17031
▁herself	-9.1705
▁blood	-9.17071
▁Even	-9.17148
▁ask	-9.17282
▁power	-9.17604
mi	-9.1781
8	-9.17811
▁turned	-9.17923
▁Ben	-9.18135
▁realize	-9.18516
▁act	-9.18671
▁fantasy	-9.18703
▁portrayal	-9.18746
▁instead	-9.18749
▁pay	-9.1875
ably	-9.18795
ick	-9.18921
▁parents	-9.19244
▁girls	-9.19536
com	-9.19749
if	-9.19763
▁non	-9.1989
▁Red	-9.1998
Y	-9.20253
▁dis	-9.20306
▁York	-9.20401
▁alone	-9.20405
▁chemistry	-9.20417
▁battle	-9.20418
▁1	-9.20526
ile	-9.20621
▁call	-9.20656
ke	-9.20663
giving	-9.20664
▁How	-9.20686
▁feature	-9.20728
ad	-9.20737
▁w	-9.208
U	-9.20981
▁question	-9.21108
▁ten	-9.21173
You	-9.22108
▁easily	-9.22156
▁stunning	-9.22156
▁female	-9.22156
▁boring	-9.22159
▁success	-9.22159
▁Great	-9.22203
ted	-9.22266
▁body	-9.22479
▁meet	-9.22558
▁thinking	-9.22613
ach	-9.22621
▁theater	-9.22883
▁situation	-9.22923
▁cut	-9.22975
▁showing	-9.23163
gi	-9.23213
J	-9.23263
▁add	-9.23296
9	-9.23315
▁wait	-9.23353
tor	-9.23498
▁truth	-9.23927
▁ways	-9.23956
▁George	-9.24033
▁Now	-9.24205
▁portrayed	-9.24263
mo	-9.24335
▁God	-9.24422
▁create	-9.2444
▁interested	-9.24519
▁Then	-9.24683
go	-9.24954
▁toward	-9.24972
▁King	-9.25056
▁jokes	-9.25061
po	-9.25275
land	-9.25276
▁air	-9.25484
!!!	-9.2556
▁four	-9.25727
▁sexual	-9.25734
▁Paul	-9.25749
▁local	-9.2576
▁masterpiece	-9.25761
▁awesome	-9.25761
ight	-9.25811
▁rich	-9.25879
▁break	-9.25897
▁forget	-9.25953
▁clearly	-9.26132
▁h	-9.26192
▁charming	-9.26251
ap	-9.26415
2	-9.26502
▁Ver	-9.26674
▁hour	-9.26756
▁brings	-9.26858
ure	-9.27103
▁mention	-9.27181
way	-9.27226
▁poor	-9.27231
▁agree	-9.27288
▁sub	-9.27336
	-9.27612
▁Kelly	-9.27612
▁choice	-9.27613
ver	-9.27618
▁share	-9.2762
▁disappointed	-9.27684
▁escape	-9.27998
▁attempt	-9.28096
▁con	-9.28257
▁upon	-9.28482
▁adult	-9.28615
▁writer	-9.28795
▁magic	-9.28831
j	-9.28982
ng	-9.29021
▁inside	-9.29022
▁large	-9.29401
▁talk	-9.29403
▁knew	-9.295
▁respect	-9.29503
▁mix	-9.29504
▁Stewart	-9.29538
▁Paris	-9.29564
▁nearly	-9.29994
▁follows	-9.30005
▁visual	-9.30068
▁Be	-9.30139
▁m	-9.30371
▁adventure	-9.30542
▁eye	-9.30547
▁meets	-9.30601
▁g	-9.30639
4	-9.30777
▁deep	-9.30879
▁particular	-9.31022
ow	-9.31072
om	-9.31074
▁Fro	-9.31088
▁plenty	-9.31421
▁previous	-9.31421
▁admit	-9.31422
▁Film	-9.31422
▁Scott	-9.31429
▁spend	-9.31457
7	-9.31464
▁scary	-9.31473
▁check	-9.3151
▁famous	-9.31519
▁sets	-9.31563
H	-9.32159
▁Ha	-9.32217
!"	-9.32268
ong	-9.32533
▁within	-9.32539
▁miss	-9.32614
▁leaves	-9.33027
▁clear	-9.3305
▁beautifully	-9.33075
▁Bill	-9.33133
▁lose	-9.33235
▁public	-9.33347
▁indeed	-9.3339
And	-9.33403
▁World	-9.33412
▁gem	-9.3342
▁lack	-9.33428
▁Good	-9.33539
▁fit	-9.33608
▁copy	-9.33641
▁recently	-9.33649
▁wouldn	-9.33693
▁hero	-9.33767
▁Joe	-9.33784
ru	-9.33977
*	-9.34166
▁spirit	-9.34228
▁comment	-9.34583
which	-9.34797
▁actual	-9.34877
▁remind	-9.3494
▁pull	-9.34941
▁fair	-9.35065
bo	-9.35109
day	-9.35211
▁constant	-9.35382
▁South	-9.35383
▁edge	-9.35387
▁slight	-9.35404
▁language	-9.35413
▁decent	-9.35424
▁steal	-9.35425
▁fascinating	-9.35472
▁Just	-9.35569
▁Lo	-9.35617
▁missed	-9.35855
op	-9.36092
ge	-9.3622
ey	-9.36232
▁review	-9.36516
All	-9.36731
▁l	-9.36754
▁sequences	-9.36827
▁problems	-9.36884
▁imagine	-9.37105
▁dialog	-9.37418
▁animated	-9.37423
▁social	-9.37423
▁mood	-9.37424
▁intelligent	-9.37426
▁crew	-9.37426
▁bought	-9.37434
ang	-9.37497
▁odd	-9.37507
▁supposed	-9.37547
▁Most	-9.37571
▁Love	-9.37693
▁outside	-9.37698
▁Mary	-9.37729
of	-9.37787
▁aren	-9.37796
▁obviously	-9.37809
▁killed	-9.38006
led	-9.38176
▁gr	-9.38178
▁touching	-9.38186
▁talent	-9.38331
▁Ma	-9.38451
▁couldn	-9.38798
▁recommended	-9.38838
▁setting	-9.38859
ay	-9.38875
▁Dan	-9.38883
▁elements	-9.39128
▁include	-9.39196
▁camp	-9.39229
▁complex	-9.39466
▁list	-9.39499
é	-9.39506
▁stupid	-9.39507
▁comedies	-9.39509
▁taste	-9.3951
sh	-9.39517
▁running	-9.39521
▁single	-9.3954
▁culture	-9.39543
▁except	-9.39599
▁room	-9.39626
▁gone	-9.3967
▁hell	-9.3981
▁Me	-9.39914
hi	-9.40383
▁Don	-9.40385
▁hours	-9.40584
▁surprise	-9.40627
▁images	-9.40818
▁laughs	-9.40893
▁result	-9.40946
rs	-9.41154
▁obvious	-9.41233
▁natural	-9.41247
▁J	-9.41396
▁whe	-9.41405
▁clever	-9.41634
▁moral	-9.41635
▁humour	-9.41636
▁impressive	-9.41637
▁shame	-9.41638
▁secret	-9.41653
▁dramatic	-9.41688
▁dancing	-9.41692
tion	-9.41713
▁Watch	-9.41803
▁Lee	-9.41817
arious	-9.41827
▁rate	-9.41836
av	-9.4188
▁decided	-9.41894
▁learn	-9.42054
ated	-9.42329
ning	-9.42436
▁older	-9.42545
▁following	-9.4266
▁leading	-9.42861
▁sh	-9.43046
▁emotion	-9.43072
os	-9.43102
▁fear	-9.43167
▁week	-9.43171
▁effect	-9.43193
▁...	-9.43218
▁charm	-9.43272
▁die	-9.43459
▁appreciate	-9.43498
▁solid	-9.43537
ex	-9.43649
▁directors	-9.43701
▁marriage	-9.43808
▁depth	-9.43808
▁compelling	-9.43828
▁married	-9.43866
▁appearance	-9.43867
▁city	-9.43879
▁normal	-9.43898
▁starr	-9.43916
▁singing	-9.4423
nce	-9.44435
not	-9.44512
▁Ho	-9.44516
▁reviews	-9.446
old	-9.4469
ble	-9.4479
▁allow	-9.44871
ell	-9.44962
▁super	-9.45091
▁needed	-9.45193
ence	-9.4535
▁leads	-9.4538
work	-9.45435
ud	-9.45581
ite	-9.45589
▁German	-9.45752
▁needs	-9.45804
0	-9.45923
▁police	-9.45987
▁suggest	-9.45989
▁convincing	-9.4603
▁genius	-9.4603
▁Tony	-9.46033
▁baby	-9.46038
▁weird	-9.46061
▁Charlie	-9.4608
▁Rock	-9.46138
▁e	-9.46196
▁High	-9.46229
▁City	-9.46229
▁Yes	-9.46252
▁begins	-9.46273
ped	-9.46353
per	-9.46422
▁words	-9.46468
▁building	-9.46514
▁Indian	-9.46634
▁hate	-9.46688
▁acted	-9.46752
▁La	-9.4688
▁pure	-9.46999
ho	-9.47324
▁r	-9.47374
▁ti	-9.47389
▁sp	-9.47448
▁Ca	-9.47528
▁Chris	-9.4763
ler	-9.47707
What	-9.47717
▁treat	-9.47821
our	-9.47963
▁Sa	-9.48077
em	-9.4813
▁Co	-9.48151
▁silent	-9.48303
▁common	-9.48303
▁Earth	-9.48303
▁center	-9.48303
▁tried	-9.48305
▁box	-9.48308
▁delightful	-9.48313
▁studio	-9.48318
▁sent	-9.48387
▁storyline	-9.48452
▁6	-9.48556
▁Mi	-9.48638
▁directing	-9.48652
ster	-9.48697
kept	-9.48715
well	-9.48752
▁Jo	-9.48873
▁seriously	-9.48948
▁focus	-9.49219
▁deserves	-9.49539
▁members	-9.49938
3	-9.49975
▁attack	-9.50153
▁detail	-9.50191
▁By	-9.50305
▁word	-9.50389
▁post	-9.50498
▁values	-9.50545
?)	-9.50601
▁Ro	-9.5061
▁crime	-9.50629
▁magnificent	-9.50629
▁beyond	-9.5063
▁hair	-9.5064
▁familiar	-9.5072
▁impressed	-9.50729
▁terrific	-9.50738
ious	-9.50855
▁filled	-9.51015
▁soul	-9.5104
▁bar	-9.51113
▁Di	-9.51151
My	-9.51268
▁Z	-9.51272
▁named	-9.51273
her	-9.51733
▁match	-9.51782
▁Here	-9.52324
▁walk	-9.52411
▁force	-9.52467
▁decides	-9.52531
▁credit	-9.52566
▁brothers	-9.52592
▁Tom	-9.52616
▁weak	-9.52731
nd	-9.52816
▁mad	-9.52984
▁suspense	-9.5301
▁popular	-9.53032
▁eventually	-9.53063
▁Director	-9.53074
▁five	-9.5308
▁telling	-9.53126
▁Frank	-9.53126
▁moves	-9.53145
▁yes	-9.53186
▁Who	-9.53218
▁Day	-9.53235
▁villain	-9.53386
lie	-9.53452
▁imp	-9.53469
ley	-9.53571
ug	-9.5391
▁total	-9.53964
▁uses	-9.54143
ca	-9.54248
▁di	-9.5428
▁manages	-9.54649
▁cute	-9.54684
▁train	-9.54854
▁reasons	-9.55027
▁10.	-9.55033
▁honest	-9.55038
▁general	-9.55055
▁effort	-9.5508
▁spot	-9.55103
con	-9.55105
▁cop	-9.55205
▁Che	-9.55322
ress	-9.55367
▁subtle	-9.5543
▁imagination	-9.55449
▁likable	-9.55449
▁outstanding	-9.55449
▁editing	-9.55449
▁mystery	-9.55449
▁Japanese	-9.5545
▁jump	-9.5545
▁friendship	-9.55459
▁trip	-9.55472
▁9	-9.55708
▁games	-9.55733
istic	-9.55754
▁per	-9.5577
▁details	-9.5591
As	-9.55929
▁May	-9.56037
▁emotions	-9.56149
▁30	-9.56202
▁artist	-9.56223
▁whom	-9.56262
6	-9.56276
▁impression	-9.56316
▁mis	-9.56358
ized	-9.56794
So	-9.56884
▁Van	-9.56977
▁portray	-9.57061
▁sta	-9.5708
▁reading	-9.57425
ut	-9.57426
for	-9.57456
ball	-9.57471
▁successful	-9.57557
▁effective	-9.57568
spite	-9.57669
▁begin	-9.5767
▁Sam	-9.5768
▁li	-9.57692
▁casting	-9.57693
▁wall	-9.57814
▁master	-9.57934
▁individual	-9.57949
▁third	-9.57949
▁smile	-9.57949
▁average	-9.57949
▁further	-9.57954
▁intense	-9.57954
▁straight	-9.57986
▁male	-9.57987
▁Ra	-9.5799
▁fast	-9.58029
▁somehow	-9.58052
▁*	-9.58214
▁helps	-9.58284
kin	-9.58333
line	-9.58366
▁reminded	-9.58515
▁none	-9.58601
▁talking	-9.58769
▁cat	-9.58806
ew	-9.58815
ah	-9.59
▁please	-9.59015
▁fighting	-9.59094
▁Th	-9.59274
▁issues	-9.59382
▁nicely	-9.59401
ical	-9.59485
▁features	-9.59539
▁themes	-9.59647
▁William	-9.59718
ten	-9.59721
▁St	-9.59799
▁wonderfully	-9.5995
▁reveal	-9.60056
di	-9.60106
▁pro	-9.60165
▁Mo	-9.60206
▁fire	-9.60236
▁office	-9.60301
!)	-9.60357
▁approach	-9.60419
ound	-9.6043
▁prison	-9.60481
▁journey	-9.60513
▁brutal	-9.60513
▁unexpected	-9.60517
▁earlier	-9.60526
▁development	-9.60529
▁minor	-9.60531
▁otherwise	-9.6056
▁Jeff	-9.60588
▁fl	-9.60605
▁water	-9.60644
▁Mc	-9.60665
▁alive	-9.60886
▁shooting	-9.60966
▁terms	-9.61001
▁added	-9.61164
▁step	-9.61449
▁note	-9.61519
▁See	-9.61523
▁dealing	-9.61677
▁animals	-9.61681
ping	-9.61745
▁Mar	-9.6183
▁shots	-9.61863
oo	-9.61908
▁situations	-9.62003
ner	-9.62159
▁perform	-9.62498
▁Vi	-9.62664
ka	-9.62729
▁Li	-9.62972
▁Steve	-9.6305
▁exciting	-9.63144
▁terrible	-9.63144
▁pleasant	-9.63144
▁amusing	-9.63145
▁Johnny	-9.63146
▁tension	-9.63146
▁adaptation	-9.63149
▁narrative	-9.63149
▁kick	-9.63152
▁Jim	-9.63153
▁girlfriend	-9.63153
▁lady	-9.63154
▁Maybe	-9.63159
▁political	-9.632
▁minute	-9.63225
▁science	-9.63227
▁creepy	-9.63232
▁becom	-9.63341
▁Big	-9.63343
▁concept	-9.63401
▁control	-9.63445
▁dreams	-9.63522
▁Andy	-9.6357
va	-9.63895
▁died	-9.6402
ER	-9.64175
ber	-9.64292
▁100	-9.64454
▁Marie	-9.6472
▁accept	-9.65004
▁build	-9.6526
nother	-9.65262
▁stands	-9.65313
▁opera	-9.65437
▁discover	-9.65449
▁hands	-9.65591
▁unlike	-9.65638
▁appears	-9.65649
▁save	-9.65742
▁affect	-9.65808
▁conflict	-9.65847
▁positive	-9.65847
▁space	-9.65847
▁company	-9.65848
▁impact	-9.65861
▁commentary	-9.65864
ip	-9.66021
▁ultimately	-9.6604
▁st	-9.66117
end	-9.66267
▁created	-9.66312
ee	-9.66409
▁ride	-9.66642
▁provide	-9.66742
▁ra	-9.66745
▁ends	-9.66856
▁pictures	-9.66969
▁o	-9.67096
▁inter	-9.67166
▁adults	-9.67182
▁boys	-9.67279
▁worked	-9.67331
▁nor	-9.6744
▁Will	-9.67486
▁Ch	-9.67605
▁filmed	-9.67791
▁sounds	-9.67861
▁speak	-9.68036
ward	-9.68087
▁Le	-9.68459
▁background	-9.68578
▁conclusion	-9.68625
▁possibly	-9.68625
▁information	-9.68625
▁caught	-9.6863
▁gangster	-9.6863
▁Bourne	-9.68667
▁Gene	-9.68706
▁Why	-9.68717
▁heavy	-9.68718
▁noir	-9.68972
▁forced	-9.6902
▁generally	-9.69087
▁forward	-9.6917
▁11	-9.69175
▁mo	-9.69358
▁mentioned	-9.69366
▁wide	-9.69369
og	-9.69621
▁fully	-9.6965
▁killing	-9.69671
que	-9.69765
▁ideas	-9.6978
▁land	-9.69798
▁contains	-9.69818
▁lived	-9.69889
▁Ka	-9.69891
ung	-9.69895
nny	-9.70191
ring	-9.70222
some	-9.70854
▁record	-9.70874
▁visit	-9.71012
▁cover	-9.71078
▁pace	-9.71175
ize	-9.71337
▁catch	-9.71413
▁creative	-9.71482
▁potential	-9.71482
▁tragic	-9.71482
▁travel	-9.71482
▁Smith	-9.71482
▁glad	-9.71482
▁smart	-9.71482
▁en	-9.71487
▁quiet	-9.71488
▁screenplay	-9.71497
▁vote	-9.71505
▁century	-9.71515
▁flat	-9.71515
▁Edie	-9.71532
▁provides	-9.71559
▁store	-9.71581
▁anyway	-9.71601
▁ground	-9.71604
▁value	-9.71628
▁quickly	-9.71722
▁carrie	-9.71741
▁tend	-9.71893
▁talented	-9.72109
▁entirely	-9.72533
▁points	-9.73334
▁remains	-9.73554
▁Su	-9.73579
what	-9.73668
He	-9.74013
▁recent	-9.7403
▁trouble	-9.7411
off	-9.7421
▁project	-9.74383
▁reflect	-9.74383
▁fiction	-9.74417
▁10/10	-9.74423
▁cheesy	-9.74423
▁innocent	-9.74423
▁military	-9.74423
▁object	-9.74423
▁silly	-9.74425
▁church	-9.74425
▁footage	-9.74428
▁childhood	-9.74433
▁tough	-9.74433
▁cold	-9.74447
▁Jones	-9.74453
▁debut	-9.74477
▁Black	-9.74484
▁immediately	-9.74501
▁sleep	-9.74521
▁earth	-9.74533
▁Jr	-9.74565
▁street	-9.74574
▁disturbing	-9.74591
▁First	-9.74663
▁drug	-9.74672
▁law	-9.74699
▁Dick	-9.74877
ba	-9.74925
▁former	-9.75107
you	-9.7519
oc	-9.75302
hose	-9.75634
▁tears	-9.75677
▁younger	-9.75781
gen	-9.75848
▁relationships	-9.75985
▁compare	-9.76031
▁adds	-9.76123
che	-9.76134
uff	-9.7629
▁pass	-9.76371
▁n	-9.76638
▁seasons	-9.76858
▁design	-9.77036
▁count	-9.77173
▁suit	-9.77255
▁le	-9.77315
lan	-9.77394
q	-9.77425
▁basic	-9.77438
▁Taylor	-9.77453
▁ghost	-9.77453
▁gorgeous	-9.77453
▁pilot	-9.77453
▁premise	-9.77453
▁fresh	-9.77453
▁Christmas	-9.77454
▁Ryan	-9.77454
▁sequel	-9.77455
▁spectacular	-9.77456
▁mid	-9.7746
▁memories	-9.7746
▁delight	-9.77462
▁relative	-9.77463
▁nominated	-9.77488
▁roll	-9.77535
▁manner	-9.77538
▁monster	-9.77576
▁Columbo	-9.77591
▁equally	-9.7762
▁developed	-9.77738
▁planet	-9.778
all	-9.7785
00	-9.78037
▁mark	-9.78064
▁dog	-9.7827
▁considered	-9.78287
▁70'	-9.78405
▁waiting	-9.78588
rd	-9.78659
ple	-9.78672
▁chose	-9.78726
▁students	-9.78752
▁pain	-9.78867
▁feelings	-9.78891
▁thanks	-9.79102
▁hot	-9.79107
nt	-9.79272
star	-9.79442
▁red	-9.79445
ory	-9.79498
▁meant	-9.7959
ga	-9.79596
▁bu	-9.79727
▁appeal	-9.79982
till	-9.80068
▁finish	-9.80123
▁mu	-9.80199
▁Men	-9.80233
▁date	-9.8034
ina	-9.80471
▁sw	-9.80499
▁state	-9.80573
▁legend	-9.80578
▁purpose	-9.80578
▁thoroughly	-9.80578
▁tragedy	-9.80578
▁loving	-9.80578
▁pleasure	-9.80578
▁search	-9.80578
▁presence	-9.80579
▁college	-9.80579
▁NOT	-9.80579
▁Because	-9.8058
▁serve	-9.8058
▁fellow	-9.80584
▁winning	-9.80595
▁passion	-9.80603
▁worst	-9.80605
▁House	-9.80626
▁remarkable	-9.80633
▁sing	-9.80695
▁("	-9.80719
▁Ann	-9.80775
▁produced	-9.80803
▁actresses	-9.80837
▁Sure	-9.80881
▁surprisingly	-9.80922
▁singer	-9.80988
▁shocking	-9.8104
▁band	-9.81263
ily	-9.8143
row	-9.81506
To	-9.81523
▁Mol	-9.817
▁gay	-9.81927
uch	-9.81941
▁expected	-9.82098
ze	-9.82169
held	-9.82173
ok	-9.82253
▁Y	-9.82328
▁bl	-9.8236
▁laughing	-9.82366
▁proves	-9.82375
▁remembered	-9.82468
▁continues	-9.8261
body	-9.83082
▁seeming	-9.83179
with	-9.83206
▁explain	-9.83349
▁offer	-9.8335
▁tone	-9.83372
▁brief	-9.8339
lu	-9.83497
▁leav	-9.835
▁la	-9.83576
▁Davis	-9.83804
▁People	-9.83804
▁climax	-9.83804
▁independent	-9.83804
▁clean	-9.83804
▁doctor	-9.83804
▁nudity	-9.83804
▁Brown	-9.83804
▁Italian	-9.83805
▁Jason	-9.83815
▁collection	-9.83816
▁bunch	-9.83817
▁cause	-9.83821
▁predictable	-9.83825
▁race	-9.83838
▁VHS	-9.83853
▁Daniel	-9.83854
▁trailer	-9.83854
▁inspired	-9.8388
▁ma	-9.83897
▁Night	-9.83954
▁scenery	-9.84044
▁finest	-9.84045
▁knows	-9.84046
▁Still	-9.84047
▁po	-9.84059
An	-9.84157
lin	-9.84206
▁accident	-9.84212
▁producer	-9.84294
▁19	-9.84398
▁realized	-9.84573
▁changed	-9.84634
▁flaws	-9.84715
ging	-9.84735
▁exceptional	-9.8478
?"	-9.84909
▁warm	-9.8495
▁Jane	-9.84984
▁gore	-9.84996
▁Ne	-9.85102
▁costumes	-9.8519
iness	-9.85204
▁Boy	-9.8522
▁players	-9.8524
▁cry	-9.85285
▁ba	-9.85828
▁expecting	-9.85861
ran	-9.85861
▁Ba	-9.85998
ron	-9.86153
▁exception	-9.86203
▁Americans	-9.86501
▁shoot	-9.86536
ship	-9.86547
rate	-9.86635
▁mine	-9.86682
fer	-9.8673
tive	-9.86736
▁Rob	-9.86789
▁60	-9.86907
war	-9.86948
▁Bar	-9.87021
▁offers	-9.87037
▁relate	-9.87042
tra	-9.87134
▁channel	-9.87137
▁genuine	-9.87137
▁intrigue	-9.87137
▁involving	-9.87137
▁revenge	-9.87137
▁unusual	-9.87137
▁literally	-9.87138
▁psychological	-9.87138
▁desire	-9.87138
▁London	-9.8714
▁latter	-9.8714
▁Story	-9.87146
▁shape	-9.87146
▁tune	-9.87148
▁apartment	-9.8716
▁track	-9.8716
▁dress	-9.87168
▁ridiculous	-9.87168
▁village	-9.87172
▁blow	-9.87177
▁horrible	-9.87181
▁boss	-9.87185
▁everybody	-9.87187
▁free	-9.87192
▁carry	-9.87195
▁sci	-9.87234
▁audiences	-9.87253
▁worse	-9.87257
▁Brian	-9.87267
▁homeless	-9.87285
▁Arthur	-9.8733
▁90	-9.87381
Not	-9.87398
▁Alan	-9.87399
▁ta	-9.8751
▁forgotten	-9.87561
ack	-9.87613
▁discovered	-9.87695
▁color	-9.8772
▁element	-9.8775
▁slowly	-9.88121
▁missing	-9.88182
▁ho	-9.88512
ix	-9.88518
ai	-9.88717
▁attempts	-9.88829
▁names	-9.88851
▁twists	-9.8928
▁ended	-9.89489
▁rent	-9.90106
▁award	-9.9032
▁throw	-9.90446
▁write	-9.90482
ette	-9.90496
▁ruin	-9.90515
▁grow	-9.90523
ned	-9.9055
da	-9.90568
▁engaging	-9.90586
▁epic	-9.90586
▁funniest	-9.90586
▁mysterious	-9.90586
▁cheap	-9.90586
▁blind	-9.90586
▁challenge	-9.90587
▁confused	-9.90587
▁million	-9.90598
▁France	-9.90599
▁stick	-9.906
▁winner	-9.906
▁underrated	-9.90603
▁available	-9.90623
▁insight	-9.90635
▁Washington	-9.90638
▁western	-9.90639
▁struggle	-9.90654
▁White	-9.90659
▁joy	-9.90727
▁Page	-9.90738
mon	-9.90759
▁born	-9.90767
▁historical	-9.9077
▁OK	-9.9078
▁humanity	-9.90805
▁lesson	-9.90809
ett	-9.90858
▁whatever	-9.90942
▁Gu	-9.91028
▁decide	-9.91065
▁cartoon	-9.91243
▁saying	-9.91269
▁Or	-9.91306
uck	-9.91369
▁uncle	-9.91406
!!!!!	-9.91579
▁18	-9.91612
▁40	-9.91626
real	-9.91741
▁willing	-9.92031
▁laughed	-9.92099
▁writers	-9.92327
▁plus	-9.92435
▁mainly	-9.92687
▁questions	-9.92728
art	-9.92747
▁plan	-9.92982
▁50	-9.93075
▁Har	-9.93292
▁gun	-9.93351
ue	-9.93402
When	-9.93575
back	-9.93588
One	-9.93806
▁Mor	-9.94042
▁Brosnan	-9.94157
▁Douglas	-9.94157
▁England	-9.94157
▁accurate	-9.94157
▁contrast	-9.94157
▁glimpse	-9.94157
▁incredibly	-9.94157
▁nasty	-9.94157
▁foreign	-9.94158
▁superior	-9.9416
▁1950	-9.9416
▁twice	-9.9416
▁Christian	-9.94166
▁Adam	-9.94166
▁spent	-9.94183
▁Morgan	-9.94213
▁movement	-9.94221
▁Other	-9.94232
▁current	-9.94266
▁Two	-9.94277
▁Star	-9.94291
▁thrown	-9.94303
▁enter	-9.94305
▁photography	-9.9433
▁annoying	-9.94362
▁craft	-9.94407
▁apparently	-9.94415
see	-9.94461
low	-9.94627
▁Roy	-9.94713
▁expectations	-9.94758
▁extra	-9.94972
▁difference	-9.94977
▁raise	-9.94979
▁location	-9.94987
▁standard	-9.95059
ating	-9.95253
ank	-9.95463
▁apart	-9.95526
▁Julia	-9.95736
▁ready	-9.95759
▁Un	-9.95859
zz	-9.95972
▁meaning	-9.96056
▁youth	-9.96103
▁j	-9.96124
▁soldiers	-9.96127
▁Ed	-9.9625
ven	-9.96475
my	-9.96617
▁15	-9.96965
so	-9.96996
American	-9.97274
screen	-9.97275
life	-9.97289
cut	-9.97296
▁sign	-9.97412
▁rap	-9.97471
mm	-9.97661
▁fill	-9.97703
▁Ms	-9.97728
▁Col	-9.9779
▁k	-9.97819
▁accent	-9.9786
▁Joseph	-9.97861
▁industry	-9.97861
▁ordinary	-9.97861
▁perspective	-9.97861
▁remake	-9.97861
▁technical	-9.97861
▁Green	-9.97861
▁slasher	-9.97861
▁wild	-9.97861
▁study	-9.97862
▁hurt	-9.97862
▁suicide	-9.97865
▁Eddie	-9.97865
▁Martin	-9.97869
▁brave	-9.97869
▁comedic	-9.97869
▁claim	-9.9787
▁flawless	-9.97871
▁trial	-9.97872
▁Baker	-9.97875
▁basically	-9.97881
▁notice	-9.97883
right	-9.97885
ier	-9.97892
▁depiction	-9.97898
▁seven	-9.97905
▁bizarre	-9.97909
▁six	-9.97913
▁refreshing	-9.97917
▁Henry	-9.97918
▁summer	-9.97918
▁Simon	-9.97942
▁partner	-9.97948
▁Charles	-9.97951
▁personality	-9.97961
▁loud	-9.9797
▁Perhaps	-9.97985
▁test	-9.97986
▁intended	-9.98006
▁amount	-9.98008
▁cross	-9.98009
▁Unfortunately	-9.98031
light	-9.98041
▁vision	-9.98061
▁mom	-9.98065
▁merely	-9.98085
▁satisfying	-9.98108
▁Park	-9.98141
▁realism	-9.9817
▁Though	-9.98171
▁noticed	-9.98184
even	-9.98189
den	-9.98227
▁safe	-9.98286
▁captured	-9.98293
this	-9.9833
lic	-9.98415
▁Part	-9.98695
▁victim	-9.98833
▁Ken	-9.98871
▁asked	-9.98912
▁king	-9.98991
▁longer	-9.99032
▁presented	-9.99092
▁Da	-9.99283
▁host	-9.99303
▁Eric	-9.99578
▁happening	-9.99595
erous	-9.99619
▁ahead	-9.99658
▁brilliantly	-9.99751
▁direct	-10.0015
idden	-10.0015
▁owner	-10.0017
long	-10.0044
▁ran	-10.0058
▁ro	-10.0059
▁lover	-10.0079
ak	-10.0081
ice	-10.0087
▁balance	-10.0097
ual	-10.0108
▁depict	-10.0121
▁concern	-10.0125
▁trust	-10.0131
▁event	-10.0133
For	-10.0145
ide	-10.0164
▁author	-10.0167
▁Du	-10.017
▁Bathsheba	-10.0171
▁Biko	-10.0171
▁IMDb	-10.0171
▁affair	-10.0171
▁combination	-10.0171
▁computer	-10.0171
▁government	-10.0171
▁hundred	-10.0171
▁wrote	-10.0171
▁Moore	-10.0171
▁desperate	-10.0171
▁Powell	-10.0171
▁frame	-10.0171
▁prepar	-10.0172
▁Raj	-10.0172
▁round	-10.0172
▁witty	-10.0172
▁Superman	-10.0173
▁zombie	-10.0174
▁cult	-10.0175
▁station	-10.0176
▁Academy	-10.0176
▁responsible	-10.0177
▁Jerry	-10.0179
▁humorous	-10.018
▁traditional	-10.0184
▁bigge	-10.0187
▁num	-10.0188
▁push	-10.0188
▁Little	-10.0188
▁African	-10.0194
ities	-10.02
▁aunt	-10.02
▁Com	-10.0201
set	-10.0205
▁US	-10.0205
▁deserved	-10.0209
▁X	-10.0212
▁lovely	-10.0217
men	-10.0219
form	-10.0219
▁West	-10.0222
▁remain	-10.0226
▁dad	-10.0231
ail	-10.0239
▁Mann	-10.0245
bs	-10.0247
▁tape	-10.025
▁deeply	-10.0253
▁tr	-10.027
▁beat	-10.0279
▁graphic	-10.0282
▁aspect	-10.0283
▁weeks	-10.0285
▁member	-10.0287
▁bare	-10.0298
▁lo	-10.0307
▁talents	-10.031
▁pieces	-10.0322
car	-10.0326
rous	-10.0334
▁Ja	-10.0341
how	-10.0357
▁Victoria	-10.0374
▁12	-10.0374
pa	-10.0377
mer	-10.0377
▁Ga	-10.0387
RE	-10.0402
▁skills	-10.0407
ors	-10.0425
▁delivers	-10.0432
played	-10.0438
▁wanting	-10.0445
rk	-10.0454
▁shock	-10.0474
down	-10.0484
Overall	-10.0511
director	-10.0512
▁surprising	-10.053
that	-10.0537
▁Africa	-10.0551
▁survive	-10.0552
ations	-10.0554
▁draw	-10.0557
▁teenage	-10.0561
▁pan	-10.0565
we	-10.0568
▁nation	-10.057
▁crazy	-10.0571
▁essential	-10.0571
▁opportunity	-10.0571
▁patient	-10.0571
▁shadow	-10.0571
▁sympathetic	-10.0571
▁crowd	-10.0571
▁widow	-10.0571
▁answer	-10.0571
▁sensitive	-10.0571
▁belief	-10.0571
▁horse	-10.0571
▁favourite	-10.0571
▁Brad	-10.0572
▁impossible	-10.0572
▁Jean	-10.0573
Everything	-10.0575
▁Kevin	-10.0577
▁Young	-10.0579
▁flow	-10.0584
▁regard	-10.0584
▁`	-10.0584
▁introduced	-10.0587
▁page	-10.0591
▁drawn	-10.0593
▁key	-10.0595
▁Every	-10.0597
▁managed	-10.0606
▁books	-10.0611
▁gain	-10.0617
▁Br	-10.0629
mate	-10.0633
▁eat	-10.0634
▁complaint	-10.0635
▁product	-10.0639
▁str	-10.0641
▁sick	-10.0655
▁manage	-10.0683
▁ill	-10.0684
wa	-10.0689
▁runs	-10.0691
▁decade	-10.0699
▁numbers	-10.0705
▁folks	-10.0708
▁disappear	-10.0708
▁Mac	-10.0713
▁Williams	-10.0713
▁dies	-10.0724
▁fu	-10.0752
▁inner	-10.076
▁ring	-10.0772
▁compar	-10.0774
▁creates	-10.0804
▁captures	-10.0809
▁Pre	-10.0866
▁Dark	-10.0875
▁showed	-10.0882
die	-10.0888
Le	-10.0892
▁/>"	-10.0893
▁spin	-10.0894
▁lovers	-10.0898
OR	-10.0905
▁complain	-10.0921
house	-10.0929
▁understanding	-10.093
nk	-10.0933
bu	-10.0937
▁explore	-10.0956
ana	-10.0968
▁Shakespeare	-10.0983
Of	-10.0984
▁Goldsworthy	-10.0987
▁disagree	-10.0987
▁encounter	-10.0987
▁portrait	-10.0987
▁scientist	-10.0987
▁splendid	-10.0987
▁memory	-10.0987
▁convey	-10.0987
▁task	-10.0988
▁tired	-10.0988
▁treasure	-10.0988
▁began	-10.0988
▁ha	-10.0988
cultural	-10.0988
▁stuck	-10.0988
▁Jimmy	-10.0988
▁marry	-10.0989
▁bomb	-10.0989
▁prefer	-10.0989
▁painful	-10.0989
▁insane	-10.099
▁Book	-10.0991
▁Street	-10.0991
▁join	-10.0993
▁Nick	-10.0994
▁Branagh	-10.0994
▁gang	-10.0994
▁anymore	-10.0995
▁suspect	-10.0996
▁discovers	-10.0997
▁sight	-10.0997
▁crack	-10.0998
▁Gi	-10.1004
▁Allen	-10.1006
▁pair	-10.1008
▁teacher	-10.1009
▁model	-10.1012
▁skin	-10.1018
▁painting	-10.1029
▁Gary	-10.1034
▁keeping	-10.1035
▁Ray	-10.1042
▁deals	-10.1048
▁Germany	-10.1049
▁par	-10.1053
▁deliver	-10.1055
Be	-10.1075
par	-10.1084
▁Their	-10.1095
▁emotionally	-10.1099
▁gags	-10.1106
▁rated	-10.1114
more	-10.1118
▁chase	-10.1121
▁represent	-10.1136
▁critics	-10.1144
▁Award	-10.1149
▁Time	-10.1166
▁Con	-10.118
air	-10.1205
EN	-10.1211
▁Dann	-10.1214
▁Woods	-10.1219
king	-10.1227
sha	-10.1236
▁Lu	-10.1281
▁program	-10.1317
ake	-10.1319
▁thrill	-10.1332
▁Mu	-10.1344
▁colors	-10.1346
▁spoil	-10.1358
class	-10.1363
▁symbol	-10.1363
However	-10.1364
good	-10.1364
over	-10.1365
▁fashion	-10.1375
▁physical	-10.1385
▁burn	-10.1386
▁Ko	-10.139
▁anti	-10.1398
▁Na	-10.1406
▁describe	-10.1417
ath	-10.1419
wood	-10.142
▁rival	-10.142
▁melodrama	-10.142
▁Chinese	-10.1422
▁Keaton	-10.1422
▁Picture	-10.1422
▁central	-10.1422
▁opposite	-10.1422
▁regret	-10.1422
▁strength	-10.1422
▁loose	-10.1422
▁heaven	-10.1422
▁sorry	-10.1422
▁instance	-10.1422
▁dozen	-10.1422
▁theatrical	-10.1422
▁surreal	-10.1423
▁festival	-10.1423
▁intriguing	-10.1424
▁{	-10.1424
▁suspenseful	-10.1425
▁Harry	-10.1425
▁Yet	-10.1425
▁Max	-10.1426
▁Gordon	-10.1426
▁Gundam	-10.1429
▁USA	-10.1429
▁Grand	-10.143
▁grand	-10.1431
ise	-10.1431
▁Stone	-10.1432
▁media	-10.1432
▁Life	-10.1432
▁anybody	-10.1433
tro	-10.1433
rtistic	-10.1435
▁Miss	-10.1438
▁Mark	-10.1439
ern	-10.1443
▁:)	-10.1443
▁Show	-10.1451
nes	-10.1455
▁suffering	-10.147
▁concerned	-10.1474
▁depicted	-10.1474
ford	-10.1476
▁Overall	-10.1488
▁appreciated	-10.1489
▁Les	-10.149
▁drag	-10.1493
▁growing	-10.1497
▁avoid	-10.1506
tte	-10.1509
movie	-10.1525
vin	-10.1528
gotten	-10.1542
ade	-10.1543
▁twist	-10.1554
▁changes	-10.156
▁Ted	-10.1565
▁results	-10.1566
▁continue	-10.1571
▁forever	-10.158
▁goal	-10.1581
▁image	-10.1591
▁machine	-10.1591
▁joke	-10.1594
ept	-10.1598
▁rid	-10.1602
**	-10.1616
▁strongly	-10.1642
ised	-10.165
head	-10.165
than	-10.1661
▁More	-10.1678
ger	-10.1716
ged	-10.1725
▁ages	-10.1736
sen	-10.1764
ot	-10.1772
▁Te	-10.1782
▁express	-10.1826
▁nu	-10.1829
▁witness	-10.1833
ison	-10.1836
▁listen	-10.1839
▁require	-10.1846
▁featur	-10.1848
▁drive	-10.1849
▁Too	-10.185
▁addition	-10.1852
▁Louis	-10.1855
▁length	-10.1855
now	-10.186
▁predict	-10.1874
▁confront	-10.1875
}	-10.1877
▁1970	-10.1877
▁Nancy	-10.1877
▁cruel	-10.1877
▁evidence	-10.1877
▁process	-10.1877
▁separate	-10.1877
▁system	-10.1877
▁Gerard	-10.1877
▁Spirit	-10.1877
▁sharp	-10.1877
▁Blood	-10.1877
▁Sidney	-10.1877
▁1930	-10.1877
▁extraordinary	-10.1877
▁expert	-10.1877
▁families	-10.1877
▁Japan	-10.1877
▁hoping	-10.1878
▁proud	-10.1878
▁attend	-10.1879
▁dying	-10.1879
▁bird	-10.1879
▁17	-10.1879
▁handsome	-10.188
▁Bond	-10.188
▁European	-10.188
▁sea	-10.1881
▁protect	-10.1881
▁Fox	-10.1884
▁UK	-10.1885
▁loss	-10.1887
▁awful	-10.1887
▁Stanley	-10.1887
▁unfortunately	-10.189
▁Thank	-10.189
▁Everyone	-10.1891
▁cable	-10.1891
▁Roll	-10.1891
▁grown	-10.1895
▁fr	-10.1896
▁justice	-10.1896
▁breath	-10.1897
▁Cinderella	-10.19
▁associate	-10.1903
▁scared	-10.1904
▁perfection	-10.1912
▁brain	-10.1915
La	-10.1916
du	-10.1923
▁dated	-10.1928
▁actions	-10.1934
▁subtitles	-10.1938
▁included	-10.1946
▁fairy	-10.1952
cient	-10.196
action	-10.1963
▁finale	-10.1976
▁seat	-10.1986
▁plain	-10.1995
▁Leon	-10.1996
▁pr	-10.1997
▁gre	-10.2
▁IS	-10.2016
▁pop	-10.2019
▁sports	-10.2032
▁Let	-10.2037
▁comp	-10.2059
▁Mel	-10.2063
▁leader	-10.2064
▁70	-10.2065
▁skill	-10.2065
dom	-10.2066
▁Movie	-10.208
▁Hall	-10.2085
ray	-10.2104
▁lighting	-10.2117
▁knowing	-10.2153
▁Eva	-10.2161
▁prop	-10.2175
▁Angel	-10.2181
▁acts	-10.2186
▁helped	-10.2194
▁rape	-10.2198
port	-10.22
▁shop	-10.2231
▁Ar	-10.2238
artial	-10.225
▁pack	-10.2261
cing	-10.2272
budget	-10.2294
That	-10.2294
most	-10.2309
She	-10.2314
▁quick	-10.2314
▁cr	-10.2321
▁achieve	-10.2336
▁mistake	-10.2339
▁thin	-10.2345
▁Tim	-10.2347
▁Cooper	-10.2353
▁Festival	-10.2353
▁LOVE	-10.2353
▁Lynch	-10.2353
▁Polanski	-10.2353
▁absurd	-10.2353
▁afraid	-10.2353
▁commercial	-10.2353
▁conversation	-10.2353
▁fabulous	-10.2353
▁gritty	-10.2353
▁intensity	-10.2353
▁regular	-10.2353
▁veteran	-10.2353
▁maintain	-10.2353
▁therefore	-10.2353
▁damn	-10.2353
▁court	-10.2353
▁criticism	-10.2354
▁Instead	-10.2354
▁Randy	-10.2354
▁Carter	-10.2354
▁symbolism	-10.2354
▁attractive	-10.2354
▁Lord	-10.2354
▁spell	-10.2355
▁connection	-10.2355
▁hide	-10.2355
▁narration	-10.2355
▁fake	-10.2355
▁sitcom	-10.2356
▁Hank	-10.2356
▁sentimental	-10.2357
▁Murphy	-10.2357
▁Russell	-10.2358
▁correct	-10.2358
▁Long	-10.2359
▁double	-10.2361
▁judge	-10.2362
▁Christophe	-10.2363
▁Philip	-10.2364
▁rank	-10.2364
▁Thomas	-10.2364
▁Before	-10.2366
▁poignant	-10.2368
▁earn	-10.2389
▁Anyway	-10.239
▁sell	-10.2399
▁formula	-10.2401
▁efforts	-10.2426
▁Billy	-10.2434
▁El	-10.2454
▁visually	-10.2457
▁disc	-10.2496
Ra	-10.2511
▁fail	-10.2516
tz	-10.2517
▁Can	-10.2518
▁settings	-10.2526
▁places	-10.2539
▁Fe	-10.2543
▁capture	-10.2559
▁bed	-10.2561
▁criminal	-10.2562
▁teenager	-10.2575
▁issue	-10.2577
mal	-10.2582
▁cameo	-10.26
▁filmmaker	-10.2605
hop	-10.2616
▁Mrs	-10.2625
rey	-10.2626
lyn	-10.2629
▁filmmakers	-10.2634
▁du	-10.2638
▁worthy	-10.2651
▁prove	-10.2653
▁hat	-10.2681
bal	-10.2682
▁Julie	-10.2685
losing	-10.269
ane	-10.2718
▁victims	-10.2722
▁aspects	-10.2725
▁island	-10.2733
▁locations	-10.2737
▁entertain	-10.2754
▁Sci	-10.2774
mark	-10.2799
▁repeat	-10.2807
making	-10.281
▁involve	-10.282
▁suppose	-10.2822
▁Gra	-10.2836
▁Stan	-10.2842
▁Tru	-10.2842
matic	-10.2848
ery	-10.2848
▁Europe	-10.2849
▁Hitler	-10.2853
▁Margaret	-10.2853
▁Spielberg	-10.2853
▁section	-10.2853
▁variety	-10.2853
▁violent	-10.2853
▁naive	-10.2853
▁Plus	-10.2853
▁Kells	-10.2853
▁pacing	-10.2853
▁welcome	-10.2853
▁reach	-10.2853
▁chair	-10.2853
▁curious	-10.2853
▁hint	-10.2854
▁window	-10.2854
▁bond	-10.2854
▁harsh	-10.2854
▁cynical	-10.2854
▁Oliver	-10.2855
▁unknown	-10.2856
▁gross	-10.2857
▁Mike	-10.2857
▁Bruce	-10.2858
▁Howard	-10.2858
▁Dead	-10.2859
▁base	-10.286
▁community	-10.286
▁Titanic	-10.2861
▁format	-10.2861
▁Grant	-10.2861
▁sn	-10.2863
▁bored	-10.2867
▁Patrick	-10.2868
▁manager	-10.2869
▁Queen	-10.2871
nyone	-10.2871
▁9/10	-10.2873
▁haunting	-10.2879
▁report	-10.2887
▁Steven	-10.2889
▁mission	-10.2889
▁wit	-10.289
▁recognize	-10.289
▁god	-10.2891
▁oh	-10.2896
▁Dev	-10.2898
▁lucky	-10.2902
▁greed	-10.2905
▁stone	-10.2905
▁teen	-10.2907
▁react	-10.2916
▁soap	-10.2916
▁content	-10.2927
▁wise	-10.2928
▁fights	-10.2935
▁Oh	-10.294
▁witch	-10.2946
▁Hol	-10.2955
▁learned	-10.2961
lat	-10.2972
▁factor	-10.2972
▁Ran	-10.3026
▁deserve	-10.3064
aking	-10.3075
▁Car	-10.3081
▁cliché	-10.3088
▁protagonist	-10.3088
▁fault	-10.3088
▁attitude	-10.3091
▁Wood	-10.3091
▁soldier	-10.3094
▁suffers	-10.312
▁faces	-10.3152
▁Pi	-10.3153
▁board	-10.3164
get	-10.3174
ened	-10.3175
▁Denn	-10.3176
▁simpl	-10.3186
On	-10.3193
ING	-10.3214
▁believes	-10.3234
▁India	-10.3236
▁road	-10.3266
very	-10.3288
▁awards	-10.329
▁met	-10.3294
▁thank	-10.3313
year	-10.3321
▁path	-10.3321
▁bright	-10.3332
ified	-10.3332
au	-10.3332
▁destroy	-10.3332
▁drugs	-10.3334
made	-10.3342
Ha	-10.3346
▁whil	-10.3357
▁bill	-10.3366
LE	-10.3367
▁suck	-10.337
▁Mont	-10.3373
▁attract	-10.3374
hood	-10.3376
▁danger	-10.3377
▁colour	-10.3378
▁faith	-10.3378
▁cheer	-10.3378
▁eight	-10.3378
▁Edmund	-10.3379
▁Floriane	-10.3379
▁Sinatra	-10.3379
▁breathtaking	-10.3379
▁contract	-10.3379
▁depressing	-10.3379
▁drink	-10.3379
▁gentle	-10.3379
▁necessary	-10.3379
▁parallel	-10.3379
▁triumph	-10.3379
▁unnecessary	-10.3379
▁urban	-10.3379
▁Britain	-10.3379
▁Freeman	-10.3379
▁Sunday	-10.3379
▁corny	-10.3379
▁Jesus	-10.3379
▁promise	-10.3379
▁overcome	-10.3379
▁mask	-10.3379
▁Dream	-10.3379
▁lawyer	-10.338
▁Comedy	-10.338
▁mature	-10.338
▁discuss	-10.338
▁motion	-10.3381
▁interpretation	-10.3381
▁health	-10.3382
▁Grey	-10.3382
▁rise	-10.3382
▁boyfriend	-10.3382
▁fame	-10.3382
▁Hill	-10.3383
▁disaster	-10.3384
▁Out	-10.3385
▁Bern	-10.3386
▁detective	-10.3387
▁wedding	-10.3389
▁print	-10.339
▁range	-10.3392
▁Hardy	-10.3392
▁Tarzan	-10.3394
▁Second	-10.3397
▁proper	-10.3401
▁received	-10.3407
▁professional	-10.3409
▁Walter	-10.3411
▁makers	-10.3411
▁achievement	-10.3412
▁Lang	-10.3416
▁depend	-10.3424
▁repeated	-10.3428
can	-10.3432
▁Sho	-10.3446
▁finished	-10.3457
▁effectively	-10.3467
ula	-10.3467
▁fell	-10.3467
▁Rose	-10.3475
▁appealing	-10.3482
▁passing	-10.3485
ara	-10.3487
▁higher	-10.3492
▁Pa	-10.3493
▁speaking	-10.3496
lor	-10.3503
▁ability	-10.3504
▁Was	-10.3517
▁bus	-10.3534
read	-10.3541
▁Reed	-10.3559
▁Brooks	-10.3563
▁Se	-10.3571
▁loves	-10.3572
De	-10.3575
▁cars	-10.3585
▁suffer	-10.3586
▁Pro	-10.3591
▁viewed	-10.3593
▁soft	-10.3615
▁cho	-10.362
▁ship	-10.3622
▁Sc	-10.3631
ob	-10.3631
ature	-10.3631
rated	-10.3644
▁rule	-10.3646
ren	-10.3646
X	-10.3647
onic	-10.3656
▁Victor	-10.3658
▁area	-10.3658
▁sa	-10.3684
eg	-10.3685
▁Fu	-10.3687
ability	-10.3691
▁Bas	-10.3703
ign	-10.3704
▁intention	-10.3708
self	-10.3727
▁mess	-10.373
%	-10.373
een	-10.3742
▁likely	-10.3768
▁sides	-10.3772
ching	-10.3782
▁crap	-10.3785
don	-10.3788
hearted	-10.3795
win	-10.3814
hu	-10.3814
play	-10.3824
ame	-10.3829
▁Fre	-10.3842
ike	-10.3857
ough	-10.3862
just	-10.3872
after	-10.3876
Whil	-10.3878
ella	-10.3882
▁mental	-10.389
especially	-10.3894
▁ultimate	-10.3895
▁apparent	-10.3895
Now	-10.3895
▁Par	-10.3903
▁streets	-10.3906
▁mini	-10.3928
part	-10.3932
▁ironic	-10.3933
▁favor	-10.3934
▁7/10	-10.3935
▁Lemmon	-10.3935
▁adorable	-10.3935
▁concert	-10.3935
▁negative	-10.3935
▁religious	-10.3935
▁routine	-10.3935
▁speech	-10.3935
▁spoof	-10.3935
▁stylish	-10.3935
▁surface	-10.3935
▁terrifying	-10.3935
▁unforgettable	-10.3935
▁dumb	-10.3935
▁knock	-10.3935
▁peace	-10.3935
▁prior	-10.3935
▁Israel	-10.3935
▁Malone	-10.3935
▁Priya	-10.3935
▁cousin	-10.3935
▁floor	-10.3935
▁status	-10.3935
▁risk	-10.3935
▁Walken	-10.3935
▁frightening	-10.3935
▁Matthau	-10.3935
▁intellectual	-10.3935
▁1980	-10.3935
▁thus	-10.3935
▁happiness	-10.3935
▁Miller	-10.3935
▁neighbor	-10.3935
▁freedom	-10.3935
▁Harris	-10.3935
▁Western	-10.3935
▁blue	-10.3936
▁Pitt	-10.3936
▁Bollywood	-10.3936
▁faithful	-10.3936
▁Lauren	-10.3937
▁slip	-10.3937
▁trade	-10.3938
▁Brendan	-10.3938
via	-10.3939
▁Canadian	-10.394
▁Never	-10.3941
▁rush	-10.3942
▁Italy	-10.3942
▁raw	-10.3942
▁Unit	-10.3944
▁Joan	-10.3944
▁price	-10.3945
▁capable	-10.3946
▁screening	-10.3946
she	-10.3946
▁determined	-10.3946
▁Hu	-10.3947
▁Old	-10.3947
▁bath	-10.3947
▁Paulie	-10.3947
▁Andrew	-10.3947
▁blend	-10.3948
▁Which	-10.395
▁Australian	-10.3951
roth	-10.3952
▁Look	-10.3953
▁bitter	-10.3956
▁wave	-10.3958
▁Dog	-10.3959
ole	-10.3961
▁Since	-10.3962
▁True	-10.3969
▁lies	-10.397
teen	-10.3971
▁limited	-10.3971
▁Matt	-10.3973
▁Ju	-10.398
▁nightmare	-10.3986
▁failed	-10.3987
▁ideal	-10.3992
▁news	-10.3998
▁seeking	-10.4012
▁explained	-10.4015
▁watchable	-10.4016
ov	-10.402
ville	-10.4021
▁revealed	-10.4036
▁****	-10.4036
▁wind	-10.4041
bel	-10.4047
▁Rain	-10.405
hal	-10.405
▁Pe	-10.4062
RO	-10.4073
▁sin	-10.4076
▁shines	-10.4095
▁Bette	-10.4095
▁faced	-10.4098
▁Hell	-10.4102
bout	-10.4106
▁lame	-10.4107
▁Shi	-10.412
▁Chan	-10.4126
NT	-10.4137
gate	-10.4151
▁committ	-10.4158
fu	-10.417
▁segments	-10.418
hand	-10.4222
▁site	-10.4233
▁highlight	-10.4237
▁sat	-10.4257
TE	-10.4283
ney	-10.4288
▁machines	-10.4297
▁Gar	-10.4303
RA	-10.4318
ters	-10.4325
▁provid	-10.433
vy	-10.4333
▁decades	-10.4336
▁graphics	-10.4353
▁favorites	-10.4356
▁rep	-10.4364
aid	-10.4366
dding	-10.4367
Bo	-10.4415
▁Ea	-10.4436
atch	-10.4448
Dan	-10.445
including	-10.4464
With	-10.4464
film	-10.4465
▁hang	-10.4467
John	-10.4472
▁Any	-10.4476
▁appropriate	-10.4487
▁Per	-10.45
▁(19	-10.4504
▁tight	-10.4506
!!!!	-10.4513
▁terror	-10.4515
IN	-10.4515
▁fate	-10.452
	-10.4523
▁Abigail	-10.4523
▁Capote	-10.4523
▁Hoffman	-10.4523
▁Laurel	-10.4523
▁MGM	-10.4523
▁Modesty	-10.4523
▁Muslim	-10.4523
▁admire	-10.4523
▁capital	-10.4523
▁circumstances	-10.4523
▁environment	-10.4523
▁futuristic	-10.4523
▁hospital	-10.4523
▁knowledge	-10.4523
▁mirror	-10.4523
▁precise	-10.4523
▁striking	-10.4523
▁target	-10.4523
▁vehicle	-10.4523
▁vulnerable	-10.4523
▁arrange	-10.4523
▁reunion	-10.4523
▁trash	-10.4523
▁Sabrina	-10.4523
▁contemporar	-10.4523
▁okay	-10.4523
▁club	-10.4523
▁feet	-10.4523
▁defend	-10.4523
▁gift	-10.4523
▁position	-10.4523
▁comedian	-10.4523
▁sinister	-10.4523
▁Canada	-10.4523
▁Vincent	-10.4523
▁Point	-10.4523
▁satire	-10.4523
▁strike	-10.4523
▁shallow	-10.4523
▁marvelous	-10.4524
▁existence	-10.4524
▁Cinema	-10.4524
▁kung	-10.4524
▁Edward	-10.4524
▁ballet	-10.4525
▁woods	-10.4525
▁Death	-10.4526
▁Trek	-10.4526
▁14	-10.4526
▁abuse	-10.4526
▁generation	-10.4527
▁Marty	-10.4527
▁identity	-10.4528
▁transformation	-10.4528
▁Real	-10.4528
▁Stephen	-10.4529
▁dislike	-10.4529
AND	-10.4529
▁treatment	-10.4529
▁Sky	-10.453
▁Over	-10.4531
▁dull	-10.4531
▁guide	-10.4532
▁Anthony	-10.4532
▁Planet	-10.4532
▁lonely	-10.4534
▁somewhere	-10.4535
▁Johnson	-10.4535
▁Sox	-10.4536
▁hire	-10.4536
▁define	-10.4537
▁Albert	-10.4537
▁broken	-10.4538
▁hall	-10.4539
▁utterly	-10.4542
▁recall	-10.4544
▁metal	-10.4547
▁haunted	-10.4547
▁8/10	-10.455
▁putting	-10.4553
▁suddenly	-10.4554
▁flying	-10.4554
▁Lost	-10.4556
▁achieved	-10.4563
mar	-10.4573
▁packed	-10.4581
▁loser	-10.4583
▁cell	-10.4586
aul	-10.4593
▁artists	-10.4609
Ch	-10.4613
▁plane	-10.4614
▁unlikely	-10.4614
ab	-10.4626
▁stronger	-10.463
▁credits	-10.4635
▁scares	-10.4644
Mar	-10.4646
▁ver	-10.4647
▁attacks	-10.4647
▁seek	-10.4663
▁angles	-10.4665
▁aired	-10.4681
▁experienced	-10.4684
▁bo	-10.4685
▁Ten	-10.4691
▁fears	-10.4706
▁murdered	-10.4712
▁Cor	-10.472
▁mar	-10.4742
▁pal	-10.4746
▁months	-10.4748
itz	-10.4756
▁hits	-10.4789
pping	-10.4805
▁reviewers	-10.4811
▁door	-10.4815
▁adventures	-10.4816
ky	-10.4818
▁resemble	-10.4829
▁En	-10.4832
▁dare	-10.485
▁animal	-10.4864
▁Roger	-10.4867
▁Movies	-10.4894
LY	-10.4901
▁reviewer	-10.4903
van	-10.4905
▁cla	-10.492
▁notch	-10.4921
▁Hav	-10.4929
.....	-10.4939
▁sisters	-10.498
▁standards	-10.5005
there	-10.5016
▁rec	-10.5017
▁Wing	-10.5024
sis	-10.5063
_	-10.5079
style	-10.5083
writer	-10.5086
▁scream	-10.5088
After	-10.5089
Although	-10.5089
▁market	-10.5089
watch	-10.5091
izing	-10.5098
Well	-10.51
▁display	-10.5102
▁hook	-10.5104
Oh	-10.5117
▁hunt	-10.512
though	-10.513
EVER	-10.5141
lock	-10.5143
▁transform	-10.5143
▁Carol	-10.5145
▁fool	-10.5147
▁photo	-10.5148
▁subsequent	-10.5148
▁Attenborough	-10.5148
▁Einstein	-10.5148
▁Lugosi	-10.5148
▁School	-10.5148
▁Spanish	-10.5148
▁behavior	-10.5148
▁creating	-10.5148
▁driving	-10.5148
▁enormous	-10.5148
▁excited	-10.5148
▁facial	-10.5148
▁nowadays	-10.5148
▁parody	-10.5148
▁praise	-10.5148
▁quirky	-10.5148
▁reminiscen	-10.5148
▁Hudson	-10.5148
▁Kitty	-10.5148
▁Texas	-10.5148
▁error	-10.5148
▁research	-10.5148
▁firm	-10.5148
▁countries	-10.5148
▁measure	-10.5148
▁relief	-10.5148
▁ABC	-10.5148
▁Actually	-10.5148
▁wicked	-10.5148
▁Eastwood	-10.5148
▁pressure	-10.5148
▁smooth	-10.5149
brisk	-10.5149
▁root	-10.5149
▁rough	-10.5149
▁Super	-10.5149
▁crude	-10.5149
▁lust	-10.5149
▁Foster	-10.5149
▁influence	-10.515
▁circle	-10.515
▁crush	-10.515
▁handle	-10.515
▁personalities	-10.515
▁dangerous	-10.515
▁Castle	-10.5151
▁Donald	-10.5151
▁worthwhile	-10.5151
▁13	-10.5151
▁alter	-10.5153
▁endearing	-10.5153
▁assume	-10.5153
▁Kline	-10.5153
▁structure	-10.5154
▁Jackson	-10.5154
▁heavily	-10.5155
▁executed	-10.5155
▁nowhere	-10.5156
▁agent	-10.5156
▁hip	-10.5156
▁cutting	-10.5157
▁21	-10.5158
▁Definitely	-10.5158
▁sophisticated	-10.5158
▁Nothing	-10.5158
▁Luke	-10.5158
▁North	-10.5162
▁charge	-10.5167
▁darkness	-10.5167
Jerem	-10.5169
▁bigger	-10.5169
ould	-10.5171
▁16	-10.5171
▁aware	-10.5171
▁tense	-10.5172
ought	-10.5172
▁party	-10.5173
▁Parker	-10.5173
▁army	-10.5175
▁choose	-10.5177
▁chilling	-10.5182
aff	-10.5183
▁touches	-10.5186
▁heads	-10.5193
▁Jay	-10.5194
▁letter	-10.5196
▁Jackie	-10.5196
▁Space	-10.5199
▁wor	-10.5204
▁demon	-10.5208
AL	-10.5212
▁delivered	-10.5217
▁Fred	-10.522
▁Up	-10.5222
▁Bro	-10.5223
▁virtual	-10.5223
▁Kid	-10.5232
▁portrays	-10.5235
▁Lad	-10.524
▁successfully	-10.5253
omething	-10.5256
▁poetic	-10.5268
▁Cat	-10.5278
▁treated	-10.5278
eek	-10.5279
ire	-10.528
▁cur	-10.5282
▁hopes	-10.5283
▁experiences	-10.5287
▁realise	-10.5287
▁ball	-10.5308
▁walking	-10.531
▁ble	-10.5348
▁Being	-10.5349
▁expressions	-10.5349
tch	-10.535
▁sexy	-10.535
▁learns	-10.5355
▁surprises	-10.5367
robabl	-10.5396
▁cor	-10.5397
Jo	-10.5399
▁paint	-10.5413
Re	-10.5414
▁emerge	-10.5417
Don	-10.542
▁Lin	-10.5425
TH	-10.5425
▁da	-10.5426
▁gu	-10.5427
▁exists	-10.5429
▁bi	-10.5437
▁se	-10.5461
ali	-10.5466
▁highlights	-10.5466
▁contain	-10.5482
ists	-10.5483
▁exist	-10.5486
liners	-10.549
▁Mario	-10.5494
lley	-10.5501
Man	-10.5517
▁segment	-10.5526
▁teenagers	-10.5526
▁novels	-10.5529
▁student	-10.553
▁costume	-10.553
▁lively	-10.5538
gger	-10.555
-1	-10.5559
rid	-10.5563
▁greatly	-10.5568
▁send	-10.557
▁represents	-10.5579
aged	-10.5595
eason	-10.5599
▁:	-10.5619
▁punch	-10.5628
▁tear	-10.5629
stage	-10.5669
▁kills	-10.5672
ET	-10.5683
▁cartoons	-10.5683
▁photograph	-10.5685
..."	-10.571
▁DO	-10.5713
wise	-10.5725
▁San	-10.5748
▁aged	-10.5748
▁addict	-10.5751
town	-10.5756
&	-10.5756
▁Lea	-10.576
▁reward	-10.5762
▁climb	-10.5764
▁rever	-10.5769
▁Hal	-10.577
▁tremendous	-10.5772
▁neat	-10.5772
take	-10.579
▁drop	-10.5804
▁Helen	-10.5805
▁Under	-10.5807
▁Prince	-10.5807
▁qua	-10.5808
▁psycho	-10.5813
▁revolution	-10.5813
▁grace	-10.5814
▁delicious	-10.5815
+	-10.5815
significant	-10.5815
▁Bacall	-10.5815
▁Bakshi	-10.5815
▁Bettie	-10.5815
▁Broadway	-10.5815
▁California	-10.5815
▁Florida	-10.5815
▁Glover	-10.5815
▁Kinnear	-10.5815
▁Mitchell	-10.5815
▁Pacino	-10.5815
▁Schmid	-10.5815
▁Scrooge	-10.5815
▁advantage	-10.5815
▁context	-10.5815
▁degree	-10.5815
▁devote	-10.5815
▁divorce	-10.5815
▁energy	-10.5815
▁enhance	-10.5815
▁excitement	-10.5815
▁importance	-10.5815
▁straightforward	-10.5815
▁universe	-10.5815
▁Edith	-10.5815
▁embarrass	-10.5815
▁ensemble	-10.5815
▁heartbreaking	-10.5815
▁radio	-10.5815
▁Canyon	-10.5815
▁Woman	-10.5815
▁Holmes	-10.5815
▁Fisher	-10.5815
▁giant	-10.5815
▁timing	-10.5815
▁screw	-10.5815
▁chaos	-10.5815
▁cried	-10.5815
▁daily	-10.5815
▁Actor	-10.5815
▁comparison	-10.5815
▁Wind	-10.5815
▁Gillian	-10.5815
▁anime	-10.5816
▁Wilson	-10.5816
ILL	-10.5816
▁laid	-10.5816
conscious	-10.5816
▁cheat	-10.5816
▁failure	-10.5816
▁sword	-10.5817
▁Field	-10.5817
▁interaction	-10.5817
▁Golden	-10.5818
▁Blake	-10.5818
▁Devil	-10.582
▁heroine	-10.5821
▁anywhere	-10.5821
▁Princess	-10.5823
▁laughter	-10.5823
▁gold	-10.5824
▁madness	-10.5825
▁shift	-10.5825
▁Barbara	-10.5825
▁Sometimes	-10.5825
▁versions	-10.5827
▁Antwone	-10.5829
We	-10.5833
▁>	-10.5834
▁pity	-10.5835
▁wealthy	-10.5836
▁fictional	-10.5839
▁Gold	-10.5839
▁Kim	-10.5839
▁Anna	-10.5845
▁occasionally	-10.5845
▁ego	-10.5852
▁handled	-10.5855
▁Finally	-10.5859
▁anger	-10.5862
▁produce	-10.5863
▁explored	-10.5866
▁cost	-10.587
▁belong	-10.5876
▁trick	-10.5876
▁described	-10.5878
▁jo	-10.5883
▁twisted	-10.5885
▁troubled	-10.5887
▁caused	-10.5902
▁listening	-10.5904
▁spy	-10.5912
!).	-10.5917
▁saved	-10.5918
▁van	-10.5919
▁Had	-10.5921
eth	-10.5924
▁hu	-10.5929
▁performed	-10.5935
▁villains	-10.5939
hol	-10.594
▁Your	-10.5953
ino	-10.5969
▁reli	-10.5984
▁training	-10.5984
▁afterwards	-10.5989
▁fur	-10.5994
▁indie	-10.6025
cher	-10.603
▁Der	-10.6042
▁Kath	-10.6043
thy	-10.6044
his	-10.6053
maker	-10.6057
▁focuse	-10.6067
▁Carl	-10.6072
▁superbly	-10.6081
dimensional	-10.6088
▁Char	-10.6093
▁Michell	-10.61
▁believed	-10.6126
▁wasted	-10.6126
▁alien	-10.6141
jo	-10.6156
rri	-10.6166
any	-10.6168
love	-10.6188
▁Fi	-10.6193
▁attitudes	-10.6198
▁amazingly	-10.62
▁Kill	-10.6202
han	-10.6203
AN	-10.6223
▁technique	-10.6233
▁decision	-10.6233
▁calls	-10.6241
▁reaction	-10.6246
):	-10.6246
law	-10.6255
ham	-10.6277
▁poster	-10.6282
▁multi	-10.6285
!),	-10.6291
▁powers	-10.6299
▁Sea	-10.6303
let	-10.6304
▁Bu	-10.6309
gue	-10.6323
top	-10.6324
▁Jud	-10.6332
boy	-10.6341
▁musicals	-10.6349
▁pu	-10.6363
▁extras	-10.6368
▁fare	-10.638
▁mere	-10.6381
▁consum	-10.6384
loo	-10.639
ez	-10.6396
▁occur	-10.6405
▁player	-10.6408
▁civil	-10.6435
▁forms	-10.6447
▁ST	-10.6459
▁arts	-10.6462
First	-10.647
Good	-10.647
Also	-10.6471
▁forest	-10.6473
board	-10.6474
bound	-10.648
type	-10.648
▁murders	-10.6481
▁Hunt	-10.6485
face	-10.6496
▁luck	-10.6498
▁guilt	-10.6503
▁tradition	-10.6503
▁cap	-10.6504
▁?	-10.6508
▁sons	-10.6508
looking	-10.6508
▁dig	-10.6512
▁forgive	-10.6514
boo	-10.6516
▁exploit	-10.6527
▁Port	-10.6528
▁frequent	-10.6529
▁Saturday	-10.6529
▁benefit	-10.6529
▁explicit	-10.6529
climactic	-10.6529
▁Arnold	-10.6529
▁Blandings	-10.6529
▁Captain	-10.6529
▁Curtis	-10.6529
▁Glenn	-10.6529
▁HBO	-10.6529
▁Mexico	-10.6529
▁Nightmare	-10.6529
▁Widmark	-10.6529
▁command	-10.6529
▁description	-10.6529
▁disease	-10.6529
▁evident	-10.6529
▁garbage	-10.6529
▁lovable	-10.6529
▁mediocre	-10.6529
▁morning	-10.6529
▁plague	-10.6529
▁Griffith	-10.6529
▁naked	-10.6529
▁neither	-10.6529
▁wisdom	-10.6529
▁Heaven	-10.6529
▁condition	-10.6529
▁desert	-10.6529
▁edited	-10.6529
▁honor	-10.6529
ognac	-10.6529
▁ladies	-10.6529
▁prevent	-10.6529
▁relations	-10.6529
▁riot	-10.6529
▁Anderson	-10.6529
▁beloved	-10.6529
▁Witch	-10.6529
▁trilogy	-10.6529
▁Phil	-10.6529
▁Goldberg	-10.6529
▁exquisite	-10.6529
▁Boston	-10.6529
▁preview	-10.6529
▁neighborhood	-10.6529
▁speed	-10.6529
▁Renaissance	-10.6529
▁wives	-10.6529
▁Morris	-10.653
▁Sandler	-10.653
▁random	-10.653
▁Farrell	-10.653
▁explosion	-10.653
▁revelation	-10.653
▁Ruby	-10.653
▁Hugh	-10.653
▁link	-10.653
▁massive	-10.653
▁worry	-10.6531
▁Paine	-10.6531
▁plight	-10.6532
▁skip	-10.6532
Ellen	-10.6532
▁guest	-10.6532
▁Drew	-10.6532
▁tree	-10.6533
▁Barry	-10.6533
▁Stack	-10.6533
▁storytelling	-10.6533
▁retain	-10.6534
▁Ruth	-10.6534
▁Gershwin	-10.6536
▁Make	-10.6537
▁Roman	-10.6537
▁bank	-10.6539
▁Caron	-10.6539
▁swear	-10.654
▁Jessica	-10.654
▁Lewis	-10.654
▁equal	-10.654
▁useful	-10.654
▁Again	-10.654
▁Water	-10.6541
▁sexuality	-10.6543
▁lend	-10.6544
▁replaced	-10.6544
▁Halloween	-10.6545
▁national	-10.6548
▁2006	-10.6549
▁captivating	-10.6549
▁Excellent	-10.6549
▁scale	-10.6549
▁Baby	-10.655
▁overlooked	-10.6551
▁Master	-10.6552
▁strict	-10.6554
▁Murder	-10.6554
▁fatal	-10.6554
▁arrested	-10.6555
▁bother	-10.6556
▁musician	-10.6559
▁fitting	-10.656
▁Dean	-10.6562
▁Get	-10.6563
yl	-10.6565
▁larger	-10.6567
▁Lou	-10.6569
▁Elm	-10.6573
▁layer	-10.6576
▁upper	-10.6576
▁inspiring	-10.6579
▁wearing	-10.658
▁em	-10.658
▁hooked	-10.6582
▁deeper	-10.6585
No	-10.6592
▁Anne	-10.6596
▁entertained	-10.6596
▁Soon	-10.6597
▁pe	-10.6602
▁consequences	-10.6606
▁endless	-10.6606
▁workers	-10.6612
▁continued	-10.662
▁Leo	-10.6627
▁Ru	-10.6627
iff	-10.6631
eau	-10.6632
▁covered	-10.6647
▁honestly	-10.6653
▁Strange	-10.6654
▁Pat	-10.6666
▁primar	-10.6674
bad	-10.6686
▁core	-10.6691
▁poorly	-10.6694
▁Years	-10.6695
▁Sta	-10.6695
▁guts	-10.6695
▁Shah	-10.6696
▁pulled	-10.67
specially	-10.6706
▁focused	-10.671
▁z	-10.6711
▁references	-10.6717
away	-10.6721
▁har	-10.6737
▁murderer	-10.6747
▁deadly	-10.6762
▁wears	-10.6772
omb	-10.678
jar	-10.6789
▁Christ	-10.679
▁pet	-10.6796
▁standing	-10.6819
▁evening	-10.6822
▁critic	-10.6825
▁wondering	-10.6831
▁ice	-10.6841
ami	-10.6852
▁lights	-10.6867
stop	-10.6877
ED	-10.6878
▁Je	-10.6886
▁bull	-10.6894
▁visuals	-10.6899
▁u	-10.6899
hor	-10.6901
▁talks	-10.6906
▁closely	-10.6906
▁aside	-10.691
rving	-10.6922
CK	-10.6927
▁teach	-10.6935
▁faults	-10.6942
▁matters	-10.6953
▁criminals	-10.6965
corporate	-10.6977
▁Pin	-10.6985
cked	-10.6986
▁theaters	-10.6986
▁commit	-10.6991
50	-10.6998
▁flashback	-10.7003
▁interview	-10.7007
▁month	-10.7009
▁Set	-10.7018
▁bin	-10.7021
▁hi	-10.7023
▁Have	-10.7029
▁topic	-10.7037
▁Times	-10.7047
▁sum	-10.705
▁aging	-10.7051
Al	-10.7055
til	-10.7058
▁vi	-10.7071
Fi	-10.7072
▁***	-10.7095
▁erotic	-10.7117
anda	-10.7121
rrow	-10.7147
▁Coll	-10.7149
▁/	-10.7164
▁Boys	-10.7176
▁Oscars	-10.718
other	-10.718
OO	-10.7186
▁Cher	-10.7201
▁min	-10.7211
▁flicks	-10.7213
▁demons	-10.7232
while	-10.7234
stream	-10.7236
Anyway	-10.7238
Though	-10.7239
minute	-10.7239
Big	-10.7239
Some	-10.724
,000	-10.7241
Watch	-10.7241
▁designs	-10.7246
▁grab	-10.7248
▁Mad	-10.7248
▁flesh	-10.725
za	-10.7255
▁sudden	-10.7257
▁masterful	-10.726
▁levels	-10.7261
ya	-10.7263
ible	-10.7264
▁Moon	-10.7266
▁convince	-10.7266
▁introduce	-10.7267
▁Dar	-10.7269
clu	-10.7279
break	-10.7279
▁observ	-10.7284
▁progress	-10.7288
▁Ever	-10.7292
hit	-10.7293
nti	-10.7295
▁text	-10.7296
▁receive	-10.7296
▁convict	-10.7298
▁Aditya	-10.7298
▁April	-10.7298
▁Cagney	-10.7298
▁Caruso	-10.7298
▁Purple	-10.7298
▁Simmons	-10.7298
▁Winchester	-10.7298
▁account	-10.7298
▁arrival	-10.7298
▁awkward	-10.7298
▁changing	-10.7298
▁complicated	-10.7298
▁confusion	-10.7298
▁delicate	-10.7298
▁easier	-10.7298
▁expensive	-10.7298
▁increasing	-10.7298
▁innocence	-10.7298
▁intelligence	-10.7298
▁politics	-10.7298
▁pregnant	-10.7298
▁prince	-10.7298
▁redemption	-10.7298
▁stretch	-10.7298
▁substance	-10.7298
▁Please	-10.7298
▁Rachel	-10.7298
▁abandon	-10.7298
▁essence	-10.7298
▁loneliness	-10.7298
▁uplift	-10.7298
▁BBC	-10.7298
▁clothes	-10.7298
▁premier	-10.7298
▁Ramones	-10.7298
▁food	-10.7298
▁mountain	-10.7298
▁Falk	-10.7298
▁built	-10.7298
▁contest	-10.7298
▁facing	-10.7298
▁rescue	-10.7298
▁stereotype	-10.7298
▁Betty	-10.7298
▁extent	-10.7298
▁robot	-10.7298
▁thru	-10.7298
▁creation	-10.7298
▁promot	-10.7298
▁Darren	-10.7299
▁General	-10.7299
▁portion	-10.7299
▁peak	-10.7299
▁1940	-10.7299
▁Dutch	-10.7299
▁Jenny	-10.7299
▁Mount	-10.7299
▁clue	-10.7299
▁Kennedy	-10.7299
▁Blair	-10.7299
▁100%	-10.7299
▁blond	-10.7299
▁switch	-10.7299
▁outcome	-10.73
▁Santa	-10.73
▁Freddy	-10.73
▁charismatic	-10.73
▁department	-10.73
▁Clint	-10.73
▁stress	-10.7301
▁inevitable	-10.7301
▁theatre	-10.7302
▁Sirk	-10.7302
▁Warner	-10.7302
▁bride	-10.7302
cheek	-10.7302
▁everywhere	-10.7303
▁stopped	-10.7303
▁secretary	-10.7303
▁flash	-10.7304
▁sky	-10.7304
▁discussion	-10.7304
▁amazed	-10.7305
▁Jan	-10.7306
▁Later	-10.7306
▁mass	-10.7307
▁24	-10.7308
▁presentation	-10.7308
▁Wow	-10.7308
▁continuity	-10.7309
▁settle	-10.7309
▁Much	-10.731
▁hopeful	-10.731
▁fancy	-10.731
▁Cliff	-10.731
▁Beautiful	-10.731
▁jaw	-10.731
▁Larry	-10.7312
▁Besides	-10.7316
▁combined	-10.7317
▁doomed	-10.7319
▁Play	-10.7319
▁reporter	-10.7321
▁ALL	-10.7321
▁fourth	-10.7321
▁Sir	-10.7329
▁phone	-10.733
▁Down	-10.7334
▁flawed	-10.7334
▁Clark	-10.7335
▁daring	-10.7338
▁referr	-10.7347
▁distracting	-10.7349
ending	-10.735
▁dances	-10.7356
▁Timon	-10.7364
▁Art	-10.7364
▁contribute	-10.7368
▁Dad	-10.7373
▁screaming	-10.7374
▁generat	-10.7374
▁plu	-10.7374
▁officer	-10.7375
gged	-10.7378
▁spoiled	-10.7382
▁insist	-10.7382
▁Del	-10.7386
aries	-10.7387
▁shocked	-10.739
▁endure	-10.7391
▁weight	-10.7392
ico	-10.7397
▁makeup	-10.7401
▁rented	-10.7404
▁paced	-10.7413
▁spots	-10.7416
▁arm	-10.7416
▁shy	-10.7416
▁angel	-10.7425
▁castle	-10.7428
Ho	-10.7435
rian	-10.7439
▁naturally	-10.7453
▁dynamics	-10.7454
▁criticiz	-10.7459
▁Friends	-10.7463
▁auto	-10.7467
▁Die	-10.7468
hine	-10.7477
▁Take	-10.7481
▁spoilers	-10.7483
▁beating	-10.7488
lon	-10.7489
▁Wild	-10.7497
▁Brothers	-10.7502
▁succeeds	-10.7503
ied	-10.7512
ama	-10.7513
▁learning	-10.7523
nda	-10.7534
Do	-10.7556
▁span	-10.7562
▁multipl	-10.7568
▁develops	-10.7578
rain	-10.7581
▁mob	-10.7587
▁showcase	-10.759
Lucy	-10.7591
▁interviews	-10.7599
reak	-10.7599
unch	-10.761
▁Kei	-10.7611
upernatural	-10.7615
▁Mat	-10.7621
▁investigate	-10.763
▁identif	-10.7634
▁myth	-10.7638
ird	-10.7656
▁lacks	-10.766
▁Rogers	-10.7672
▁innovati	-10.7686
ano	-10.7696
tter	-10.7702
put	-10.7707
▁resembl	-10.7708
▁develop	-10.7726
▁clichés	-10.7746
str	-10.7754
illa	-10.7768
anic	-10.777
▁fails	-10.7773
night	-10.7785
▁Bor	-10.779
cat	-10.7793
▁unfold	-10.7797
▁Ki	-10.7797
pal	-10.7805
rie	-10.781
▁rip	-10.7818
▁pur	-10.7822
▁Ice	-10.7832
▁creature	-10.7837
▁method	-10.7842
▁Ya	-10.7843
▁Brook	-10.7844
▁folk	-10.7845
▁parent	-10.7852
▁Po	-10.7858
▁quote	-10.7859
▁BE	-10.787
pen	-10.7877
▁Sand	-10.7878
tention	-10.788
▁ON	-10.7911
▁East	-10.7923
▁pai	-10.7925
nish	-10.7929
▁Brit	-10.7937
▁Child	-10.7938
▁Ke	-10.7941
▁differences	-10.7946
they	-10.7946
1)	-10.7961
▁Cole	-10.7968
signed	-10.7976
▁grows	-10.7976
fest	-10.7986
▁pin	-10.8002
▁sport	-10.8005
▁witche	-10.8006
▁IT	-10.8015
ative	-10.8021
▁producers	-10.8024
▁accidental	-10.8027
imp	-10.8041
where	-10.8042
▁incident	-10.8044
lec	-10.8047
▁continu	-10.8048
too	-10.8049
bert	-10.8049
stone	-10.8052
lly	-10.8054
▁captur	-10.8055
▁tricks	-10.8058
known	-10.8067
connect	-10.807
90	-10.8071
point	-10.8072
craft	-10.8072
plot	-10.8072
▁marks	-10.8073
field	-10.8079
Even	-10.8079
▁Fr	-10.808
▁defeat	-10.8085
▁accomplish	-10.8085
▁convention	-10.8085
ush	-10.8086
▁vivid	-10.8089
▁user	-10.809
▁blame	-10.81
chiev	-10.8101
▁exact	-10.8101
story	-10.8107
▁fiancé	-10.8107
hero	-10.811
▁threaten	-10.811
...)	-10.8113
▁Ab	-10.8115
▁Australia	-10.8115
Yes	-10.8119
▁narrat	-10.812
▁Music	-10.8121
▁betray	-10.8121
▁Home	-10.8126
▁covers	-10.8128
ucci	-10.8128
▁Made	-10.813
ese	-10.813
▁broad	-10.8131
▁Ghost	-10.8132
▁Hawke	-10.8132
▁brilliance	-10.8132
▁casual	-10.8132
▁desperation	-10.8132
▁fluid	-10.8132
▁lavish	-10.8132
▁motivation	-10.8132
▁outrageous	-10.8132
▁profound	-10.8132
▁unsettling	-10.8132
▁/>10/10	-10.8132
▁Actress	-10.8132
▁Dixon	-10.8132
▁Doctor	-10.8132
▁Eskimo	-10.8132
▁Fanfan	-10.8132
▁Kapoor	-10.8132
▁President	-10.8132
▁Universal	-10.8132
▁accord	-10.8132
▁challenging	-10.8132
▁confusing	-10.8132
▁crisis	-10.8132
▁despair	-10.8132
▁device	-10.8132
▁drift	-10.8132
▁embark	-10.8132
▁exploring	-10.8132
▁landscape	-10.8132
▁nonetheless	-10.8132
▁response	-10.8132
▁sibling	-10.8132
▁yeah	-10.8132
▁Chamberlain	-10.8132
▁Family	-10.8132
▁Nazi	-10.8132
▁afternoon	-10.8132
▁comfortable	-10.8132
▁enemy	-10.8132
▁inhabit	-10.8132
▁BSG	-10.8132
▁wooden	-10.8132
▁ignore	-10.8132
▁proceed	-10.8132
▁Emma	-10.8132
▁thread	-10.8132
▁false	-10.8132
▁Close	-10.8132
▁YOU	-10.8132
▁hatred	-10.8132
▁mild	-10.8132
▁contact	-10.8132
▁behave	-10.8132
▁Corbett	-10.8132
▁States	-10.8132
▁crook	-10.8132
▁gripping	-10.8132
▁Police	-10.8132
▁tiny	-10.8132
▁bedroom	-10.8132
▁monk	-10.8132
▁Okay	-10.8132
▁nevertheless	-10.8132
▁option	-10.8132
▁trademark	-10.8132
▁schedule	-10.8132
▁Montana	-10.8132
▁football	-10.8132
▁native	-10.8132
▁Nathan	-10.8132
▁corner	-10.8132
▁private	-10.8132
▁Buddy	-10.8132
▁south	-10.8133
▁boot	-10.8133
▁jail	-10.8133
▁Palance	-10.8133
▁Warhol	-10.8133
▁Muppet	-10.8133
▁illusion	-10.8133
▁source	-10.8134
▁closing	-10.8135
▁pursuit	-10.8135
▁MAN	-10.8135
▁Alison	-10.8135
▁2000	-10.8135
▁Sammi	-10.8135
▁wound	-10.8135
▁address	-10.8135
▁Sarah	-10.8135
▁Todd	-10.8136
▁accused	-10.8136
Camp	-10.8136
▁chick	-10.8136
DS	-10.8136
▁Sister	-10.8136
▁fix	-10.8138
▁grim	-10.8138
▁Brando	-10.8138
▁Lake	-10.8139
▁Bela	-10.8139
▁Elvira	-10.814
▁sensational	-10.814
▁immensely	-10.8141
▁assistant	-10.8141
▁hotel	-10.8141
▁nine	-10.8141
▁crash	-10.8141
ado	-10.8142
▁torn	-10.8144
▁speaks	-10.8144
▁translat	-10.8144
▁seduc	-10.8145
▁rifle	-10.8145
▁Pickford	-10.8145
▁Rick	-10.8145
▁Amanda	-10.8145
▁Island	-10.8146
▁code	-10.8146
▁selfish	-10.8147
▁Him	-10.8147
▁Marine	-10.8147
▁duo	-10.8147
berg	-10.8147
▁passionate	-10.8149
▁backgrounds	-10.815
▁Girl	-10.815
▁Back	-10.8151
▁difficulties	-10.8152
▁fish	-10.8152
▁Kate	-10.8153
▁Tracy	-10.8153
▁assure	-10.8154
▁sadness	-10.8154
▁necessarily	-10.8156
▁Sound	-10.8156
▁mistaken	-10.8157
▁foot	-10.8159
▁table	-10.8161
▁Ross	-10.8162
▁thoughtful	-10.8162
▁park	-10.8164
▁sink	-10.8165
▁guilty	-10.8171
▁heroes	-10.8174
▁Full	-10.8174
▁Luci	-10.8175
retty	-10.8176
▁disappointing	-10.8177
▁TO	-10.8177
▁grade	-10.8178
▁load	-10.8179
▁Live	-10.8182
▁Robbi	-10.8191
▁required	-10.8191
???	-10.8191
Stargate	-10.8192
rench	-10.8193
▁Sopranos	-10.8197
▁swimm	-10.8203
▁owe	-10.8203
orbidden	-10.8207
▁below	-10.8211
▁physically	-10.8213
▁bound	-10.8215
▁hanging	-10.8219
▁prov	-10.822
▁burned	-10.8223
▁arrives	-10.8223
▁badly	-10.8224
▁stated	-10.8225
▁persona	-10.8229
▁Bad	-10.8231
▁fired	-10.8238
▁briefly	-10.8242
▁darker	-10.8243
▁walls	-10.8251
▁Penn	-10.8256
▁Eve	-10.8256
alent	-10.8259
truck	-10.8259
▁pi	-10.8265
Hav	-10.8275
▁dollars	-10.8275
▁ju	-10.8276
▁stranger	-10.8277
cycle	-10.8282
▁scarie	-10.8288
▁offering	-10.8299
At	-10.8301
▁dancers	-10.8333
▁programme	-10.834
▁lower	-10.8342
▁practical	-10.8343
hroughout	-10.8345
▁awe	-10.8354
aught	-10.8356
▁Add	-10.8357
going	-10.8364
▁featured	-10.8378
▁importantly	-10.8378
▁comical	-10.8378
▁sadly	-10.8404
▁ni	-10.8405
pot	-10.8405
ids	-10.8411
▁unfolds	-10.8427
▁Far	-10.8428
▁improv	-10.8433
▁quotes	-10.8433
▁magical	-10.8461
▁Bus	-10.8478
▁Tob	-10.8493
▁fi	-10.8508
HO	-10.8521
cademy	-10.8524
▁warn	-10.8526
▁Nor	-10.8527
Ju	-10.8549
▁Law	-10.8551
zing	-10.8553
▁prime	-10.8585
▁caring	-10.8586
▁rules	-10.8594
▁wear	-10.8596
Code	-10.8598
▁Dur	-10.8603
oh	-10.8617
▁protagonists	-10.8621
▁Gen	-10.8653
▁wi	-10.8676
rich	-10.8693
▁Heat	-10.8703
lum	-10.8704
ular	-10.8729
▁pa	-10.873
▁Awards	-10.873
▁Eli	-10.8734
ither	-10.8743
▁stunt	-10.8745
▁buff	-10.8748
▁Mil	-10.8755
▁expression	-10.8759
cast	-10.877
▁Mari	-10.877
omp	-10.8774
ini	-10.879
▁Pal	-10.8792
▁performer	-10.8798
▁Twi	-10.8801
▁sun	-10.8803
girl	-10.8807
▁Through	-10.881
▁waste	-10.8815
▁guns	-10.8826
▁Cal	-10.884
▁Age	-10.8852
▁plans	-10.8853
▁struggles	-10.8878
▁Fri	-10.8884
▁Cuba	-10.8913
onald	-10.8923
▁bands	-10.8952
▁states	-10.8954
▁evolution	-10.8961
▁qui	-10.8966
▁distract	-10.898
power	-10.8982
David	-10.8982
perfect	-10.8982
think	-10.8982
because	-10.8983
Star	-10.8983
Paul	-10.8987
noir	-10.8988
Who	-10.8989
series	-10.899
mind	-10.899
although	-10.8997
omi	-10.9005
TV	-10.9006
▁occasional	-10.9007
cus	-10.9009
lace	-10.9009
▁Whe	-10.9032
nternational	-10.9032
escent	-10.9034
ification	-10.9035
▁quest	-10.9037
▁authentic	-10.9037
▁drunk	-10.9037
Ka	-10.9038
▁charisma	-10.9039
▁specific	-10.9039
▁document	-10.9039
▁devil	-10.904
#	-10.9041
▁reputation	-10.9041
▁2001	-10.9041
▁Astaire	-10.9041
▁Elizabeth	-10.9041
▁Jonathan	-10.9041
▁Kazan	-10.9041
▁Ralph	-10.9041
▁Reynolds	-10.9041
▁Sissy	-10.9041
▁Television	-10.9041
▁University	-10.9041
▁Vietnam	-10.9041
▁accuracy	-10.9041
▁album	-10.9041
▁astonishing	-10.9041
▁atmospheric	-10.9041
▁biblical	-10.9041
▁chapter	-10.9041
▁choreography	-10.9041
▁domestic	-10.9041
▁imaginative	-10.9041
▁lesbian	-10.9041
▁obscure	-10.9041
▁ocean	-10.9041
▁origins	-10.9041
▁qualities	-10.9041
▁remote	-10.9041
▁rendition	-10.9041
▁sleazy	-10.9041
▁suspend	-10.9041
▁terribly	-10.9041
▁vague	-10.9041
▁volume	-10.9041
▁Alicia	-10.9041
▁Ritter	-10.9041
▁Spock	-10.9041
▁Walker	-10.9041
▁courage	-10.9041
▁function	-10.9041
▁understated	-10.9041
▁Laura	-10.9041
▁elderly	-10.9041
▁insanity	-10.9041
▁rural	-10.9041
▁unfair	-10.9041
▁worried	-10.9041
▁Bauer	-10.9041
▁Ollie	-10.9041
▁hippie	-10.9041
▁eleven	-10.9041
▁Dyke	-10.9041
▁Lucas	-10.9041
▁queen	-10.9041
▁gonna	-10.9041
▁lyric	-10.9041
▁Batman	-10.9041
▁Worth	-10.9041
▁goofy	-10.9041
▁river	-10.9041
▁excuse	-10.9041
▁Aaron	-10.9041
▁Blue	-10.9041
▁Wallace	-10.9041
▁Series	-10.9041
▁piano	-10.9041
▁angry	-10.9041
▁invite	-10.9041
▁Barrymore	-10.9041
▁pitch	-10.9041
door	-10.9041
▁introduction	-10.9041
▁Kumar	-10.9041
▁strain	-10.9041
▁fond	-10.9042
▁satiric	-10.9042
▁inventive	-10.9042
▁storm	-10.9042
▁blockbuster	-10.9042
▁Downey	-10.9042
ternal	-10.9042
▁spread	-10.9042
▁slice	-10.9042
▁angst	-10.9042
▁Palma	-10.9042
▁outfit	-10.9042
▁planned	-10.9042
▁psychiatrist	-10.9042
▁wrap	-10.9043
▁elsewhere	-10.9043
▁poem	-10.9043
▁frag	-10.9043
▁foil	-10.9043
▁Jewis	-10.9044
▁Perry	-10.9044
▁prejudice	-10.9044
▁China	-10.9044
▁compassion	-10.9045
▁survival	-10.9045
▁block	-10.9046
▁pool	-10.9046
▁Cox	-10.9046
▁dazzl	-10.9046
▁Damon	-10.9047
▁mile	-10.9047
▁Wright	-10.9047
▁Rule	-10.9048
▁bias	-10.9048
▁Kung	-10.9048
▁fade	-10.9048
▁Wave	-10.9049
▁authority	-10.9049
▁beaten	-10.9049
▁Horror	-10.905
▁Gandhi	-10.905
▁sacrifice	-10.905
▁uniform	-10.905
▁mysteries	-10.905
▁sake	-10.9051
▁Vol	-10.9052
▁spare	-10.9054
▁affection	-10.9054
▁Liu	-10.9055
▁Sha	-10.9055
▁Sadly	-10.9056
▁Buck	-10.9056
▁heroic	-10.9058
▁thirty	-10.9058
▁Regi	-10.9059
▁sung	-10.906
▁dirty	-10.906
▁WW	-10.906
▁gather	-10.9061
▁Sullivan	-10.9061
▁Spin	-10.9062
▁Simpl	-10.9063
▁Foo	-10.9064
▁dry	-10.9065
vyn	-10.9065
▁suitable	-10.9065
▁Bug	-10.9067
▁Things	-10.9067
medical	-10.9067
▁Pegg	-10.9068
▁deny	-10.9068
▁journalist	-10.907
core	-10.9074
▁Claire	-10.9075
▁fallen	-10.9076
▁convinced	-10.9079
▁PG	-10.9079
▁Dance	-10.908
tered	-10.9082
▁provoking	-10.9085
▁Ron	-10.9086
▁64	-10.9088
▁SPOILERS	-10.909
▁Last	-10.9091
unner	-10.9092
▁conventional	-10.9092
▁inspiration	-10.9095
▁driven	-10.9103
▁stalk	-10.9105
▁existed	-10.9107
icity	-10.9109
▁gory	-10.9111
▁photographed	-10.9115
except	-10.9115
▁factory	-10.9117
▁Lam	-10.9122
??	-10.9124
▁Ku	-10.9124
▁CD	-10.9128
▁adapted	-10.9128
▁survived	-10.9135
earing	-10.9141
▁Top	-10.9141
▁gall	-10.9146
late	-10.9148
RS	-10.9152
▁Miles	-10.9153
▁Son	-10.9162
Then	-10.9166
▁nominations	-10.917
▁Saw	-10.9171
▁thrilling	-10.9171
▁passed	-10.9187
▁remaining	-10.9187
▁designed	-10.9189
pin	-10.9191
▁escap	-10.9194
▁Winters	-10.9198
▁demands	-10.9199
oli	-10.9202
▁Mey	-10.9204
about	-10.9227
▁notably	-10.9229
▁refuses	-10.9237
▁creep	-10.9241
▁figured	-10.9252
▁holes	-10.9254
▁Pop	-10.9256
▁AT	-10.9274
▁talked	-10.9275
▁attempted	-10.9284
rek	-10.9285
then	-10.9288
▁considerabl	-10.9293
egal	-10.9294
▁Chi	-10.9303
▁Shar	-10.9307
▁Gri	-10.9321
▁lacking	-10.9336
related	-10.9342
▁buffs	-10.9344
▁Lot	-10.9353
▁performers	-10.9354
unn	-10.9358
Fire	-10.9358
▁Sch	-10.9366
▁methods	-10.9368
▁bear	-10.9388
aunt	-10.9395
unk	-10.9405
▁pursue	-10.9414
▁Wal	-10.9421
▁reactions	-10.9432
FX	-10.9433
▁posters	-10.9444
▁guessing	-10.9446
ken	-10.9449
yes	-10.945
▁sends	-10.946
▁Hat	-10.9492
max	-10.9506
iving	-10.9514
▁Bla	-10.9536
roll	-10.9544
*****	-10.9548
cious	-10.9571
▁25	-10.9601
movies	-10.9613
▁possesse	-10.9617
▁cameos	-10.962
▁placed	-10.9637
rump	-10.9664
▁ge	-10.9677
enni	-10.9679
▁improve	-10.9685
▁remark	-10.9697
▁bug	-10.9703
▁heat	-10.9705
▁flaw	-10.9708
▁Ned	-10.9734
▁Neil	-10.9742
▁activi	-10.9754
▁Tap	-10.9758
▁pen	-10.9765
▁shine	-10.9765
anna	-10.9776
▁san	-10.9807
▁gag	-10.9826
▁si	-10.9848
ELL	-10.987
characterization	-10.9886
▁Greg	-10.9889
helm	-10.9903
▁tea	-10.9904
CH	-10.9921
▁"10	-10.9931
acted	-10.9934
▁chas	-10.9942
▁Ce	-10.9942
bble	-10.996
Direct	-10.9969
Z	-10.9971
▁trans	-10.9975
Where	-10.9979
dge	-10.9979
Arthur	-10.9981
High	-10.9982
▁disturb	-10.9982
▁annoy	-10.9982
from	-10.9982
weight	-10.9983
vision	-10.9983
beat	-10.9988
Just	-10.9989
Holes	-10.999
human	-10.999
▁employ	-10.9991
▁impress	-10.9993
notch	-10.9998
▁initial	-10.9999
▁instant	-10.9999
▁mode	-11.0001
room	-11.0002
▁wealth	-11.0008
▁freak	-11.0008
▁urge	-11.0009
▁Ste	-11.0012
ride	-11.0022
▁experiment	-11.003
▁stole	-11.0031
May	-11.0032
▁select	-11.0036
▁collect	-11.0037
roduction	-11.0039
▁border	-11.004
▁companion	-11.004
▁consist	-11.004
▁punish	-11.004
dolph	-11.0041
Bonanza	-11.0041
DEAD	-11.0041
▁1986	-11.0041
▁1996	-11.0041
▁2004	-11.0041
▁2005	-11.0041
▁BAFTA	-11.0041
▁Beauty	-11.0041
▁Darius	-11.0041
▁Duryea	-11.0041
▁Kurosawa	-11.0041
▁Maggie	-11.0041
▁Massey	-11.0041
▁Novak	-11.0041
▁Obviously	-11.0041
▁Seymour	-11.0041
▁Straight	-11.0041
▁Todesking	-11.0041
▁Together	-11.0041
▁Verhoeven	-11.0041
▁Voight	-11.0041
▁Yellow	-11.0041
▁absorb	-11.0041
▁argument	-11.0041
▁awaken	-11.0041
▁backdrop	-11.0041
▁category	-11.0041
▁complement	-11.0041
▁composition	-11.0041
▁confirm	-11.0041
▁cowboy	-11.0041
▁culminat	-11.0041
▁dedicated	-11.0041
▁disbelief	-11.0041
▁elegant	-11.0041
▁elephant	-11.0041
▁encourage	-11.0041
▁execution	-11.0041
▁franchise	-11.0041
▁horrific	-11.0041
▁installment	-11.0041
▁jazz	-11.0041
▁jealous	-11.0041
▁magazine	-11.0041
▁monastery	-11.0041
▁obtain	-11.0041
▁ourselves	-11.0041
▁patterns	-11.0041
▁principal	-11.0041
▁racism	-11.0041
▁respond	-11.0041
▁riveting	-11.0041
▁scenario	-11.0041
▁sidekick	-11.0041
▁sketch	-11.0041
▁slapstick	-11.0041
▁species	-11.0041
▁spooky	-11.0041
▁stirring	-11.0041
▁sympathize	-11.0041
▁sympathy	-11.0041
▁technology	-11.0041
▁twenty	-11.0041
▁unravel	-11.0041
▁August	-11.0041
▁Aussie	-11.0041
▁Pierce	-11.0041
▁buddy	-11.0041
▁combat	-11.0041
▁evoke	-11.0041
▁hysterical	-11.0041
▁idiot	-11.0041
▁informative	-11.0041
▁sleaze	-11.0041
▁sweep	-11.0041
▁thankfully	-11.0041
▁wreck	-11.0041
▁WWII	-11.0041
▁advise	-11.0041
▁reduce	-11.0041
▁Vega	-11.0041
▁liberal	-11.0041
▁Ishwar	-11.0041
▁eerie	-11.0041
▁mixture	-11.0041
crease	-11.0041
▁chain	-11.0041
▁ensue	-11.0041
▁fortune	-11.0041
=	-11.0041
▁priest	-11.0041
▁Terry	-11.0041
▁inherent	-11.0041
▁menacing	-11.0041
▁vampire	-11.0041
▁grasp	-11.0041
▁damage	-11.0041
▁vital	-11.0041
▁CIA	-11.0041
▁Reeve	-11.0041
▁documentaries	-11.0041
▁empty	-11.0041
▁abrupt	-11.0041
▁dubbed	-11.0041
▁Godfather	-11.0041
▁kiss	-11.0041
▁float	-11.0041
▁argue	-11.0041
▁dump	-11.0041
▁oppose	-11.0041
▁tele	-11.0041
▁Dickens	-11.0041
▁adopt	-11.0041
▁pause	-11.0041
▁unhapp	-11.0041
▁surf	-11.0041
▁legs	-11.0041
▁Pitch	-11.0041
▁Otherwise	-11.0041
▁lift	-11.0041
▁Technicolor	-11.0041
▁Burn	-11.0042
▁paper	-11.0042
▁gro	-11.0042
▁junk	-11.0042
▁savage	-11.0042
▁basis	-11.0042
▁subplot	-11.0042
▁saga	-11.0042
▁circus	-11.0042
▁humble	-11.0042
▁forgot	-11.0042
▁THI	-11.0042
▁flair	-11.0042
▁underground	-11.0042
▁distance	-11.0043
▁guard	-11.0043
▁revolutionary	-11.0043
▁Bridge	-11.0043
▁understood	-11.0043
▁household	-11.0043
▁roof	-11.0043
▁spiritual	-11.0043
▁invention	-11.0043
▁depart	-11.0043
▁iconic	-11.0043
▁nerd	-11.0044
▁audio	-11.0044
▁gratuitous	-11.0044
Title	-11.0044
▁meaningful	-11.0044
▁colorful	-11.0045
▁Deanna	-11.0045
▁mansion	-11.0045
▁cities	-11.0045
▁Khan	-11.0046
dium	-11.0046
▁blast	-11.0046
▁Susan	-11.0046
▁73	-11.0046
ential	-11.0047
▁unbelievable	-11.0047
▁Nice	-11.0047
▁Russian	-11.0047
▁Donna	-11.0048
▁CGI	-11.0048
ggle	-11.0048
▁statement	-11.0049
▁revolves	-11.0049
▁tenant	-11.0049
▁international	-11.005
▁respective	-11.005
▁Human	-11.005
▁Mother	-11.005
▁9/11	-11.0051
▁September	-11.0051
▁Fair	-11.0051
▁rebel	-11.0051
▁Antonioni	-11.0051
weig	-11.0052
▁acceptable	-11.0053
▁Bush	-11.0053
▁Turn	-11.0053
▁Wang	-11.0054
▁reflection	-11.0055
▁stolen	-11.0055
▁handful	-11.0055
▁medium	-11.0056
▁bold	-11.0057
▁bodies	-11.0057
▁Denz	-11.0057
▁Whoopi	-11.0057
▁Pol	-11.0059
▁Emily	-11.006
▁mystic	-11.0061
▁mill	-11.0062
▁dust	-11.0062
▁sold	-11.0062
▁Seven	-11.0062
▁engaged	-11.0063
▁Color	-11.0063
▁Meanwhile	-11.0063
▁connect	-11.0064
ummy	-11.0064
▁fulfill	-11.0065
ggy	-11.0065
▁spoken	-11.0068
▁purchased	-11.0069
▁promising	-11.007
▁Sara	-11.007
▁scope	-11.007
▁driver	-11.007
▁frankly	-11.0074
▁cra	-11.0074
▁Quaid	-11.0076
ari	-11.0076
▁surrounding	-11.0076
▁Flavia	-11.0076
▁Hamlet	-11.0076
▁consistently	-11.0078
▁approaches	-11.0079
▁bang	-11.008
▁instantly	-11.0083
▁stark	-11.0083
▁Cage	-11.0083
▁Atlantis	-11.0083
▁initially	-11.0085
tech	-11.0085
▁Bob	-11.0086
▁Spi	-11.0087
▁mindless	-11.0087
▁understandable	-11.0088
▁Danes	-11.009
▁pointless	-11.009
Kurt	-11.0094
▁quit	-11.0094
▁lay	-11.0095
▁Christy	-11.0095
notorious	-11.0095
▁defeated	-11.0097
........	-11.0103
▁farce	-11.0103
▁Does	-11.0105
▁Hunter	-11.0106
▁Tone	-11.011
▁accomplished	-11.0111
▁Tu	-11.0111
▁SG	-11.0112
▁Where	-11.0114
▁limit	-11.0115
▁field	-11.0117
▁Studios	-11.012
▁thumbs	-11.012
▁dia	-11.0122
▁delivery	-11.0123
▁truck	-11.0123
ora	-11.0124
▁warning	-11.0127
ES	-11.013
▁destroyed	-11.0132
▁mentally	-11.0135
▁expressed	-11.0147
▁weapons	-11.0152
▁directly	-11.0155
▁acid	-11.0164
▁shoulders	-11.0166
enig	-11.0171
▁Kay	-11.0178
▁Holt	-11.0178
Let	-11.0179
▁Gregor	-11.0194
▁lock	-11.0198
▁lesser	-11.0206
▁Bud	-11.0209
ograph	-11.0209
▁campy	-11.0209
▁mate	-11.0214
fun	-11.0224
▁OR	-11.0226
▁Wai	-11.0229
▁Sur	-11.024
▁hum	-11.024
▁isolat	-11.0243
▁beach	-11.0247
▁ingredients	-11.0248
▁Games	-11.0248
▁solo	-11.0249
▁fo	-11.0254
▁grin	-11.0259
sui	-11.026
▁catching	-11.0262
▁recording	-11.0264
▁Count	-11.0275
▁Come	-11.028
uous	-11.0285
▁Shep	-11.0287
---	-11.0287
pert	-11.0291
hold	-11.0308
▁chills	-11.0314
unny	-11.033
▁bitch	-11.034
▁Gun	-11.0352
Neill	-11.0359
ook	-11.0363
erk	-11.0371
▁stunts	-11.0378
▁bears	-11.0384
pho	-11.0401
▁creatures	-11.041
Ma	-11.0411
▁flashbacks	-11.0443
▁topics	-11.0443
UT	-11.0446
▁tap	-11.0466
▁rag	-11.0466
▁decisions	-11.0476
▁techniques	-11.0476
▁dominate	-11.0476
▁areas	-11.0483
▁enabl	-11.0486
▁hearing	-11.0487
ita	-11.0515
▁sour	-11.0533
Dr	-11.0579
▁unit	-11.0593
▁intentional	-11.0624
aude	-11.0629
▁Ford	-11.0647
▁Main	-11.0651
leak	-11.0661
irty	-11.0671
cha	-11.0674
▁torture	-11.0675
▁kn	-11.0681
▁194	-11.07
▁dimension	-11.0703
▁Conn	-11.0715
▁Blo	-11.0731
▁Wil	-11.0735
▁Dor	-11.0736
was	-11.0743
▁Charl	-11.0747
80	-11.076
iding	-11.0787
▁cared	-11.0788
▁additional	-11.0794
▁Lan	-11.0794
▁chill	-11.0795
▁succeed	-11.0811
pul	-11.0818
lain	-11.0835
▁logic	-11.0854
▁reference	-11.0861
▁Brother	-11.0863
ield	-11.0865
▁GO	-11.088
key	-11.0889
▁afterward	-11.0891
OW	-11.091
seat	-11.0917
void	-11.0933
rawl	-11.0958
▁TRI	-11.0964
umber	-11.0974
ption	-11.0996
Give	-11.1002
ira	-11.1021
▁plea	-11.1028
▁Are	-11.1031
ille	-11.1034
***	-11.1035
look	-11.1042
▁disappoint	-11.1044
▁collapse	-11.1046
▁haunt	-11.1047
Q	-11.1089
Brazil	-11.109
▁Q	-11.109
world	-11.109
mission	-11.1091
Cinderella	-11.1092
grade	-11.1092
famous	-11.1093
doubt	-11.1093
blood	-11.1093
Most	-11.1093
▁refer	-11.1093
James	-11.1093
wife	-11.1093
comedy	-11.1094
under	-11.1095
Come	-11.1095
worth	-11.1096
▁threat	-11.1096
water	-11.1096
SPOILERS	-11.1096
born	-11.1097
Jack	-11.1097
George	-11.11
load	-11.1103
▁consistent	-11.1112
▁cook	-11.1113
▁scar	-11.1114
Still	-11.1115
lucky	-11.1117
▁advance	-11.112
▁purchase	-11.112
▁marrie	-11.1122
▁nuance	-11.1122
rainy	-11.1124
THE	-11.1125
▁bore	-11.1142
▁revolv	-11.1142
SPOILER	-11.1146
▁celebrat	-11.1148
▁corrupt	-11.1148
▁slave	-11.115
▁loyal	-11.115
▁Patric	-11.115
IGHT	-11.1152
ã	-11.1152
▁Dangerously	-11.1152
▁explanation	-11.1152
▁immortal	-11.1152
▁relentless	-11.1152
Deliverance	-11.1152
Spoiler	-11.1152
obsessed	-11.1152
rguably	-11.1152
thology	-11.1152
▁Agatha	-11.1152
▁Amazing	-11.1152
▁Celeste	-11.1152
▁Chicago	-11.1152
▁DeNiro	-11.1152
▁Felix	-11.1152
▁Gilbert	-11.1152
▁Granger	-11.1152
▁Gretchen	-11.1152
▁Guevara	-11.1152
▁Henderson	-11.1152
▁IMDB	-11.1152
▁Interesting	-11.1152
▁Kansas	-11.1152
▁Lawrence	-11.1152
▁Lloyd	-11.1152
▁Meadows	-11.1152
▁Mexican	-11.1152
▁Orleans	-11.1152
▁Pearl	-11.1152
▁Secret	-11.1152
▁Swedish	-11.1152
▁Ustinov	-11.1152
▁advice	-11.1152
▁ambitious	-11.1152
▁announce	-11.1152
▁appreciati	-11.1152
▁biography	-11.1152
▁campaign	-11.1152
▁celebrity	-11.1152
▁chuckle	-11.1152
▁companies	-11.1152
▁compliment	-11.1152
▁contrived	-11.1152
▁definitive	-11.1152
▁depression	-11.1152
▁eccentric	-11.1152
▁education	-11.1152
▁enthrall	-11.1152
▁exhibit	-11.1152
▁gambling	-11.1152
▁grandmother	-11.1152
▁gruesome	-11.1152
▁league	-11.1152
▁opportunities	-11.1152
▁permanent	-11.1152
▁poverty	-11.1152
▁president	-11.1152
▁principle	-11.1152
▁profanity	-11.1152
▁provocative	-11.1152
▁recognition	-11.1152
▁relevant	-11.1152
▁restaurant	-11.1152
▁scheme	-11.1152
▁service	-11.1152
▁sneak	-11.1152
▁stellar	-11.1152
▁stomach	-11.1152
▁supreme	-11.1152
▁ticket	-11.1152
▁tribute	-11.1152
▁uncomfortable	-11.1152
▁underneath	-11.1152
▁unpleasant	-11.1152
▁venture	-11.1152
▁yesterday	-11.1152
▁Abbot	-11.1152
▁Freedom	-11.1152
▁Hayward	-11.1152
▁Olivier	-11.1152
▁Summer	-11.1152
▁dinner	-11.1152
▁dwarf	-11.1152
▁mechanic	-11.1152
▁milk	-11.1152
▁pseudo	-11.1152
▁silence	-11.1152
▁testament	-11.1152
▁visible	-11.1152
▁Hagar	-11.1152
▁LOT	-11.1152
▁Nadia	-11.1152
▁destruction	-11.1152
▁mouth	-11.1152
▁reunite	-11.1152
▁trauma	-11.1152
▁ultra	-11.1152
▁Reiser	-11.1152
▁Wolf	-11.1152
▁gloss	-11.1152
▁cash	-11.1152
▁virus	-11.1152
▁seventies	-11.1152
▁lurk	-11.1152
▁unleash	-11.1152
▁boast	-11.1152
▁exceed	-11.1152
▁smell	-11.1152
▁drown	-11.1152
▁newcomer	-11.1152
▁accessible	-11.1152
▁executive	-11.1152
▁neck	-11.1152
▁Saint	-11.1152
▁vicious	-11.1152
▁conservative	-11.1152
▁controversial	-11.1152
▁Cameron	-11.1152
▁bathroom	-11.1152
▁electric	-11.1152
▁Karloff	-11.1152
▁tongue	-11.1152
▁bucks	-11.1152
▁transfer	-11.1152
▁fanatic	-11.1152
▁jerk	-11.1152
▁solve	-11.1152
▁network	-11.1153
▁locate	-11.1153
▁minimal	-11.1153
▁Cruise	-11.1153
▁transition	-11.1153
▁summary	-11.1153
▁Middle	-11.1153
▁banter	-11.1153
▁hiding	-11.1153
▁poetry	-11.1153
▁poison	-11.1153
▁invisible	-11.1153
▁landmark	-11.1153
▁miracle	-11.1153
▁Robinson	-11.1153
▁trend	-11.1154
▁pathos	-11.1154
▁Living	-11.1154
▁blank	-11.1154
▁reject	-11.1154
▁Zero	-11.1154
▁nail	-11.1154
▁shall	-11.1154
▁Tommy	-11.1154
▁punishment	-11.1154
▁Latin	-11.1154
▁taut	-11.1154
▁exploitation	-11.1155
▁habit	-11.1155
▁contribution	-11.1155
AST	-11.1155
▁bottle	-11.1155
▁linger	-11.1155
▁merit	-11.1155
▁Leonard	-11.1155
▁sappy	-11.1156
▁boat	-11.1156
▁nude	-11.1156
▁Ultimatum	-11.1156
▁property	-11.1156
▁sentence	-11.1156
▁Burg	-11.1156
▁cake	-11.1156
▁insightful	-11.1156
▁Ern	-11.1156
stood	-11.1156
▁Know	-11.1157
▁Unlike	-11.1157
▁passage	-11.1157
▁Hope	-11.1158
▁mentality	-11.1159
▁Dandy	-11.1159
▁Kenne	-11.1159
▁Brand	-11.1159
▁Alex	-11.1159
▁Erik	-11.116
▁Caine	-11.116
▁Could	-11.1161
▁beast	-11.1161
▁standout	-11.1162
▁glamorous	-11.1163
drum	-11.1163
▁composed	-11.1163
▁Consider	-11.1163
▁gar	-11.1163
Gross	-11.1164
▁experimental	-11.1164
▁Mala	-11.1164
▁Dunne	-11.1164
VERY	-11.1165
▁coach	-11.1166
▁masses	-11.1166
▁Anton	-11.1168
▁uneven	-11.1169
▁MY	-11.117
▁filthy	-11.117
▁vice	-11.1171
▁exaggerated	-11.1171
▁Raines	-11.1172
▁Four	-11.1172
▁Whatever	-11.1172
▁Acting	-11.1173
▁lifestyle	-11.1173
▁belt	-11.1174
▁intend	-11.1174
▁Burt	-11.1174
▁carefully	-11.1174
▁Carrey	-11.1174
▁dro	-11.1174
▁Kris	-11.1176
▁exposed	-11.1176
▁terrorist	-11.1177
omen	-11.1177
▁Brilliant	-11.1177
▁Recommended	-11.1177
▁Writer	-11.1177
▁Irish	-11.1179
▁hack	-11.1179
▁Heart	-11.1179
▁Robin	-11.1181
▁green	-11.1181
dropping	-11.1181
▁occurred	-11.1182
▁advanced	-11.1184
▁Mick	-11.1186
▁Ball	-11.1188
▁amid	-11.1192
▁exit	-11.1192
▁established	-11.1198
▁disgusting	-11.1199
▁pun	-11.12
▁Stro	-11.1203
▁assist	-11.1203
▁bully	-11.1204
ncle	-11.1204
critical	-11.1204
▁saving	-11.1206
▁frustrating	-11.1206
▁Force	-11.1213
▁masterfully	-11.1214
▁Brazil	-11.1214
▁upset	-11.1215
▁Vera	-11.1217
▁Hand	-11.1228
▁bothered	-11.1229
▁Louise	-11.1231
▁appropriately	-11.1234
▁rear	-11.1234
▁painter	-11.1234
▁contained	-11.1235
▁Away	-11.1237
▁Nation	-11.1238
▁bone	-11.1238
▁displayed	-11.1241
▁stream	-11.1244
▁justif	-11.1245
isation	-11.125
▁counter	-11.1252
▁Macy	-11.1254
▁rewarding	-11.1257
▁Guy	-11.126
bul	-11.1263
▁Jon	-11.1263
▁judged	-11.1271
▁_	-11.1278
▁Line	-11.1291
▁parties	-11.1292
IG	-11.1293
▁candy	-11.1296
▁Sup	-11.1304
burg	-11.1312
Lisa	-11.1313
▁Stu	-11.1323
done	-11.1333
▁Loy	-11.1341
▁net	-11.1341
▁creators	-11.1349
▁thousands	-11.1349
▁classical	-11.1357
▁online	-11.1358
▁fat	-11.1359
wan	-11.1364
▁crying	-11.1371
▁related	-11.1381
Boog	-11.1389
▁Ram	-11.14
Enter	-11.1404
Mr	-11.1417
▁citizens	-11.1422
▁occasions	-11.1422
stud	-11.1424
▁lacked	-11.1434
esque	-11.1435
Go	-11.1439
▁classy	-11.1443
Po	-11.1444
▁web	-11.1452
Za	-11.1475
Pete	-11.1476
▁returned	-11.1489
ONE	-11.1494
▁den	-11.1495
phi	-11.15
▁Walt	-11.15
▁beard	-11.1506
▁Est	-11.1517
Cut	-11.1521
▁Sin	-11.153
▁greatness	-11.153
eb	-11.154
▁dose	-11.1551
▁summ	-11.1556
▁Ac	-11.1561
▁meeting	-11.1567
SH	-11.1575
ALL	-11.1576
▁impos	-11.1578
▁angle	-11.1584
lia	-11.1602
mbo	-11.161
▁Weir	-11.1625
ntin	-11.1633
ige	-11.1634
▁scr	-11.1647
▁Dam	-11.1679
▁item	-11.1689
phe	-11.1732
▁fly	-11.174
▁sparkl	-11.1741
NO	-11.1762
▁spark	-11.1774
ada	-11.1784
▁Cast	-11.1805
IE	-11.1822
ndon	-11.1836
BS	-11.1861
▁dar	-11.1872
Che	-11.1875
cies	-11.1879
ego	-11.1886
rden	-11.1891
handed	-11.1912
▁Marc	-11.1972
apping	-11.1989
▁entr	-11.1989
▁tip	-11.2
US	-11.2068
ona	-11.2072
ility	-11.209
▁occasion	-11.2092
ception	-11.2093
▁citizen	-11.2106
▁Year	-11.2111
ko	-11.2117
▁temp	-11.2133
▁kee	-11.2134
▁ka	-11.2135
rude	-11.214
vie	-11.2156
▁spoiler	-11.2166
▁Run	-11.2201
▁dancer	-11.2203
ashing	-11.2205
▁arc	-11.2213
▁ban	-11.2215
porting	-11.2216
aste	-11.222
▁inspire	-11.2236
▁judg	-11.2242
▁dra	-11.2247
zer	-11.225
▁sav	-11.2264
▁Wi	-11.2267
▁hole	-11.2281
▁ear	-11.2284
▁gut	-11.2286
▁controll	-11.2295
▁Arc	-11.2298
called	-11.2299
▁relat	-11.2306
itions	-11.2314
abbing	-11.2318
▁decid	-11.2328
▁swim	-11.2334
orporation	-11.2336
▁frustrat	-11.2336
word	-11.2339
▁fascinat	-11.2339
provoking	-11.2341
▁render	-11.2341
Finally	-11.2341
produce	-11.2342
Since	-11.2342
Little	-11.2342
Unfortunately	-11.2342
piece	-11.2342
Columbo	-11.2342
filled	-11.2342
▁satisfy	-11.2343
Michael	-11.2343
great	-11.2343
▁illustrate	-11.2344
felt	-11.2345
64	-11.2346
personal	-11.2346
22	-11.2347
30	-11.2347
dead	-11.2348
▁profession	-11.2349
▁adapt	-11.2349
place	-11.2349
based	-11.235
▁advertis	-11.2355
▁arrest	-11.2356
check	-11.2359
8/10	-11.2361
▁frank	-11.2361
funny	-11.2362
▁utter	-11.2362
book	-11.2369
▁combine	-11.237
▁Barb	-11.2372
▁restore	-11.2372
aka	-11.2383
▁Ze	-11.2383
▁Fran	-11.2385
fall	-11.2386
▁spoke	-11.2387
▁SO	-11.2389
▁Trac	-11.2396
Up	-11.2397
▁Million	-11.2397
also	-11.2398
etween	-11.2399
▁Hanna	-11.24
▁assassin	-11.24
Fro	-11.24
antastic	-11.24
avorite	-11.24
rivate	-11.24
▁Rich	-11.24
▁birth	-11.2401
▁homosexual	-11.2402
pocalyp	-11.2402
▁'70	-11.2402
▁claustrophobic	-11.2402
▁contemplat	-11.2402
▁devastat	-11.2402
▁dictator	-11.2402
▁distinct	-11.2402
▁ruthless	-11.2402
Waqt	-11.2402
dieval	-11.2402
fidelity	-11.2402
irplane	-11.2402
▁1960	-11.2402
▁Amazon	-11.2402
▁Apparently	-11.2402
▁Berkeley	-11.2402
▁Carpenter	-11.2402
▁Century	-11.2402
▁Character	-11.2402
▁Gandolfini	-11.2402
▁Globe	-11.2402
▁Hamilton	-11.2402
▁Hopper	-11.2402
▁Johansson	-11.2402
▁Lombard	-11.2402
▁Luckily	-11.2402
▁MOVIE	-11.2402
▁McNally	-11.2402
▁Mildred	-11.2402
▁Paxton	-11.2402
▁Psycho	-11.2402
▁Scalise	-11.2402
▁Scarlet	-11.2402
▁Scotland	-11.2402
▁Screenplay	-11.2402
▁Shirley	-11.2402
▁Soderbergh	-11.2402
▁Spencer	-11.2402
▁Streep	-11.2402
▁Supremacy	-11.2402
▁Tokyo	-11.2402
▁accompani	-11.2402
▁adequate	-11.2402
▁admirably	-11.2402
▁aggressive	-11.2402
▁alternative	-11.2402
▁applie	-11.2402
▁attribute	-11.2402
▁behaviour	-11.2402
▁captain	-11.2402
▁communicat	-11.2402
▁conspiracy	-11.2402
▁credibility	-11.2402
▁credible	-11.2402
▁detract	-11.2402
▁diversity	-11.2402
▁emphasis	-11.2402
▁enlist	-11.2402
▁holiday	-11.2402
▁legacy	-11.2402
▁literature	-11.2402
▁newspaper	-11.2402
▁nostalgia	-11.2402
▁phenomenal	-11.2402
▁popcorn	-11.2402
▁prominent	-11.2402
▁psyche	-11.2402
▁puzzle	-11.2402
▁racial	-11.2402
▁religion	-11.2402
▁resident	-11.2402
▁servant	-11.2402
▁spectator	-11.2402
▁tactic	-11.2402
▁universal	-11.2402
▁unrealistic	-11.2402
american	-11.2402
▁Abbey	-11.2402
▁Connolly	-11.2402
▁Dudley	-11.2402
▁Fonda	-11.2402
▁Grinch	-11.2402
▁Levant	-11.2402
▁Nelson	-11.2402
▁corpse	-11.2402
▁dignity	-11.2402
▁enlighten	-11.2402
▁illuminat	-11.2402
▁indulge	-11.2402
▁injustice	-11.2402
▁orchestra	-11.2402
▁restoration	-11.2402
▁session	-11.2402
▁splash	-11.2402
▁Pabst	-11.2402
▁Payne	-11.2402
▁centre	-11.2402
▁miserable	-11.2402
▁AIDS	-11.2402
▁Owen	-11.2402
▁Steele	-11.2402
▁cream	-11.2402
▁mistress	-11.2402
▁vibrant	-11.2402
▁Cecil	-11.2402
▁serial	-11.2402
▁Salva	-11.2402
▁funnier	-11.2402
▁indicate	-11.2402
▁orphan	-11.2402
▁warrior	-11.2402
▁library	-11.2402
oriented	-11.2402
▁ease	-11.2402
▁Next	-11.2402
▁varying	-11.2402
comfort	-11.2402
▁Harvey	-11.2402
▁sharing	-11.2402
▁delve	-11.2402
▁Antonio	-11.2402
▁calm	-11.2402
▁resist	-11.2402
▁enchanting	-11.2402
▁demented	-11.2402
Murray	-11.2402
▁Alfre	-11.2402
▁resonate	-11.2402
▁Indeed	-11.2402
proportion	-11.2402
▁broadcast	-11.2402
▁horn	-11.2402
▁scratch	-11.2402
▁inherit	-11.2402
▁1997	-11.2402
▁nerve	-11.2402
▁exploration	-11.2402
▁stumble	-11.2402
▁sublim	-11.2402
▁predator	-11.2402
▁Carface	-11.2402
▁apple	-11.2402
▁breast	-11.2402
wrenching	-11.2402
▁Carrie	-11.2402
▁alcoholic	-11.2402
WAY	-11.2403
▁recover	-11.2403
▁2007	-11.2403
▁digital	-11.2403
▁KNOW	-11.2403
▁edition	-11.2403
▁contend	-11.2403
▁Friday	-11.2403
▁Quin	-11.2403
▁legal	-11.2403
▁soccer	-11.2403
▁ugly	-11.2403
▁Franco	-11.2403
▁Army	-11.2403
ivil	-11.2403
▁integrity	-11.2403
▁Karen	-11.2404
tig	-11.2404
▁bridge	-11.2404
▁injur	-11.2404
▁cere	-11.2404
▁loyalty	-11.2404
▁Diana	-11.2404
▁misery	-11.2404
Further	-11.2404
▁Chuck	-11.2404
▁construction	-11.2405
▁clip	-11.2405
▁fluff	-11.2405
▁continuous	-11.2405
▁Warren	-11.2405
▁obsession	-11.2406
▁mice	-11.2406
▁frustration	-11.2406
▁diner	-11.2406
▁conductor	-11.2406
▁foolish	-11.2406
▁corruption	-11.2406
▁authenticity	-11.2407
▁Bolt	-11.2407
▁motor	-11.2407
Price	-11.2407
▁temple	-11.2407
▁shootout	-11.2407
▁melodramatic	-11.2407
▁Jake	-11.2408
▁bubbl	-11.2408
▁imagery	-11.2408
▁colonial	-11.2408
▁priceless	-11.2408
▁safety	-11.2408
▁slap	-11.2409
▁laz	-11.2409
▁Grace	-11.2409
▁sadistic	-11.2409
▁Alexandre	-11.241
▁besides	-11.241
evertheless	-11.2411
▁eighties	-11.2411
▁invest	-11.2411
▁forties	-11.2412
▁attraction	-11.2412
▁Arkin	-11.2413
▁aimed	-11.2413
▁illness	-11.2413
▁melt	-11.2414
▁Alway	-11.2414
▁MORE	-11.2414
▁Basically	-11.2414
▁Enjoy	-11.2414
▁1920	-11.2415
▁drain	-11.2415
▁farmer	-11.2415
▁Wonderful	-11.2415
▁Virginia	-11.2415
▁happily	-11.2416
▁tower	-11.2416
▁Fall	-11.2416
▁snow	-11.2416
▁Richardson	-11.2417
▁applaud	-11.2417
▁semi	-11.2417
▁relaxed	-11.2418
▁oil	-11.2418
▁sale	-11.2418
▁fever	-11.2419
▁NY	-11.2421
▁Children	-11.2422
▁tail	-11.2422
▁destiny	-11.2422
▁Craig	-11.2423
▁Sutherland	-11.2423
▁Raymond	-11.2423
▁Natalie	-11.2423
▁fuel	-11.2426
▁Bear	-11.2428
▁policeman	-11.2428
▁tv	-11.2429
▁Russ	-11.243
▁Return	-11.2431
lake	-11.2431
▁moon	-11.2431
▁Fido	-11.2433
▁Apart	-11.2434
▁constructed	-11.2437
▁Peck	-11.2437
▁surrounded	-11.2437
▁Alice	-11.2437
▁noise	-11.2439
▁Poe	-11.244
▁Kier	-11.2441
heriff	-11.2441
▁Toto	-11.2443
odern	-11.2444
▁likewise	-11.2444
▁icon	-11.2445
▁hopeless	-11.2445
▁irritating	-11.2447
▁nonsense	-11.2448
chess	-11.2448
▁demanding	-11.2449
▁advertised	-11.2449
dependenc	-11.2449
▁bland	-11.2449
▁Mira	-11.2451
▁Ark	-11.2451
▁Soup	-11.2455
abre	-11.2455
▁Maur	-11.2461
▁connected	-11.2462
▁politicians	-11.2464
▁rendering	-11.2464
▁vividly	-11.2467
▁Pul	-11.2477
▁press	-11.2479
▁Iris	-11.2479
▁LA	-11.248
▁22	-11.2481
▁slo	-11.2484
▁warned	-11.2485
▁Lion	-11.2489
peaking	-11.2492
▁inject	-11.2494
▁classes	-11.2494
▁Bell	-11.2499
▁lengthy	-11.2499
▁wishes	-11.2501
▁originality	-11.2502
▁Air	-11.2507
▁bam	-11.2508
▁cha	-11.2519
▁recommendation	-11.2521
▁Carolin	-11.2523
ological	-11.2528
Third	-11.2531
▁witnesse	-11.2536
▁Really	-11.2542
▁cope	-11.255
▁pathetic	-11.2556
▁trusted	-11.2564
eyed	-11.2567
ena	-11.2567
▁fashioned	-11.2575
adder	-11.2575
▁rat	-11.2581
▁ruined	-11.2581
▁penn	-11.2593
pig	-11.2603
ax	-11.2604
▁struggl	-11.2607
INE	-11.2612
▁imagined	-11.2613
▁visited	-11.2621
▁prob	-11.2632
▁Sel	-11.2634
▁agreed	-11.2635
▁accepted	-11.2636
▁severe	-11.2647
▁official	-11.2647
ugu	-11.2648
tual	-11.2653
▁refus	-11.2659
▁dash	-11.2662
▁overb	-11.2663
Tom	-11.2683
iar	-11.2714
▁wo	-11.273
LLOW	-11.2741
defin	-11.2742
▁Edg	-11.2742
▁plant	-11.2762
▁card	-11.2793
Mad	-11.2805
▁prim	-11.2807
▁lol	-11.2812
lab	-11.2826
▁concentrate	-11.2829
cue	-11.2833
aker	-11.2863
▁smok	-11.2867
▁clin	-11.2874
▁Land	-11.2885
ulous	-11.2928
How	-11.2952
▁ripp	-11.2962
▁Ven	-11.2962
udge	-11.2977
▁Bab	-11.3021
evil	-11.3028
▁Rea	-11.3105
▁matche	-11.3112
hard	-11.3113
▁Zu	-11.3125
▁Chee	-11.3127
ender	-11.3172
▁Dw	-11.3189
▁Oz	-11.3202
ryn	-11.3245
▁pursu	-11.325
▁escapis	-11.3283
pped	-11.3286
▁participate	-11.3289
▁establish	-11.329
▁reta	-11.3297
▁reader	-11.3351
▁refuse	-11.336
usch	-11.3365
▁manipulate	-11.3368
▁sto	-11.3375
ipped	-11.3396
itive	-11.3423
▁Sid	-11.3427
appy	-11.3459
acting	-11.3461
▁practic	-11.3468
▁Vic	-11.3506
▁Runn	-11.3512
▁ingredient	-11.3535
▁scare	-11.3539
▁dynamic	-11.354
▁Friend	-11.3545
▁Game	-11.3546
▁term	-11.3547
Liza	-11.3557
cross	-11.3561
▁believ	-11.3562
▁Lar	-11.3563
nue	-11.3578
▁Cli	-11.358
graph	-11.3586
20	-11.3588
odd	-11.3593
osa	-11.3602
▁catche	-11.3604
kar	-11.3654
▁caus	-11.3673
▁sens	-11.3689
ister	-11.369
▁HA	-11.3703
hen	-11.3731
▁compete	-11.3736
lower	-11.3739
▁cel	-11.3747
▁historic	-11.375
ground	-11.3762
turned	-11.3768
Atlantis	-11.3769
▁disgust	-11.3769
aware	-11.377
9/10	-11.3771
deserved	-11.3771
amount	-11.3771
developed	-11.3771
William	-11.3771
waiting	-11.3771
familiar	-11.3771
Rock	-11.3771
normal	-11.3771
thriller	-11.3771
perhaps	-11.3771
Paris	-11.3771
Robert	-11.3772
estial	-11.3772
directed	-11.3772
different	-11.3772
guy	-11.3772
Hollywood	-11.3772
eta	-11.3772
will	-11.3774
Jane	-11.3774
realism	-11.3775
written	-11.3775
when	-11.3776
Like	-11.3778
music	-11.3778
phone	-11.3779
scene	-11.3779
Take	-11.378
▁torment	-11.3786
▁unfortunate	-11.379
▁immediate	-11.379
Show	-11.3794
▁quo	-11.3794
Bill	-11.3795
▁overlook	-11.3795
Tim	-11.3796
▁guarantee	-11.3798
▁expose	-11.3798
▁engage	-11.3798
His	-11.3799
▁determine	-11.3799
▁Earl	-11.3799
Marie	-11.3801
▁replace	-11.3801
bbed	-11.3802
▁char	-11.3809
both	-11.3812
▁broke	-11.3816
▁sentiment	-11.382
woman	-11.3824
▁interpret	-11.3827
▁criti	-11.3827
finite	-11.3828
▁Gabriel	-11.3828
▁Serg	-11.3829
▁Que	-11.3829
Here	-11.3829
▁favour	-11.3829
1995	-11.383
▁elect	-11.383
▁labor	-11.383
▁exclusive	-11.383
▁exhaust	-11.383
Silberling	-11.383
▁1969	-11.383
▁1972	-11.383
▁Balanchine	-11.383
▁Cassidy	-11.383
▁Catholic	-11.383
▁Cinematography	-11.383
▁Culkin	-11.383
▁DEVIL	-11.383
▁Dawson	-11.383
▁December	-11.383
▁Fortunately	-11.383
▁Frankenstein	-11.383
▁Hitchcock	-11.383
▁Hopkins	-11.383
▁Kirsten	-11.383
▁Kriemhild	-11.383
▁Lincoln	-11.383
▁Linklater	-11.383
▁Lumière	-11.383
▁McCoy	-11.383
▁Monroe	-11.383
▁Nicola	-11.383
▁Pfeiffer	-11.383
▁Phillips	-11.383
▁Piscopo	-11.383
▁Remember	-11.383
▁Rowland	-11.383
▁Soldier	-11.383
▁Stoltz	-11.383
▁Uriah	-11.383
▁Valerie	-11.383
▁admirable	-11.383
▁anticipate	-11.383
▁architect	-11.383
▁basketball	-11.383
▁buddies	-11.383
▁candidate	-11.383
▁cloak	-11.383
▁conceived	-11.383
▁conclude	-11.383
▁confidence	-11.383
▁curiosity	-11.383
▁diminish	-11.383
▁disguis	-11.383
▁distribute	-11.383
▁dysfunction	-11.383
▁elevator	-11.383
▁energetic	-11.383
▁enthusiasm	-11.383
▁evolve	-11.383
▁faint	-11.383
▁frightened	-11.383
▁giallo	-11.383
▁hallucination	-11.383
▁ideolog	-11.383
▁ignorant	-11.383
▁mundane	-11.383
▁muscle	-11.383
▁necessity	-11.383
▁originat	-11.383
▁overwhelming	-11.383
▁oxygen	-11.383
▁population	-11.383
▁prevail	-11.383
▁recruit	-11.383
▁refuge	-11.383
▁reservation	-11.383
▁rhythm	-11.383
▁rubbish	-11.383
▁salvation	-11.383
▁scaffold	-11.383
▁squad	-11.383
▁subtext	-11.383
▁supply	-11.383
▁trigger	-11.383
▁twelve	-11.383
▁unpredictable	-11.383
▁vacation	-11.383
▁visceral	-11.383
▁vulnerability	-11.383
Casablanca	-11.383
]	-11.383
square	-11.383
è	-11.383
▁1/2	-11.383
▁Alexander	-11.383
▁Belushi	-11.383
▁Channel	-11.383
▁Cheadle	-11.383
▁Cusack	-11.383
▁Dreyfus	-11.383
▁Evil	-11.383
▁Grayson	-11.383
▁Jacque	-11.383
▁Laurie	-11.383
▁alarm	-11.383
▁arrogan	-11.383
▁crisp	-11.383
▁efficien	-11.383
▁embrace	-11.383
▁gorilla	-11.383
▁honour	-11.383
▁irreveren	-11.383
▁lurid	-11.383
▁possibility	-11.383
▁repressed	-11.383
▁request	-11.383
▁tribe	-11.383
▁valuable	-11.383
abilities	-11.383
▁#1	-11.383
▁Ashley	-11.383
▁Dragon	-11.383
▁Fiction	-11.383
▁Flynn	-11.383
▁Gothic	-11.383
▁Magic	-11.383
▁Pixar	-11.383
▁Silver	-11.383
▁constrain	-11.383
▁disgrace	-11.383
▁eliminat	-11.383
▁engine	-11.383
▁examine	-11.383
▁inflict	-11.383
▁montage	-11.383
▁niece	-11.383
▁redeem	-11.383
▁stroke	-11.383
▁wacky	-11.383
Ironically	-11.383
Sanjay	-11.383
▁Dawn	-11.383
▁Prison	-11.383
▁eager	-11.383
▁sailor	-11.383
▁Direction	-11.383
▁Fleet	-11.383
▁SNL	-11.383
▁rarity	-11.383
▁slick	-11.383
▁steam	-11.383
▁Berlin	-11.383
▁Hawn	-11.383
▁Lumet	-11.383
▁Owl	-11.383
▁Tucker	-11.383
▁admittedly	-11.383
▁bonus	-11.383
▁brown	-11.383
▁click	-11.383
1939	-11.383
ocktail	-11.383
offensive	-11.383
▁Gentlem	-11.383
▁Warrior	-11.383
▁artificial	-11.383
▁extend	-11.383
▁interrupt	-11.383
▁Niven	-11.383
▁Serious	-11.383
▁dentist	-11.383
▁parrot	-11.383
▁Father	-11.383
▁assault	-11.383
▁contestants	-11.383
▁River	-11.383
▁aftermath	-11.383
▁SEA	-11.383
▁sixties	-11.383
▁sloppy	-11.383
Soylent	-11.383
▁atrocit	-11.383
▁irony	-11.383
▁protest	-11.383
▁sincerity	-11.383
▁retire	-11.383
▁Talk	-11.383
▁mannerisms	-11.383
▁secur	-11.383
▁Fools	-11.383
▁wander	-11.383
▁Beverly	-11.3831
▁Power	-11.3831
▁frenetic	-11.3831
▁Reid	-11.3831
▁millionaire	-11.3831
Clearly	-11.3831
▁deaf	-11.3831
▁burst	-11.3831
▁dubbing	-11.3831
▁nurse	-11.3831
▁Short	-11.3831
▁Face	-11.3831
▁Jews	-11.3831
Pamela	-11.3831
▁existential	-11.3831
▁choreographed	-11.3831
▁skit	-11.3831
▁Potter	-11.3831
▁feminin	-11.3831
raunchy	-11.3831
▁ambition	-11.3831
▁Lambert	-11.3831
▁shoes	-11.3831
▁courtroom	-11.3831
▁League	-11.3831
▁Curly	-11.3831
▁borrow	-11.3831
▁Madhu	-11.3831
▁Rochester	-11.3831
Sleep	-11.3831
▁declin	-11.3831
▁trap	-11.3831
▁curtai	-11.3831
▁manipulative	-11.3831
▁perception	-11.3831
Sudden	-11.3831
▁Kirk	-11.3831
▁1990	-11.3831
▁pirate	-11.3831
▁Buzz	-11.3831
▁Office	-11.3831
▁Gere	-11.3831
▁gender	-11.3831
▁Arab	-11.3831
▁excessive	-11.3831
▁Action	-11.3831
▁Romero	-11.3832
▁lips	-11.3832
▁Jenni	-11.3832
EAR	-11.3832
▁rousing	-11.3832
▁feed	-11.3832
▁Ginger	-11.3832
▁Agent	-11.3832
▁Hadley	-11.3832
▁adjust	-11.3832
▁authorities	-11.3832
▁Bobby	-11.3832
▁Brett	-11.3832
▁uncertain	-11.3832
▁Miike	-11.3832
ltitude	-11.3833
▁verge	-11.3833
▁Garbo	-11.3833
▁Carell	-11.3833
▁competition	-11.3833
▁clash	-11.3833
▁finger	-11.3833
▁tourist	-11.3833
▁astound	-11.3833
▁Lindy	-11.3833
▁choir	-11.3833
▁canvas	-11.3833
▁graceful	-11.3833
▁investigation	-11.3833
▁terrorism	-11.3833
▁Choi	-11.3834
▁adultery	-11.3834
▁Justice	-11.3834
▁Denis	-11.3834
▁fifties	-11.3834
▁pride	-11.3834
▁Romantic	-11.3834
▁Christine	-11.3834
▁Candle	-11.3834
▁fift	-11.3834
▁Linda	-11.3834
▁garden	-11.3834
▁superstar	-11.3834
▁psychotic	-11.3834
▁lighthearted	-11.3835
▁hamm	-11.3835
▁moron	-11.3835
▁esp	-11.3835
▁fifth	-11.3835
▁trio	-11.3835
▁spring	-11.3835
▁fascination	-11.3835
Donnell	-11.3835
▁glue	-11.3835
▁lunch	-11.3835
▁texture	-11.3835
▁dread	-11.3835
▁acquire	-11.3835
▁celebration	-11.3836
▁Ebert	-11.3836
▁confrontation	-11.3836
▁Korean	-11.3836
udos	-11.3836
▁June	-11.3836
tilted	-11.3836
▁nuts	-11.3837
▁Duke	-11.3837
▁boyhood	-11.3837
▁Road	-11.3837
▁heights	-11.3838
▁Fallon	-11.3838
▁screenwriter	-11.3838
▁JJ	-11.3838
▁Trump	-11.3838
▁rewatch	-11.3839
▁Christie	-11.3839
▁hesitat	-11.3839
▁pond	-11.3839
shot	-11.384
▁kidnap	-11.384
▁Nolan	-11.384
▁Lena	-11.384
artoon	-11.384
▁Break	-11.3841
▁Bible	-11.3841
▁preach	-11.3841
▁narrator	-11.3841
▁toilet	-11.3841
▁infected	-11.3842
unshine	-11.3842
▁miners	-11.3842
▁wow	-11.3843
ushing	-11.3843
▁sickness	-11.3844
▁Erika	-11.3844
▁flight	-11.3844
▁countryside	-11.3844
▁Stein	-11.3845
▁satisfied	-11.3845
▁stereotypical	-11.3845
▁Three	-11.3845
▁Cassa	-11.3845
▁Parisian	-11.3846
▁climate	-11.3847
▁Wise	-11.3847
▁inspirational	-11.3848
▁slimy	-11.3849
▁Clu	-11.3849
▁peril	-11.3849
▁Musical	-11.3849
▁Natali	-11.385
▁temper	-11.3851
page	-11.3851
▁Blackie	-11.3852
▁invent	-11.3852
▁pill	-11.3852
▁Turner	-11.3853
▁Helena	-11.3854
▁Think	-11.3855
Alien	-11.3856
▁observation	-11.3857
▁Put	-11.3859
▁reaches	-11.3859
reature	-11.3859
mpact	-11.386
▁blush	-11.386
▁enforc	-11.386
▁Saul	-11.3861
▁Sab	-11.3863
▁guaranteed	-11.3863
▁hitting	-11.3864
▁dub	-11.3865
▁Grave	-11.3866
▁Pang	-11.3867
▁Rider	-11.3868
▁restored	-11.3869
▁Alive	-11.3869
capacit	-11.387
▁fiancée	-11.3873
berry	-11.3873
▁Personally	-11.3874
▁gear	-11.3875
▁Burma	-11.3876
▁laughable	-11.3876
▁illustrat	-11.3877
▁canceled	-11.3878
▁rental	-11.3878
▁tormented	-11.3878
▁active	-11.3881
▁Sweet	-11.3884
▁NE	-11.3884
elieve	-11.3885
▁Herman	-11.3887
▁blamed	-11.3888
▁Joel	-11.3889
▁Yve	-11.389
▁suitabl	-11.3891
▁interact	-11.3894
▁succeeded	-11.3895
▁economic	-11.3897
▁Judd	-11.3898
▁Newman	-11.39
bolic	-11.3902
wave	-11.3903
▁mortal	-11.3904
▁robb	-11.3904
acco	-11.3905
ww	-11.3906
▁roller	-11.3906
▁enjoyment	-11.3908
eckless	-11.3909
vete	-11.391
▁FL	-11.3912
▁Jess	-11.3912
▁apt	-11.3915
Wonderland	-11.3916
▁Bow	-11.3918
▁Paula	-11.3919
▁tender	-11.392
▁fleshed	-11.3923
▁neatly	-11.3926
▁tremendously	-11.3926
competent	-11.3927
▁busy	-11.3927
See	-11.3928
▁End	-11.3932
▁elde	-11.3933
▁reel	-11.3934
▁insur	-11.3939
Con	-11.394
▁developing	-11.3945
ife	-11.3954
pati	-11.3956
▁threatening	-11.3956
▁ev	-11.3957
HAT	-11.3959
iation	-11.3962
▁cancel	-11.3964
AGE	-11.3967
▁Tur	-11.3968
vid	-11.3972
▁marketing	-11.3981
Qui	-11.3991
▁vast	-11.3997
Lesl	-11.3998
LO	-11.4
▁Dom	-11.4013
icker	-11.4017
digger	-11.4017
jack	-11.4018
abo	-11.4026
atory	-11.4042
▁Cub	-11.4043
east	-11.4047
tiv	-11.4062
sels	-11.4068
▁Eye	-11.4093
true	-11.4093
1945	-11.4114
▁bumbl	-11.4127
▁signed	-11.4142
chu	-11.4149
JO	-11.4151
▁banne	-11.4169
ouch	-11.4183
▁Robo	-11.4206
▁lighter	-11.422
▁abusi	-11.4232
▁spine	-11.4249
▁Nav	-11.4278
▁Cath	-11.4295
friendly	-11.4304
chai	-11.433
Paz	-11.4335
live	-11.4336
▁remarkabl	-11.4337
Grade	-11.436
obile	-11.4364
▁Hard	-11.4368
▁Gues	-11.438
▁Meg	-11.4407
educated	-11.4409
▁Wa	-11.4415
gling	-11.442
mple	-11.4434
▁por	-11.4439
▁Dir	-11.4444
▁possess	-11.4478
angled	-11.4491
▁teache	-11.4523
▁befriend	-11.4533
tub	-11.463
▁coat	-11.4657
▁panic	-11.4663
▁2003	-11.4682
▁lun	-11.4683
▁copie	-11.4685
lienate	-11.4693
Julian	-11.4746
elli	-11.477
▁impo	-11.4777
▁bla	-11.48
▁realiz	-11.4819
oster	-11.4864
bility	-11.4891
coaster	-11.4891
▁smoke	-11.4897
thful	-11.4911
▁pupp	-11.4911
▁pee	-11.4917
hour	-11.4922
abh	-11.4949
▁produc	-11.4974
▁harm	-11.498
RY	-11.5004
Ver	-11.5014
clear	-11.5024
bic	-11.5067
▁creepi	-11.5068
OUS	-11.5086
▁metaphor	-11.5094
▁litera	-11.5103
cour	-11.5107
▁190	-11.5133
ski	-11.5138
▁surpasse	-11.5172
▁demand	-11.518
lative	-11.5181
▁Sav	-11.5191
▁creator	-11.52
▁thousand	-11.52
▁Winter	-11.5203
▁dollar	-11.5204
▁cure	-11.5206
ppy	-11.5222
▁expectation	-11.5244
bala	-11.5277
serving	-11.5287
▁Mom	-11.529
paced	-11.5296
▁contribut	-11.5336
▁nightmar	-11.5342
stable	-11.5357
ject	-11.5366
spiration	-11.5374
spiring	-11.5376
▁circ	-11.5377
▁surround	-11.5388
▁Wonder	-11.5395
▁Timo	-11.5398
special	-11.5399
▁breathe	-11.5418
▁recogniz	-11.5418
Sweet	-11.5434
nonsense	-11.5435
▁irritat	-11.5435
Flavia	-11.5436
Hamlet	-11.5436
driven	-11.5436
Murder	-11.5436
Second	-11.5437
Queen	-11.5437
Movie	-11.5437
foot	-11.5437
`	-11.5437
Perhaps	-11.5437
Two	-11.5438
Black	-11.5438
fiction	-11.5438
heavy	-11.5438
sleep	-11.5438
Why	-11.5438
problem	-11.5438
typical	-11.5438
period	-11.5438
important	-11.5438
Richard	-11.5438
earth	-11.5438
released	-11.5438
remember	-11.5438
script	-11.5438
beautiful	-11.5438
before	-11.5438
moving	-11.5439
regard	-11.5439
Love	-11.5442
control	-11.5442
Every	-11.5445
intend	-11.5447
▁Nata	-11.545
Night	-11.5457
Gary	-11.5459
▁grant	-11.5461
▁construct	-11.5463
▁Emil	-11.5464
▁dirt	-11.5464
▁Quai	-11.5465
game	-11.5466
Time	-11.5466
early	-11.547
▁eventual	-11.5474
eryl	-11.5474
strict	-11.5478
▁horribl	-11.5478
▁contradict	-11.5485
▁glass	-11.5487
God	-11.5489
▁earlie	-11.549
▁hype	-11.549
new	-11.549
▁confess	-11.5493
▁Curr	-11.5493
▁recognis	-11.5494
oodle	-11.5494
▁avail	-11.5495
▁jewel	-11.5495
ublic	-11.5496
elcome	-11.5496
▁Karl	-11.5496
▁access	-11.5497
Akshay	-11.5497
destructi	-11.5497
cott	-11.5497
kovsky	-11.5497
▁acclaim	-11.5497
▁bargain	-11.5497
▁throat	-11.5497
▁zoom	-11.5497
.5/10	-11.5497
Erendira	-11.5497
Surprisingly	-11.5497
celluloid	-11.5497
deliberately	-11.5497
mouthed	-11.5497
▁$2	-11.5497
▁1959	-11.5497
▁1977	-11.5497
▁1979	-11.5497
▁1984	-11.5497
▁Blunt	-11.5497
▁Buttgereit	-11.5497
▁Cambodia	-11.5497
▁Central	-11.5497
▁Claude	-11.5497
▁Columbia	-11.5497
▁Company	-11.5497
▁Cowboy	-11.5497
▁Cunningham	-11.5497
▁DeMille	-11.5497
▁Duvall	-11.5497
▁Election	-11.5497
▁Errol	-11.5497
▁Fairbanks	-11.5497
▁Feinstone	-11.5497
▁Hendrix	-11.5497
▁Hospital	-11.5497
▁Iturbi	-11.5497
▁Jersey	-11.5497
▁Journey	-11.5497
▁Kasdan	-11.5497
▁Krabbé	-11.5497
▁Kristofferson	-11.5497
▁Loretta	-11.5497
▁Matrix	-11.5497
▁McCarthy	-11.5497
▁Melissa	-11.5497
▁Mellisa	-11.5497
▁Moriarty	-11.5497
▁Nielsen	-11.5497
▁Pakistan	-11.5497
▁Phoenix	-11.5497
▁Preminger	-11.5497
▁Pressburger	-11.5497
▁Professor	-11.5497
▁Rukh	-11.5497
▁Ryker	-11.5497
▁Sabriye	-11.5497
▁Shaolin	-11.5497
▁Stallone	-11.5497
▁Stanwyck	-11.5497
▁Testament	-11.5497
▁Truffaut	-11.5497
▁Violence	-11.5497
▁Winfrey	-11.5497
▁Wodehouse	-11.5497
▁Woronov	-11.5497
▁Zombie	-11.5497
▁accompany	-11.5497
▁admiration	-11.5497
▁albeit	-11.5497
▁anticipation	-11.5497
▁biopic	-11.5497
▁breakfast	-11.5497
▁champion	-11.5497
▁chief	-11.5497
▁cliff	-11.5497
▁coincidence	-11.5497
▁compensate	-11.5497
▁confident	-11.5497
▁crucial	-11.5497
▁diverse	-11.5497
▁exhilarat	-11.5497
▁expedition	-11.5497
▁fabric	-11.5497
▁hypno	-11.5497
▁immigrant	-11.5497
▁inclined	-11.5497
▁instinct	-11.5497
▁instrument	-11.5497
▁intimate	-11.5497
▁massacre	-11.5497
▁misfortune	-11.5497
▁monumental	-11.5497
▁nightclub	-11.5497
▁nostalgic	-11.5497
▁obstacle	-11.5497
▁opponent	-11.5497
▁paranoia	-11.5497
▁passengers	-11.5497
▁phenomenon	-11.5497
▁pornographic	-11.5497
▁predicament	-11.5497
▁pretentious	-11.5497
▁psychedelic	-11.5497
▁psychology	-11.5497
▁published	-11.5497
▁reluctant	-11.5497
▁resolve	-11.5497
▁rookie	-11.5497
▁samurai	-11.5497
▁sarcastic	-11.5497
▁scenic	-11.5497
▁scientific	-11.5497
▁sensibility	-11.5497
▁serpent	-11.5497
▁spectacle	-11.5497
▁spiderman	-11.5497
▁stepmother	-11.5497
▁stepsisters	-11.5497
▁stylized	-11.5497
▁suave	-11.5497
▁suburban	-11.5497
▁surrender	-11.5497
▁transcend	-11.5497
▁undeniabl	-11.5497
▁uninteresting	-11.5497
▁vengeance	-11.5497
▁victory	-11.5497
▁vignettes	-11.5497
▁wardrobe	-11.5497
▁wrestl	-11.5497
▁1974	-11.5497
▁Craven	-11.5497
▁Daisies	-11.5497
▁Greek	-11.5497
▁Legend	-11.5497
▁Video	-11.5497
▁Zealand	-11.5497
▁attorney	-11.5497
▁cliche	-11.5497
▁exotic	-11.5497
▁fierce	-11.5497
▁fraud	-11.5497
▁intertwin	-11.5497
▁jesus	-11.5497
▁nominee	-11.5497
▁policy	-11.5497
▁racist	-11.5497
▁radical	-11.5497
▁spectr	-11.5497
▁stunned	-11.5497
▁variation	-11.5497
▁yarn	-11.5497
▁yelling	-11.5497
▁Adeline	-11.5497
▁Bishop	-11.5497
▁Bogus	-11.5497
▁Nichol	-11.5497
▁Vanishes	-11.5497
▁WTC	-11.5497
▁cheese	-11.5497
▁debate	-11.5497
▁fetish	-11.5497
▁rational	-11.5497
▁varied	-11.5497
▁Conrad	-11.5497
▁Davies	-11.5497
▁Monster	-11.5497
▁Priest	-11.5497
▁Serbia	-11.5497
▁Spring	-11.5497
▁Vader	-11.5497
▁demise	-11.5497
▁quirks	-11.5497
▁ritual	-11.5497
Hearn	-11.5497
▁ANY	-11.5497
▁Denver	-11.5497
▁Dillon	-11.5497
▁craving	-11.5497
▁phase	-11.5497
▁website	-11.5497
▁Aileen	-11.5497
▁Culp	-11.5497
▁Sellers	-11.5497
▁Dalton	-11.5497
▁Gardens	-11.5497
▁Mystery	-11.5497
▁Niro	-11.5497
▁navy	-11.5497
▁undertones	-11.5497
▁Detmer	-11.5497
▁Nurse	-11.5497
▁remove	-11.5497
Scarface	-11.5497
▁Chief	-11.5497
▁Foch	-11.5497
▁RIP	-11.5497
▁TAM	-11.5497
▁confine	-11.5497
▁disabled	-11.5497
▁flirt	-11.5497
▁pulp	-11.5497
▁Posey	-11.5497
▁absence	-11.5497
▁diagnos	-11.5497
mmune	-11.5497
▁rapid	-11.5497
▁resort	-11.5497
▁grave	-11.5497
▁FBI	-11.5497
▁tackle	-11.5497
▁History	-11.5497
▁Tomei	-11.5497
▁Tyler	-11.5497
▁offended	-11.5497
▁classmates	-11.5497
▁elite	-11.5497
▁profit	-11.5497
▁royal	-11.5497
▁Storm	-11.5497
▁agency	-11.5497
▁zero	-11.5497
▁amoral	-11.5497
▁crazi	-11.5497
▁knife	-11.5497
▁Dyna	-11.5497
Rohmer	-11.5497
▁excel	-11.5497
▁meteor	-11.5497
▁civilization	-11.5497
▁ambigu	-11.5497
▁Project	-11.5497
▁alcoholism	-11.5497
▁thick	-11.5497
▁Lanza	-11.5497
▁extract	-11.5497
▁Henri	-11.5497
▁palace	-11.5497
▁gimm	-11.5497
▁pokemon	-11.5497
▁Word	-11.5497
▁foremost	-11.5497
▁Temple	-11.5497
://	-11.5497
▁blessed	-11.5497
▁survivors	-11.5497
▁vain	-11.5498
▁immerse	-11.5498
▁entitle	-11.5498
▁demonstrate	-11.5498
▁transport	-11.5498
▁Walking	-11.5498
▁chest	-11.5498
▁Finney	-11.5498
▁insult	-11.5498
▁divide	-11.5498
▁hokey	-11.5498
▁limitations	-11.5498
▁neo	-11.5498
▁tendenc	-11.5498
▁kidnapped	-11.5498
▁trapped	-11.5498
ARD	-11.5498
eographic	-11.5498
▁steel	-11.5498
▁Finch	-11.5498
▁Everytown	-11.5498
▁birthday	-11.5498
owski	-11.5498
▁cloud	-11.5498
▁prophet	-11.5499
▁stiff	-11.5499
▁reviv	-11.5499
▁Trav	-11.5499
IVE	-11.5499
wolf	-11.5499
▁characteristics	-11.5499
▁Milland	-11.5499
▁cub	-11.5499
▁entrance	-11.5499
▁pretend	-11.5499
▁Gabriella	-11.5499
▁attach	-11.5499
▁precious	-11.5499
▁resolution	-11.5499
Kubrick	-11.5499
▁invitation	-11.5499
▁melod	-11.5499
▁Sondra	-11.5499
▁kidding	-11.5499
▁breed	-11.5499
nnelli	-11.5499
▁irresistible	-11.5499
▁Theater	-11.5499
▁Kind	-11.55
▁Everybody	-11.55
▁boob	-11.55
▁hoot	-11.55
▁fox	-11.55
▁exude	-11.55
▁weave	-11.55
▁Harron	-11.55
▁Bergman	-11.55
▁Roeg	-11.55
▁Iranian	-11.55
▁yard	-11.55
▁stock	-11.55
▁strip	-11.55
▁poet	-11.55
▁specifically	-11.55
▁loath	-11.5501
▁Crit	-11.5501
▁lord	-11.5501
▁inspector	-11.5501
▁Amos	-11.5501
▁stride	-11.5501
▁trite	-11.5501
▁Heston	-11.5501
▁wake	-11.5501
▁shake	-11.5501
▁Sophi	-11.5501
▁underworld	-11.5501
▁simultaneously	-11.5501
▁descent	-11.5501
▁Northam	-11.5502
▁Sort	-11.5502
▁breakdown	-11.5502
▁cheerful	-11.5502
▁Rita	-11.5502
chester	-11.5502
▁Marcus	-11.5502
▁Helm	-11.5502
▁Club	-11.5502
▁clock	-11.5502
▁patch	-11.5502
▁Candy	-11.5502
▁attendant	-11.5503
▁flee	-11.5503
Accor	-11.5503
▁dude	-11.5503
idnight	-11.5503
▁Cushing	-11.5503
▁Jero	-11.5503
▁downfall	-11.5503
▁Carre	-11.5503
▁shut	-11.5503
▁Episode	-11.5503
▁Strathairn	-11.5503
▁[	-11.5503
▁drunken	-11.5504
▁grip	-11.5504
▁infectious	-11.5504
▁compulsi	-11.5504
▁Askey	-11.5504
▁elaborate	-11.5504
▁duty	-11.5504
▁selection	-11.5504
▁Guin	-11.5504
▁Room	-11.5505
▁Chase	-11.5505
▁Dodge	-11.5505
▁Chrissy	-11.5505
▁Letty	-11.5505
▁flavor	-11.5505
▁Falco	-11.5505
▁Roach	-11.5505
▁realization	-11.5506
▁studi	-11.5506
▁Place	-11.5506
mused	-11.5506
▁involvement	-11.5506
▁boil	-11.5506
▁Funny	-11.5506
▁arise	-11.5506
▁pants	-11.5506
▁weaknesses	-11.5507
▁stopping	-11.5507
▁punk	-11.5507
▁modest	-11.5507
▁hyper	-11.5507
▁wig	-11.5507
▁Marx	-11.5508
quire	-11.5508
▁hateful	-11.5508
▁shout	-11.5508
▁Nobody	-11.5508
▁joyous	-11.5508
▁reign	-11.5509
▁Lila	-11.5509
▁Zone	-11.5509
▁tank	-11.5509
▁Cook	-11.5509
▁Oak	-11.551
▁36	-11.551
▁CAN	-11.551
▁polished	-11.551
▁Juan	-11.5511
▁fem	-11.5511
▁winter	-11.5512
▁flowers	-11.5512
▁Polla	-11.5513
▁Corb	-11.5513
uffalo	-11.5514
▁weakness	-11.5515
▁Samurai	-11.5515
▁feminist	-11.5515
▁jungle	-11.5515
▁nervous	-11.5515
▁virgin	-11.5515
▁occupie	-11.5515
▁grandfather	-11.5515
▁23	-11.5515
▁Mama	-11.5515
bone	-11.5516
▁BRO	-11.5516
▁Miami	-11.5517
umble	-11.5517
UR	-11.5517
▁Today	-11.5518
▁campus	-11.5518
▁Kane	-11.5518
▁arrived	-11.5519
▁27	-11.5519
▁wholesome	-11.5519
▁progresses	-11.5519
▁neglected	-11.5519
▁Willis	-11.5519
▁stake	-11.552
▁betrayal	-11.552
▁rocket	-11.552
▁Ferr	-11.552
▁illustr	-11.5521
▁prisoners	-11.5521
▁Hark	-11.5521
▁Lex	-11.5522
▁rail	-11.5522
▁projection	-11.5522
▁sel	-11.5523
▁implausib	-11.5524
▁repris	-11.5525
▁MJ	-11.5525
▁size	-11.5526
▁significance	-11.5526
▁Adventure	-11.5526
▁deepest	-11.5527
cular	-11.5527
▁complexity	-11.5528
▁realities	-11.5529
▁inconsistent	-11.5529
▁Carla	-11.553
rantic	-11.553
▁suggestion	-11.553
▁pour	-11.5531
▁forgiven	-11.5534
▁Angeles	-11.5534
▁tube	-11.5534
▁McK	-11.5535
▁copied	-11.5535
▁supportive	-11.5536
▁playful	-11.5536
Sam	-11.5537
▁Rosemary	-11.5538
▁Early	-11.5539
▁imitat	-11.5539
▁outcast	-11.5541
▁hap	-11.5542
▁Mathi	-11.5543
▁duration	-11.5545
▁granted	-11.5546
▁Gate	-11.5546
▁doom	-11.5547
meral	-11.5548
▁nuanced	-11.5548
▁sucker	-11.5549
▁downside	-11.5549
▁Dern	-11.555
▁bott	-11.5551
▁urgen	-11.5552
rising	-11.5552
▁Fear	-11.5553
▁comprehensi	-11.5553
essa	-11.5557
▁freaky	-11.5557
woven	-11.5558
▁Original	-11.5559
Bas	-11.5561
▁Way	-11.5562
▁Kee	-11.5564
▁Bach	-11.5566
▁CG	-11.5568
▁Amy	-11.5572
▁cookie	-11.5572
▁Came	-11.5573
▁Gable	-11.5575
Mel	-11.5577
▁Gall	-11.5578
▁Read	-11.5578
▁employed	-11.5581
▁Buy	-11.5583
▁locker	-11.5585
▁tortured	-11.5587
▁designer	-11.5588
▁Cry	-11.5595
▁unfolded	-11.56
ergeant	-11.5601
▁Try	-11.5606
▁Ok	-11.561
sci	-11.5617
▁twin	-11.5621
▁1:	-11.5624
▁cram	-11.5625
hunt	-11.5625
▁climber	-11.5632
▁photographer	-11.5633
▁Welles	-11.5633
▁Matth	-11.5638
▁hunter	-11.5641
▁Farr	-11.5649
▁Cate	-11.5666
hungry	-11.567
▁Norma	-11.5675
otto	-11.5677
▁package	-11.5683
juven	-11.5686
▁Luk	-11.5692
▁Mou	-11.5693
1942	-11.5695
eedless	-11.5695
▁denie	-11.5708
terling	-11.5713
▁rang	-11.5729
▁Bay	-11.5732
stry	-11.5741
deserving	-11.5747
WHAT	-11.5754
▁occurr	-11.5759
ization	-11.5761
▁tid	-11.5775
▁cage	-11.5775
ttle	-11.5784
▁Marcel	-11.579
HOW	-11.579
Paradise	-11.5816
▁wipe	-11.5825
bbing	-11.5835
▁Classic	-11.5854
▁arch	-11.5862
nald	-11.5869
97	-11.5878
▁Bou	-11.59
eroticism	-11.5921
▁sunk	-11.5924
ritten	-11.5938
dict	-11.5943
lenda	-11.5956
pha	-11.5959
OUT	-11.5968
▁Easter	-11.597
minus	-11.5985
lag	-11.5986
▁replay	-11.5998
▁thirt	-11.6005
▁fortunate	-11.601
ivity	-11.6014
▁punche	-11.6014
hopping	-11.6042
▁visa	-11.6065
Cary	-11.6066
▁obligat	-11.6087
AVE	-11.6093
ju	-11.6095
▁Cro	-11.6098
16	-11.6166
1%	-11.6172
▁Gui	-11.6189
bury	-11.6194
Sea	-11.6229
ATE	-11.6236
proof	-11.6249
▁prostitut	-11.6257
OK	-11.6262
cid	-11.6262
heck	-11.6263
▁Happ	-11.6276
anni	-11.6303
anu	-11.6311
ephe	-11.6332
37	-11.6345
illian	-11.6366
▁Rid	-11.644
▁verb	-11.646
52	-11.6465
current	-11.6513
ided	-11.6521
▁Marlo	-11.6596
▁investigat	-11.6621
▁identifi	-11.6633
dark	-11.6642
inda	-11.6665
▁26	-11.6671
illard	-11.6704
▁invade	-11.6704
▁Harlin	-11.6716
▁impressionist	-11.6758
aster	-11.676
fact	-11.6779
▁Cap	-11.678
Lyn	-11.6788
▁oblig	-11.6821
llowing	-11.6838
OES	-11.6861
icken	-11.687
etically	-11.6871
▁stab	-11.6909
▁readi	-11.6914
ava	-11.6931
▁scarc	-11.7008
ightening	-11.7023
▁71	-11.7105
uke	-11.7113
fetched	-11.7126
Pierr	-11.7128
▁Singin	-11.7204
▁nomination	-11.7205
▁subtitle	-11.7211
nator	-11.7273
▁Dominic	-11.7276
glo	-11.7312
▁Rai	-11.7316
▁split	-11.7319
▁describ	-11.7323
version	-11.7328
science	-11.7332
augh	-11.7336
▁snap	-11.7344
Mari	-11.7348
bbie	-11.7353
two	-11.7365
▁surviv	-11.7367
▁cam	-11.7379
vory	-11.7399
▁choos	-11.7401
cause	-11.7403
▁experienc	-11.742
▁(200	-11.7421
Super	-11.7426
▁comprehen	-11.7429
▁poignan	-11.7431
ittingly	-11.7432
▁fog	-11.7433
Dark	-11.7434
Claire	-11.7436
promising	-11.7436
necessarily	-11.7436
scope	-11.7436
>	-11.7436
Excellent	-11.7436
▁captivat	-11.7437
Which	-11.7437
Tarzan	-11.7437
Lost	-11.7437
Patrick	-11.7437
Before	-11.7437
Thank	-11.7437
length	-11.7437
scale	-11.7438
dancing	-11.7438
experience	-11.7438
Great	-11.7438
English	-11.7438
feature	-11.7438
maybe	-11.7438
DVD	-11.7438
people	-11.7439
again	-11.7439
Everyone	-11.7439
plus	-11.7439
why	-11.7439
force	-11.7439
Eric	-11.744
view	-11.744
three	-11.744
little	-11.7441
feel	-11.7441
Look	-11.7441
sweet	-11.7442
Master	-11.7442
particularly	-11.7444
monster	-11.7444
effer	-11.7445
Brian	-11.7446
Rob	-11.7447
without	-11.7448
Director	-11.7451
ustin	-11.7452
loud	-11.7455
Gold	-11.7456
▁Lie	-11.7456
▁Final	-11.7456
rishma	-11.7457
Part	-11.7459
wide	-11.7459
▁destin	-11.7462
title	-11.7464
Last	-11.7466
▁trail	-11.7466
▁filth	-11.7469
Carl	-11.7473
drama	-11.7475
unlike	-11.748
▁Dunn	-11.7482
▁Brenda	-11.7483
▁careful	-11.7484
▁lone	-11.7486
Eye	-11.7488
pulsion	-11.7489
▁terrifi	-11.7491
▁obsessi	-11.7491
▁conduct	-11.7491
▁feat	-11.7492
ollywood	-11.7492
▁Tibet	-11.7492
ION	-11.7493
REAT	-11.7495
azzle	-11.7495
▁amateur	-11.7495
▁marvel	-11.7495
itizen	-11.7495
ostume	-11.7495
▁excess	-11.7495
garde	-11.7495
▁horri	-11.7496
▁submit	-11.7496
tribution	-11.7496
▁intellect	-11.7496
Certain	-11.7497
timacy	-11.7497
Carrère	-11.7497
existent	-11.7497
mpathetic	-11.7497
▁Biblical	-11.7497
▁masculin	-11.7497
Braveheart	-11.7497
Rebecca	-11.7497
Wendigo	-11.7497
bourgeois	-11.7497
euvre	-11.7497
partheid	-11.7497
uspicious	-11.7497
volunteer	-11.7497
å	-11.7497
▁/>7/10	-11.7497
▁1936	-11.7497
▁1958	-11.7497
▁1971	-11.7497
▁1987	-11.7497
▁1994	-11.7497
▁Aidan	-11.7497
▁Azaria	-11.7497
▁Beckham	-11.7497
▁Bravo	-11.7497
▁Brommel	-11.7497
▁Burstyn	-11.7497
▁Cameroon	-11.7497
▁Campbell	-11.7497
▁Cedric	-11.7497
▁Claudi	-11.7497
▁Connecticut	-11.7497
▁Creasy	-11.7497
▁Davenport	-11.7497
▁Depression	-11.7497
▁Digicorp	-11.7497
▁Elvis	-11.7497
▁February	-11.7497
▁Fitzgerald	-11.7497
▁Gibson	-11.7497
▁Greeting	-11.7497
▁Harrington	-11.7497
▁Hilliard	-11.7497
▁Honestly	-11.7497
▁Identity	-11.7497
▁Isabel	-11.7497
▁Jarada	-11.7497
▁Jordan	-11.7497
▁Karisma	-11.7497
▁Kelso	-11.7497
▁Kyoto	-11.7497
▁Lithgow	-11.7497
▁Lucienne	-11.7497
▁MUST	-11.7497
▁Maguire	-11.7497
▁Marjorie	-11.7497
▁Matador	-11.7497
▁Maugham	-11.7497
▁Melbourne	-11.7497
▁Meredith	-11.7497
▁Mononoke	-11.7497
▁Newcombe	-11.7497
▁November	-11.7497
▁Olympic	-11.7497
▁Oprah	-11.7497
▁Phyllis	-11.7497
▁Quatermain	-11.7497
▁ROSE	-11.7497
▁Sentinel	-11.7497
▁Shepherd	-11.7497
▁Sweden	-11.7497
▁TODESKING	-11.7497
▁Tarantino	-11.7497
▁Thompson	-11.7497
▁Toronto	-11.7497
▁Turkish	-11.7497
▁Usually	-11.7497
▁Wagner	-11.7497
▁Weismuller	-11.7497
▁Winkler	-11.7497
▁Yuzna	-11.7497
▁abstract	-11.7497
▁abundance	-11.7497
▁accolades	-11.7497
▁acknowledge	-11.7497
▁analysis	-11.7497
▁breakthrough	-11.7497
▁brothel	-11.7497
▁carniv	-11.7497
▁celebrities	-11.7497
▁censor	-11.7497
▁chaotic	-11.7497
▁cheezy	-11.7497
▁clutch	-11.7497
▁cohesive	-11.7497
▁colleague	-11.7497
▁contrary	-11.7497
▁custod	-11.7497
▁decency	-11.7497
▁deceptive	-11.7497
▁depressed	-11.7497
▁devotion	-11.7497
▁dilemma	-11.7497
▁disjointed	-11.7497
▁distinguish	-11.7497
▁economy	-11.7497
▁elevate	-11.7497
▁engross	-11.7497
▁equation	-11.7497
▁escalat	-11.7497
▁estranged	-11.7497
▁explode	-11.7497
▁exterior	-11.7497
▁extravagant	-11.7497
▁financial	-11.7497
▁fundamental	-11.7497
▁gesture	-11.7497
▁glorious	-11.7497
▁gradually	-11.7497
▁grandiose	-11.7497
▁horrifying	-11.7497
▁identical	-11.7497
▁inclusion	-11.7497
▁inexplicable	-11.7497
▁inimitable	-11.7497
▁intricac	-11.7497
▁introducing	-11.7497
▁irrational	-11.7497
▁license	-11.7497
▁merciless	-11.7497
▁mesmerizing	-11.7497
▁misfits	-11.7497
▁misunderstood	-11.7497
▁nephew	-11.7497
▁parodies	-11.7497
▁participant	-11.7497
▁peasant	-11.7497
▁perceive	-11.7497
▁predecessor	-11.7497
▁psychologist	-11.7497
▁rampant	-11.7497
▁rehearsal	-11.7497
▁repression	-11.7497
▁responsibilit	-11.7497
▁revisit	-11.7497
▁scandal	-11.7497
▁sculpture	-11.7497
▁silliness	-11.7497
▁smarmy	-11.7497
▁sociopath	-11.7497
▁sprinkl	-11.7497
▁stalwart	-11.7497
▁stereotyping	-11.7497
▁stitches	-11.7497
▁suspicion	-11.7497
▁sweetheart	-11.7497
▁technological	-11.7497
▁triangle	-11.7497
▁turmoil	-11.7497
▁unbearable	-11.7497
▁uncanny	-11.7497
▁unconventional	-11.7497
▁unemploy	-11.7497
▁unexplained	-11.7497
▁uninhibited	-11.7497
▁voyage	-11.7497
Othello	-11.7497
empowerment	-11.7497
ö	-11.7497
▁1934	-11.7497
▁1957	-11.7497
▁Abraham	-11.7497
▁Bennett	-11.7497
▁Bogart	-11.7497
▁Cartwright	-11.7497
▁Catherine	-11.7497
▁Chaplin	-11.7497
▁Couple	-11.7497
▁Diagnos	-11.7497
▁Eventually	-11.7497
▁FILM	-11.7497
▁Hopefully	-11.7497
▁Monica	-11.7497
▁Nagra	-11.7497
▁Nibelung	-11.7497
▁Siegfried	-11.7497
▁Simpsons	-11.7497
▁Sleuth	-11.7497
▁Sykes	-11.7497
▁Teenage	-11.7497
▁Tetsu	-11.7497
▁Trivia	-11.7497
▁Valley	-11.7497
▁Vincenz	-11.7497
▁Wizard	-11.7497
▁Yadav	-11.7497
▁acrobatic	-11.7497
▁clarity	-11.7497
▁commend	-11.7497
▁competitor	-11.7497
▁determination	-11.7497
▁disorder	-11.7497
▁epidemic	-11.7497
▁ghetto	-11.7497
▁handicapped	-11.7497
▁inferior	-11.7497
▁intimidat	-11.7497
▁overshadow	-11.7497
▁patience	-11.7497
▁smash	-11.7497
▁vindic	-11.7497
▁vocal	-11.7497
▁yellow	-11.7497
ä	-11.7497
▁Bonham	-11.7497
▁Malden	-11.7497
▁Midler	-11.7497
▁churn	-11.7497
▁colony	-11.7497
▁cunning	-11.7497
▁descend	-11.7497
▁slide	-11.7497
▁smiling	-11.7497
▁whatsoever	-11.7497
hantytown	-11.7497
▁Crime	-11.7497
▁Nolte	-11.7497
▁Randall	-11.7497
▁Thankfully	-11.7497
▁beneath	-11.7497
▁echo	-11.7497
▁glory	-11.7497
▁glowing	-11.7497
▁organize	-11.7497
▁recreation	-11.7497
▁shaky	-11.7497
Brigitt	-11.7497
▁Social	-11.7497
▁conquer	-11.7497
▁finance	-11.7497
▁sentinel	-11.7497
▁Fineman	-11.7497
▁Glory	-11.7497
▁Mafia	-11.7497
▁Spain	-11.7497
▁article	-11.7497
▁biker	-11.7497
▁cherish	-11.7497
▁gossip	-11.7497
▁pawn	-11.7497
▁sweat	-11.7497
▁Barker	-11.7497
▁Chou	-11.7497
▁Silent	-11.7497
▁Twent	-11.7497
▁edgy	-11.7497
▁expand	-11.7497
▁route	-11.7497
▁swift	-11.7497
▁thunder	-11.7497
▁HOT	-11.7497
▁grief	-11.7497
▁reckon	-11.7497
▁teeth	-11.7497
▁Alliance	-11.7497
▁Atoz	-11.7497
▁Togar	-11.7497
▁destructive	-11.7497
▁Henner	-11.7497
▁Shue	-11.7497
▁interior	-11.7497
▁radar	-11.7497
OUL	-11.7497
▁Sherry	-11.7497
▁mount	-11.7497
▁Hyde	-11.7497
▁loony	-11.7497
▁mouse	-11.7497
▁quarter	-11.7497
▁clums	-11.7497
▁Ogre	-11.7497
Stardust	-11.7497
▁Akshaye	-11.7497
▁Iraq	-11.7497
▁Parsons	-11.7497
▁afterthought	-11.7497
▁temporar	-11.7497
Rhoda	-11.7497
▁underscore	-11.7497
▁Editing	-11.7497
▁mankind	-11.7497
▁Faw	-11.7497
▁Following	-11.7497
Gloria	-11.7497
Revenge	-11.7497
▁forgettable	-11.7497
▁Casper	-11.7497
▁Doyle	-11.7497
▁absent	-11.7497
cloth	-11.7497
▁spouse	-11.7497
▁Stiles	-11.7497
Cormack	-11.7497
▁chew	-11.7497
▁monologue	-11.7497
▁devise	-11.7497
▁estate	-11.7497
senior	-11.7497
rmila	-11.7497
▁Domino	-11.7497
pecul	-11.7497
▁Afro	-11.7497
▁updated	-11.7497
▁slant	-11.7497
▁Sylvi	-11.7497
▁gravit	-11.7497
▁Haines	-11.7498
▁Work	-11.7498
▁:-)	-11.7498
▁molest	-11.7498
▁presume	-11.7498
▁glamour	-11.7498
▁Winslet	-11.7498
ubber	-11.7498
▁uneas	-11.7498
guitar	-11.7498
itchen	-11.7498
▁comprise	-11.7498
▁Garfield	-11.7498
▁macho	-11.7498
▁funeral	-11.7498
▁wanna	-11.7498
▁debt	-11.7498
▁wheels	-11.7498
▁Wallach	-11.7498
▁shelter	-11.7498
▁Blackadder	-11.7498
▁optimistic	-11.7498
▁Beale	-11.7498
▁Blank	-11.7498
▁dingo	-11.7498
▁representative	-11.7498
▁versa	-11.7498
▁Tower	-11.7498
▁Graham	-11.7498
▁grass	-11.7498
▁Geraldine	-11.7498
▁cancelled	-11.7498
▁Janice	-11.7498
▁lump	-11.7498
▁Staden	-11.7499
▁launch	-11.7499
▁Cheryl	-11.7499
▁occurrence	-11.7499
▁shove	-11.7499
▁Command	-11.7499
▁taboo	-11.7499
babies	-11.7499
▁Bloom	-11.7499
▁closeups	-11.7499
▁wax	-11.7499
▁mythical	-11.7499
▁worship	-11.7499
1991	-11.7499
▁radiat	-11.7499
▁amateurish	-11.7499
▁Luise	-11.7499
▁eternal	-11.7499
▁Goodrich	-11.7499
Peace	-11.7499
▁kingdom	-11.7499
▁GREAT	-11.7499
▁chant	-11.7499
▁prank	-11.7499
▁employee	-11.75
▁Pirate	-11.75
▁monkey	-11.75
▁chord	-11.75
▁jewelry	-11.75
▁Heights	-11.75
OLD	-11.75
▁Bryan	-11.75
▁cancer	-11.75
▁battlefield	-11.75
▁mobster	-11.75
▁Angelina	-11.75
▁drawback	-11.75
▁deft	-11.75
▁Kudos	-11.75
▁midnight	-11.75
▁indescribable	-11.75
▁dropped	-11.75
▁undercurrent	-11.75
▁Harlow	-11.75
▁fleeting	-11.75
▁embodie	-11.75
▁Odd	-11.75
▁Manchu	-11.75
rotten	-11.75
▁crank	-11.7501
▁enthusiastic	-11.7501
▁minister	-11.7501
enchant	-11.7501
▁Irene	-11.7501
▁liking	-11.7501
▁slavery	-11.7501
▁glit	-11.7501
▁Blade	-11.7501
Wrong	-11.7501
Ratso	-11.7501
▁subdue	-11.7501
▁Holland	-11.7501
▁Hild	-11.7502
▁Urich	-11.7502
▁Knight	-11.7502
▁zone	-11.7502
▁roommate	-11.7502
▁disappointment	-11.7502
▁housewife	-11.7502
▁seren	-11.7502
▁Judge	-11.7502
▁whale	-11.7502
▁Currie	-11.7502
▁incest	-11.7502
▁Leigh	-11.7502
▁possession	-11.7503
▁colourful	-11.7503
▁petty	-11.7503
▁substanti	-11.7503
▁WWE	-11.7503
▁View	-11.7503
▁skillful	-11.7504
▁Chav	-11.7504
▁investigator	-11.7504
▁Bloch	-11.7504
▁ironically	-11.7504
▁adaption	-11.7504
▁Cryst	-11.7504
▁operation	-11.7504
rugged	-11.7505
▁flame	-11.7505
▁masterwork	-11.7505
MPA	-11.7505
case	-11.7505
▁Beast	-11.7505
▁Hannah	-11.7505
▁Giant	-11.7505
▁poke	-11.7505
▁Bert	-11.7505
▁Shaw	-11.7506
▁Versa	-11.7506
▁Romance	-11.7506
URE	-11.7506
▁Josh	-11.7506
▁undead	-11.7506
▁Meek	-11.7507
▁downbeat	-11.7507
▁99	-11.7507
▁diff	-11.7507
▁poker	-11.7507
▁SEE	-11.7507
▁Opera	-11.7508
▁rivalry	-11.7508
▁basement	-11.7508
▁offbeat	-11.7508
▁therap	-11.7509
▁glasses	-11.7509
▁peers	-11.7509
▁pray	-11.7509
▁awareness	-11.751
▁95	-11.751
▁brag	-11.751
▁Drama	-11.751
ESS	-11.751
▁custom	-11.751
▁Portman	-11.751
▁influen	-11.7511
▁addiction	-11.7511
▁Bride	-11.7511
▁65	-11.7511
▁Hind	-11.7511
▁Lester	-11.7511
EST	-11.7511
▁bats	-11.7511
▁cartoonish	-11.7511
vier	-11.7512
aux	-11.7512
▁Train	-11.7512
▁sought	-11.7512
▁mono	-11.7513
witz	-11.7513
▁Wide	-11.7514
▁overdone	-11.7514
▁Corman	-11.7514
▁'80	-11.7514
▁truthful	-11.7514
▁distan	-11.7514
▁washed	-11.7515
▁subtlety	-11.7515
▁antics	-11.7517
▁Jayne	-11.7517
drew	-11.7517
▁Nana	-11.7518
▁tits	-11.7518
▁delet	-11.7518
▁Fez	-11.7519
▁Chip	-11.7519
▁III	-11.7519
▁unjust	-11.7519
▁Shakespearean	-11.752
▁Light	-11.752
▁roar	-11.752
▁roman	-11.752
gren	-11.752
▁Armi	-11.7521
▁Gina	-11.7522
rassed	-11.7523
▁colli	-11.7523
▁recreate	-11.7525
▁buttons	-11.7525
▁Finn	-11.7525
▁sadder	-11.7525
▁strand	-11.7526
▁Hughes	-11.7527
▁bona	-11.7527
▁comeback	-11.7527
▁Coen	-11.7528
▁alot	-11.7528
▁Homer	-11.7528
attain	-11.7531
▁pile	-11.7532
▁Francisc	-11.7532
UB	-11.7532
▁superficial	-11.7533
▁Eight	-11.7534
▁verse	-11.7535
▁warmth	-11.7535
▁publicity	-11.7538
▁Cru	-11.7542
▁Maria	-11.7542
▁Slow	-11.7544
▁wartime	-11.7545
riad	-11.7545
▁Late	-11.7547
▁Rex	-11.7549
▁bow	-11.755
▁Roth	-11.755
▁Lok	-11.7553
▁Pure	-11.7553
laugh	-11.7555
▁Case	-11.7557
▁map	-11.7558
▁evangeli	-11.7558
fused	-11.756
biological	-11.7562
▁merc	-11.7563
omato	-11.7564
▁rose	-11.7567
atric	-11.7567
▁yr	-11.757
store	-11.7577
ggo	-11.7581
Amri	-11.7585
▁Hum	-11.7589
▁tolerate	-11.7592
verish	-11.7604
Bud	-11.7615
Mask	-11.7617
YES	-11.7626
▁Crou	-11.7632
▁audi	-11.7635
Did	-11.7645
▁Locke	-11.7671
▁coloni	-11.7672
splitting	-11.7679
Matt	-11.7682
strel	-11.7691
Carmen	-11.7712
1948	-11.773
▁Design	-11.7736
ndra	-11.7743
▁harmon	-11.7758
▁vet	-11.7788
▁Senat	-11.7795
▁mac	-11.7817
▁subversi	-11.7818
logical	-11.7824
▁stack	-11.7824
omedies	-11.7835
▁Near	-11.784
rgan	-11.7867
▁fetch	-11.7883
irlfriend	-11.7913
▁Bru	-11.7915
▁balanc	-11.7923
ridge	-11.7949
blade	-11.7966
Marvin	-11.8004
▁porn	-11.8016
▁Pink	-11.8027
frontal	-11.8068
dale	-11.8092
CBS	-11.8099
ikings	-11.81
▁Seal	-11.8113
▁Jap	-11.8118
▁Deep	-11.8128
NOW	-11.8182
▁tame	-11.8198
RING	-11.8211
Wax	-11.8219
gho	-11.8227
establishment	-11.8245
▁Juliett	-11.826
▁yo	-11.8272
friends	-11.8281
****	-11.8304
Angelo	-11.8306
▁Wha	-11.8312
▁Mino	-11.8329
▁tortur	-11.8342
▁heighten	-11.8352
vader	-11.8372
RU	-11.8421
▁aspire	-11.8481
▁recurr	-11.8511
▁coast	-11.8533
iddle	-11.8536
▁fil	-11.854
Cross	-11.8579
minated	-11.8616
cabin	-11.8625
ugg	-11.863
▁Wall	-11.8634
▁Tak	-11.8656
▁cab	-11.8718
novation	-11.8731
▁Step	-11.8783
ebbe	-11.8811
66	-11.8824
downright	-11.8834
often	-11.8882
▁emerg	-11.8893
TEN	-11.8974
▁educate	-11.9008
▁stepp	-11.9028
▁showcas	-11.9042
▁villa	-11.9069
▁Shan	-11.9095
Dev	-11.9097
keeper	-11.9152
▁Sig	-11.9189
hirteen	-11.9202
▁Usin	-11.9206
spires	-11.9254
-10	-11.93
oulou	-11.9366
umbling	-11.9446
natured	-11.9482
cinematograph	-11.9539
▁$1	-11.9609
▁philosoph	-11.9619
depend	-11.9668
▁arrive	-11.9672
▁virtu	-11.9674
▁weapon	-11.9702
▁consequence	-11.9707
bidi	-11.9732
reserved	-11.9736
quality	-11.9743
▁gener	-11.9745
▁hung	-11.9747
Christin	-11.9753
▁integr	-11.9766
udience	-11.9784
▁domina	-11.9835
Downs	-11.9835
ssociat	-11.9857
▁epitom	-11.9866
▁mort	-11.9866
stead	-11.987
utili	-11.9884
iscovery	-11.9886
▁Tiger	-11.9891
▁Tale	-11.9894
bits	-11.9895
saw	-11.9906
layed	-11.9913
bill	-11.9914
telling	-11.9929
witch	-11.9933
Rosemary	-11.9933
Fear	-11.9934
demand	-11.9934
Personally	-11.9934
Return	-11.9935
fashioned	-11.9935
Peck	-11.9935
Recommended	-11.9935
Brilliant	-11.9935
Writer	-11.9935
Meanwhile	-11.9936
Sullivan	-11.9936
Things	-11.9936
Girl	-11.9936
Halloween	-11.9937
Besides	-11.9937
Antwone	-11.9937
Alice	-11.9937
limited	-11.9937
Victor	-11.9937
capture	-11.9937
Walter	-11.9937
Full	-11.9937
Thomas	-11.9937
Philip	-11.9937
Christophe	-11.9937
Stanley	-11.9937
awful	-11.9937
suspect	-11.9937
Jerry	-11.9938
satisfying	-11.9938
White	-11.9938
Simon	-11.9938
Albert	-11.9938
Andrew	-11.9938
political	-11.9938
adventure	-11.9938
Frank	-11.9938
decent	-11.9938
Stewart	-11.9938
German	-11.9938
adult	-11.9938
Disney	-11.9938
white	-11.9938
school	-11.9938
high	-11.9938
character	-11.9939
horror	-11.9939
level	-11.9939
mentioned	-11.9939
deep	-11.9939
second	-11.9939
twist	-11.9939
Fido	-11.9939
brilliant	-11.994
Old	-11.994
big	-11.9942
Life	-11.9942
Really	-11.9943
shock	-11.9943
active	-11.9945
somewhat	-11.9945
price	-11.9945
compar	-11.9946
magic	-11.9946
burn	-11.9948
▁exaggerat	-11.995
steal	-11.9951
media	-11.9954
Mark	-11.9956
▁famil	-11.9962
▁applau	-11.9964
▁slim	-11.9964
▁centur	-11.9965
▁societ	-11.9965
▁execute	-11.9966
otorious	-11.997
▁disast	-11.9972
xcept	-11.9973
immer	-11.9973
▁Clair	-11.9973
custome	-11.998
Elis	-11.9984
▁Russia	-11.9987
articularly	-11.9989
original	-11.9989
magine	-11.9989
▁collaborat	-11.9993
▁Olive	-11.9993
entimental	-11.9993
lockbuster	-11.9994
▁Irani	-11.9994
utcracker	-11.9994
▁Virgin	-11.9995
FORE	-11.9995
▁situat	-11.9995
igital	-11.9995
Steve	-11.9995
onductor	-11.9995
▁Gerald	-11.9995
solution	-11.9995
sychiatrist	-11.9995
quisite	-11.9996
▁ambi	-11.9996
▁glam	-11.9996
▁hysteri	-11.9997
▁infatuat	-11.9997
▁vigilan	-11.9997
~	-11.9997
▁Independent	-11.9997
▁Kolcha	-11.9997
▁McKenzie	-11.9997
▁Niemann	-11.9997
▁adrenaline	-11.9997
**1/2	-11.9997
Dudikoff	-11.9997
Hellraiser	-11.9997
Homicide	-11.9997
MANTI	-11.9997
Maléfique	-11.9997
Paxinou	-11.9997
Perfect	-11.9997
Rhapsody	-11.9997
Sasquat	-11.9997
Skelton	-11.9997
Terrific	-11.9997
dalcanal	-11.9997
docudrama	-11.9997
onsequently	-11.9997
proclaim	-11.9997
satisfactory	-11.9997
sequential	-11.9997
sploitation	-11.9997
’	-11.9997
“	-11.9997
▁(7/10)	-11.9997
▁1918	-11.9997
▁1931	-11.9997
▁1940-194	-11.9997
▁1951	-11.9997
▁1968	-11.9997
▁1978	-11.9997
▁1985	-11.9997
▁1988	-11.9997
▁1993	-11.9997
▁1998	-11.9997
▁2036	-11.9997
▁Adjani	-11.9997
▁Aiello	-11.9997
▁Archibald	-11.9997
▁Atlantic	-11.9997
▁Audiard	-11.9997
▁Baltimore	-11.9997
▁Beatty	-11.9997
▁Binoche	-11.9997
▁Blondell	-11.9997
▁Bolivia	-11.9997
▁Buddhis	-11.9997
▁Christensen	-11.9997
▁Cinématographe	-11.9997
▁Cleveland	-11.9997
▁Community	-11.9997
▁Congratulations	-11.9997
▁Coulouris	-11.9997
▁Crenna	-11.9997
▁Criminal	-11.9997
▁Crowley	-11.9997
▁EVERYONE	-11.9997
▁Eleanor	-11.9997
▁Entertainment	-11.9997
▁Exorcist	-11.9997
▁Expect	-11.9997
▁Fantasy	-11.9997
▁Fernando	-11.9997
▁Flippen	-11.9997
▁Gabby	-11.9997
▁Girlfight	-11.9997
▁Hampton	-11.9997
▁Hungarian	-11.9997
▁Instinct	-11.9997
▁JUST	-11.9997
▁Jacob	-11.9997
▁Kilmer	-11.9997
▁Levinson	-11.9997
▁Liverpool	-11.9997
▁Lumiere	-11.9997
▁MUCH	-11.9997
▁Massacre	-11.9997
▁McAdam	-11.9997
▁McLaglen	-11.9997
▁Morbius	-11.9997
▁Multipl	-11.9997
▁Nowadays	-11.9997
▁Nunez	-11.9997
▁Orchestra	-11.9997
▁PRINCESS	-11.9997
▁Patekar	-11.9997
▁Principal	-11.9997
▁Pumbaa	-11.9997
▁Revolution	-11.9997
▁Ripper	-11.9997
▁Rippner	-11.9997
▁Rizzo	-11.9997
▁Scuddamore	-11.9997
▁Service	-11.9997
▁Skipper	-11.9997
▁Smallville	-11.9997
▁Special	-11.9997
▁Surprise	-11.9997
▁Trailer	-11.9997
▁Trelkovsk	-11.9997
▁Vancouver	-11.9997
▁Vivian	-11.9997
▁Voyage	-11.9997
▁Vulcan	-11.9997
▁WIND	-11.9997
▁Yelnats	-11.9997
▁Zelah	-11.9997
▁accommodat	-11.9997
▁acquaintance	-11.9997
▁adolescence	-11.9997
▁ancestors	-11.9997
▁athletic	-11.9997
▁blurred	-11.9997
▁brooding	-11.9997
▁carpenter	-11.9997
▁categorize	-11.9997
▁cemetery	-11.9997
▁chemical	-11.9997
▁chimney	-11.9997
▁choreographer	-11.9997
▁chronicle	-11.9997
▁condescen	-11.9997
▁confidant	-11.9997
▁congratulate	-11.9997
▁consultant	-11.9997
▁contempt	-11.9997
▁convoluted	-11.9997
▁dedication	-11.9997
▁defense	-11.9997
▁demeanor	-11.9997
▁denouement	-11.9997
▁despicabl	-11.9997
▁distributor	-11.9997
▁earthquake	-11.9997
▁effeminate	-11.9997
▁electrifying	-11.9997
▁emphasize	-11.9997
▁esteem	-11.9997
▁ethnic	-11.9997
▁exchange	-11.9997
▁exercis	-11.9997
▁exposure	-11.9997
▁firefighter	-11.9997
▁frenzy	-11.9997
▁gloomy	-11.9997
▁grateful	-11.9997
▁gratitude	-11.9997
▁hampered	-11.9997
▁heartwarming	-11.9997
▁helicopter	-11.9997
▁heterosexual	-11.9997
▁hustler	-11.9997
▁idiosyncra	-11.9997
▁imaginary	-11.9997
▁impeccabl	-11.9997
▁impossibilit	-11.9997
▁indication	-11.9997
▁institution	-11.9997
▁intricate	-11.9997
▁liberties	-11.9997
▁magnitude	-11.9997
▁marvellous	-11.9997
▁maturity	-11.9997
▁misplaced	-11.9997
▁obscurity	-11.9997
▁patriarch	-11.9997
▁permeate	-11.9997
▁perpetual	-11.9997
▁persistent	-11.9997
▁phenom	-11.9997
▁phony	-11.9997
▁phras	-11.9997
▁pitfalls	-11.9997
▁plastic	-11.9997
▁pornography	-11.9997
▁precision	-11.9997
▁professor	-11.9997
▁prosecutor	-11.9997
▁rebellious	-11.9997
▁reincarnated	-11.9997
▁reinforce	-11.9997
▁remorse	-11.9997
▁restriction	-11.9997
▁risqué	-11.9997
▁rotoscop	-11.9997
▁salute	-11.9997
▁silhouette	-11.9997
▁simulat	-11.9997
▁smirk	-11.9997
▁soliloqu	-11.9997
▁sporadic	-11.9997
▁squeak	-11.9997
▁stifling	-11.9997
▁stimulate	-11.9997
▁stimulating	-11.9997
▁stylised	-11.9997
▁submarine	-11.9997
▁supplie	-11.9997
▁sympathise	-11.9997
▁tissue	-11.9997
▁transmitted	-11.9997
▁tribulations	-11.9997
▁understatement	-11.9997
▁uninspired	-11.9997
▁unlikable	-11.9997
▁unnoticed	-11.9997
▁unsuccessful	-11.9997
▁untouched	-11.9997
▁wheelchair	-11.9997
▁wisecrack	-11.9997
@	-11.9997
Recently	-11.9997
Schindler	-11.9997
affirm	-11.9997
ü	-11.9997
▁'60	-11.9997
▁1989	-11.9997
▁Bachchan	-11.9997
▁Brashear	-11.9997
▁Callahan	-11.9997
▁Crawford	-11.9997
▁Detroit	-11.9997
▁Dickinson	-11.9997
▁Elliott	-11.9997
▁Fishburne	-11.9997
▁Gielgud	-11.9997
▁Gilliam	-11.9997
▁Hayworth	-11.9997
▁Hickok	-11.9997
▁Katzir	-11.9997
▁Kurasawa	-11.9997
▁Lassalle	-11.9997
▁Learning	-11.9997
▁Lensman	-11.9997
▁Miraglia	-11.9997
▁Miyazaki	-11.9997
▁Newhart	-11.9997
▁Pacific	-11.9997
▁Prophet	-11.9997
▁Rabbit	-11.9997
▁Rosario	-11.9997
▁Scorsese	-11.9997
▁Solomon	-11.9997
▁Sundance	-11.9997
▁Whitman	-11.9997
▁antagonist	-11.9997
▁catchphrase	-11.9997
▁condemn	-11.9997
▁convenien	-11.9997
▁council	-11.9997
▁deduce	-11.9997
▁definition	-11.9997
▁discreet	-11.9997
▁disintegrat	-11.9997
▁dissect	-11.9997
▁envelop	-11.9997
▁fantasies	-11.9997
▁glance	-11.9997
▁irrelevant	-11.9997
▁landlord	-11.9997
▁luxur	-11.9997
▁minimum	-11.9997
▁museum	-11.9997
▁nutshell	-11.9997
▁patron	-11.9997
▁penalty	-11.9997
▁potboiler	-11.9997
▁puzzling	-11.9997
▁rabbit	-11.9997
▁scholar	-11.9997
▁slaughter	-11.9997
▁tearjerker	-11.9997
▁territory	-11.9997
▁thrive	-11.9997
▁townsfolk	-11.9997
▁tyrann	-11.9997
▁underwear	-11.9997
▁universit	-11.9997
▁veneer	-11.9997
▁versatile	-11.9997
Crazy	-11.9997
Tristan	-11.9997
discount	-11.9997
natomy	-11.9997
ontaine	-11.9997
▁Burles	-11.9997
▁Cahill	-11.9997
▁Carlisle	-11.9997
▁Choco	-11.9997
▁Chopra	-11.9997
▁Crash	-11.9997
▁Etzel	-11.9997
▁Flash	-11.9997
▁Gummer	-11.9997
▁Jungle	-11.9997
▁Kendall	-11.9997
▁Passion	-11.9997
▁WANT	-11.9997
▁abomina	-11.9997
▁anamorphic	-11.9997
▁anniversar	-11.9997
▁bloke	-11.9997
▁chalk	-11.9997
▁client	-11.9997
▁composer	-11.9997
▁decapitate	-11.9997
▁dismiss	-11.9997
▁harrowing	-11.9997
▁hurry	-11.9997
▁intersperse	-11.9997
▁kinky	-11.9997
▁persuasi	-11.9997
▁premature	-11.9997
▁renewed	-11.9997
▁shrink	-11.9997
▁Prime	-11.9997
▁Should	-11.9997
▁Texan	-11.9997
▁seamless	-11.9997
▁spiral	-11.9997
▁valid	-11.9997
Caprica	-11.9997
Resnais	-11.9997
gypt	-11.9997
▁Lohman	-11.9997
▁REAL	-11.9997
▁Watson	-11.9997
▁blackmail	-11.9997
▁downhill	-11.9997
▁empathi	-11.9997
▁polar	-11.9997
SON	-11.9997
▁Birth	-11.9997
▁Build	-11.9997
▁COM	-11.9997
▁Connelly	-11.9997
▁Gaillardia	-11.9997
▁Logan	-11.9997
▁Pleasan	-11.9997
▁Spade	-11.9997
▁Writing	-11.9997
▁brash	-11.9997
▁brute	-11.9997
▁conceit	-11.9997
▁costuming	-11.9997
▁mesmerize	-11.9997
▁quotable	-11.9997
▁regain	-11.9997
▁statue	-11.9997
▁wilderness	-11.9997
▁Hayter	-11.9997
▁Network	-11.9997
▁apply	-11.9997
▁carnage	-11.9997
▁commentator	-11.9997
▁feud	-11.9997
▁jester	-11.9997
▁restraint	-11.9997
▁shark	-11.9997
▁warlord	-11.9997
Maverick	-11.9997
▁Ledger	-11.9997
▁Saura	-11.9997
▁framing	-11.9997
▁manifest	-11.9997
▁scout	-11.9997
▁tomorrow	-11.9997
▁unwilling	-11.9997
Dimitri	-11.9997
▁Apple	-11.9997
▁Stock	-11.9997
▁dawn	-11.9997
▁dowdy	-11.9997
▁Crothers	-11.9997
▁Delpy	-11.9997
▁Morales	-11.9997
▁drill	-11.9997
▁gidd	-11.9997
▁smack	-11.9997
▁whack	-11.9997
▁Reich	-11.9997
1932	-11.9997
liberated	-11.9997
▁Anchor	-11.9997
▁Bosworth	-11.9997
▁Emmy	-11.9997
▁Dentist	-11.9997
▁Fenton	-11.9997
▁intact	-11.9997
▁Anime	-11.9997
▁altogether	-11.9997
▁archetyp	-11.9997
▁replies	-11.9997
▁voting	-11.9997
▁gently	-11.9997
ASE	-11.9997
SOME	-11.9997
▁Belasco	-11.9997
▁disarm	-11.9997
▁potty	-11.9997
▁Anything	-11.9997
RIT	-11.9997
▁barbari	-11.9997
▁Islam	-11.9997
▁glee	-11.9997
▁internet	-11.9997
detached	-11.9997
▁Trish	-11.9997
▁Amber	-11.9997
▁opus	-11.9997
▁saddest	-11.9997
▁rift	-11.9997
Laputa	-11.9997
unjab	-11.9997
▁Mamet	-11.9997
▁Listen	-11.9997
▁assembl	-11.9997
▁salesman	-11.9997
AME	-11.9997
▁Hotel	-11.9997
▁ensure	-11.9997
▁sailing	-11.9997
▁Certainly	-11.9997
▁Driver	-11.9997
▁saint	-11.9997
upid	-11.9997
▁convert	-11.9997
Natural	-11.9997
ultry	-11.9997
▁Kingsley	-11.9997
▁trace	-11.9997
▁somber	-11.9997
▁Trent	-11.9997
**********	-11.9997
▁cinematographer	-11.9997
▁Yugoslavia	-11.9997
▁examination	-11.9997
▁Town	-11.9997
▁clothing	-11.9997
▁Trier	-11.9997
▁warrant	-11.9997
▁Lyle	-11.9997
▁disrespect	-11.9997
▁textbook	-11.9997
▁crust	-11.9997
▁sugar	-11.9998
▁terminal	-11.9998
▁desolat	-11.9998
▁Celia	-11.9998
▁Frye	-11.9998
▁trait	-11.9998
onzo	-11.9998
fairytale	-11.9998
▁anarchi	-11.9998
▁1966	-11.9998
▁Marshall	-11.9998
▁asylum	-11.9998
▁oppress	-11.9998
▁Shemp	-11.9998
imdb	-11.9998
Taxi	-11.9998
▁philosophical	-11.9998
▁alliance	-11.9998
▁dripp	-11.9998
▁robbery	-11.9998
EXT	-11.9998
▁shiver	-11.9998
▁cynicism	-11.9998
Scoop	-11.9998
▁outdated	-11.9998
▁IMO	-11.9998
▁resur	-11.9998
▁resume	-11.9998
▁feather	-11.9998
▁Knightley	-11.9998
▁decomp	-11.9998
▁Estonia	-11.9998
▁Finlayson	-11.9998
▁brows	-11.9998
▁extens	-11.9998
▁radian	-11.9998
▁idol	-11.9998
▁skim	-11.9998
ghast	-11.9998
CON	-11.9998
▁precede	-11.9998
▁Geer	-11.9998
▁Keeler	-11.9998
▁distort	-11.9998
▁Blaise	-11.9998
▁Harbou	-11.9998
▁shelf	-11.9998
inducing	-11.9998
▁blunder	-11.9998
▁sniff	-11.9998
▁uptight	-11.9998
▁Cohen	-11.9999
▁companionship	-11.9999
▁Gwynne	-11.9999
▁Blyth	-11.9999
▁admission	-11.9999
▁Colbert	-11.9999
▁miniature	-11.9999
▁submitted	-11.9999
▁Gunga	-11.9999
▁retrospective	-11.9999
▁infection	-11.9999
athlete	-11.9999
▁Glad	-11.9999
▁wannabe	-11.9999
BJM	-11.9999
▁borderline	-11.9999
▁concentration	-11.9999
▁Meena	-11.9999
▁snake	-11.9999
▁Anglo	-11.9999
CTU	-11.9999
▁mili	-11.9999
▁destination	-11.9999
▁Tiny	-11.9999
▁miscast	-11.9999
▁Diamond	-11.9999
▁faux	-11.9999
▁1944	-12
▁Nutcracker	-12
▁dreadful	-12
▁chip	-12
▁firing	-12
▁splendor	-12
hollow	-12
▁romp	-12
▁Gavin	-12
▁bump	-12
libi	-12
▁Hayes	-12
▁rambl	-12
▁lush	-12
▁resistance	-12
▁HAVE	-12
▁staff	-12
▁flea	-12
LOG	-12
▁frail	-12
▁Jedi	-12
▁WEST	-12
smith	-12
▁Busey	-12.0001
▁Wayne	-12.0001
▁feast	-12.0001
▁sheep	-12.0001
▁riff	-12.0001
▁snuff	-12.0001
▁Garner	-12.0001
-13	-12.0001
▁assistance	-12.0001
▁Dolls	-12.0001
▁Gert	-12.0001
▁assassination	-12.0001
mower	-12.0001
RTY	-12.0001
▁infant	-12.0001
TION	-12.0001
▁collaboration	-12.0001
▁mimic	-12.0001
▁Zane	-12.0002
▁foul	-12.0002
▁pipe	-12.0002
Miou	-12.0002
▁replacement	-12.0002
▁ballad	-12.0002
▁candle	-12.0002
▁Ballet	-12.0002
Griffi	-12.0002
▁Linds	-12.0002
▁recognisable	-12.0002
▁redefine	-12.0002
▁honk	-12.0003
▁viewpoint	-12.0003
▁Frederic	-12.0003
▁Borden	-12.0003
▁Devos	-12.0003
camp	-12.0003
▁Tibetan	-12.0003
▁hunk	-12.0003
▁judgment	-12.0003
▁Itchy	-12.0003
▁Yok	-12.0003
▁Condi	-12.0003
▁Milton	-12.0003
▁disability	-12.0003
ffani	-12.0003
▁vibe	-12.0003
▁crop	-12.0003
▁prospect	-12.0003
▁Horne	-12.0003
▁spinster	-12.0003
▁meanwhile	-12.0003
▁Masterson	-12.0003
rived	-12.0004
▁Kingdom	-12.0004
▁confession	-12.0004
▁Corps	-12.0004
▁complexities	-12.0004
▁Beery	-12.0004
▁tenderness	-12.0004
▁devilish	-12.0004
collar	-12.0004
▁Muni	-12.0004
▁sergeant	-12.0004
007	-12.0004
▁Haunt	-12.0004
▁Drake	-12.0004
▁herrings	-12.0005
▁OZ	-12.0005
▁arson	-12.0005
▁improvement	-12.0005
▁Woodard	-12.0005
gnos	-12.0005
▁Marylin	-12.0006
▁perip	-12.0006
▁smug	-12.0006
eatrice	-12.0006
▁Vince	-12.0006
essari	-12.0006
▁starlet	-12.0006
▁weekend	-12.0006
▁commitment	-12.0007
▁frontier	-12.0007
▁Jolie	-12.0007
▁sanity	-12.0007
▁Luna	-12.0007
▁Riff	-12.0007
▁visionary	-12.0008
▁Marsh	-12.0008
▁Carey	-12.0008
▁Sheedy	-12.0008
▁personified	-12.0008
▁stray	-12.0008
▁clara	-12.0008
alyze	-12.0008
▁Thom	-12.0009
▁babe	-12.0009
▁puke	-12.001
▁muted	-12.001
▁Rome	-12.001
▁Omar	-12.001
▁Hays	-12.0011
▁dogma	-12.0011
▁grandma	-12.0011
oops	-12.0012
Actual	-12.0013
▁loop	-12.0013
hriek	-12.0013
▁beef	-12.0014
▁Rather	-12.0014
ritish	-12.0014
▁relish	-12.0014
▁Maha	-12.0015
▁tax	-12.0015
▁Malco	-12.0015
lousy	-12.0018
▁Lorn	-12.0019
▁resonan	-12.002
▁Mona	-12.0021
▁monarch	-12.0021
hurch	-12.0022
▁stance	-12.0024
righteous	-12.0025
DID	-12.0027
▁Letter	-12.0028
slash	-12.0031
▁Rodd	-12.0041
▁Berg	-12.0055
sensible	-12.0061
▁slit	-12.0073
evic	-12.0084
▁Kendr	-12.0091
scrib	-12.0092
▁regime	-12.0093
2008	-12.0095
ashamed	-12.0099
Nekro	-12.0107
Files	-12.0113
▁epitomize	-12.013
▁synchronize	-12.0142
▁conscien	-12.0145
▁aural	-12.0146
gram	-12.0147
etera	-12.0161
rected	-12.0163
▁woke	-12.0164
Raider	-12.0174
▁deriv	-12.0177
▁circula	-12.0178
Precious	-12.0179
▁Burr	-12.0181
mpy	-12.0224
▁integrate	-12.023
drawn	-12.0231
▁dodg	-12.0231
▁rogu	-12.0235
▁preserve	-12.0265
▁Verdon	-12.0281
▁Dominican	-12.0287
▁Bott	-12.0297
▁chopp	-12.0308
Shame	-12.0313
Miche	-12.0319
▁solidifie	-12.0356
idle	-12.0361
print	-12.0369
discipline	-12.0373
cceptance	-12.0377
▁prize	-12.0378
▁$12	-12.0401
atti	-12.0435
▁2002	-12.044
appenstance	-12.0475
trust	-12.0481
▁rode	-12.0487
goats	-12.0505
▁Rag	-12.053
busting	-12.0538
▁Maril	-12.0548
arried	-12.0612
Driv	-12.0617
▁Graaf	-12.0633
▁Childre	-12.0641
▁Clar	-12.0783
fare	-12.0855
Darkness	-12.0884
None	-12.0898
▁manipulat	-12.0911
BLE	-12.0927
▁stair	-12.0946
dditionally	-12.1093
SHE	-12.1094
62	-12.1108
▁cooperat	-12.1288
LOU	-12.1295
▁incorporat	-12.1387
▁Papp	-12.1499
▁shatter	-12.1526
shattering	-12.1527
igra	-12.153
OCK	-12.1539
ullied	-12.1545
▁opp	-12.1562
Connor	-12.1624
▁academ	-12.1667
Roland	-12.1692
awyer	-12.1748
spirited	-12.1769
▁Michel	-12.1839
umph	-12.1915
▁unrel	-12.195
appearance	-12.2046
▁Mega	-12.2099
Liam	-12.2109
rmed	-12.212
▁humaniz	-12.2134
stairs	-12.2167
pleaser	-12.2174
▁Claren	-12.2185
opener	-12.2192
compil	-12.2245
legg	-12.2254
fortunately	-12.2291
Stay	-12.2363
ounty	-12.2504
ffle	-12.2548
Classics	-12.2594
▁Hawai	-12.2613
aradise	-12.2671
▁cycl	-12.2675
utti	-12.2711
rogat	-12.2735
▁replicat	-12.2744
Adel	-12.2745
mitation	-12.2805
▁pictur	-12.2816
formulaic	-12.2962
speak	-12.3006
talking	-12.3008
▁thumb	-12.3036
▁Studio	-12.3036
▁Soprano	-12.3039
▁twi	-12.3073
dapted	-12.3111
chievement	-12.3113
▁synchron	-12.3132
▁receiv	-12.3143
terrifically	-12.316
harlot	-12.3169
▁figur	-12.3216
racking	-12.3252
passionate	-12.3253
Walla	-12.3259
▁inconsisten	-12.326
bodies	-12.3264
▁doubl	-12.3264
Angel	-12.3265
certain	-12.3266
Adventure	-12.3267
significance	-12.3267
Chris	-12.3268
Think	-12.3268
Craig	-12.3268
Raymond	-12.3268
Sutherland	-12.3268
present	-12.3268
Louise	-12.3269
▁Franci	-12.3269
green	-12.3269
Acting	-12.3269
Quaid	-12.3269
Whoopi	-12.3269
Denz	-12.3269
uction	-12.3269
spoken	-12.3269
Pickford	-12.327
Amanda	-12.327
Beautiful	-12.327
Larry	-12.327
Friends	-12.327
jaw	-12.327
Sadly	-12.327
Hugh	-12.327
Jessica	-12.327
Lewis	-12.327
Again	-12.327
Barbara	-12.327
Water	-12.327
Definitely	-12.327
sophisticated	-12.327
Sometimes	-12.327
Anthony	-12.327
Planet	-12.327
Roger	-12.327
North	-12.327
detective	-12.3271
capable	-12.3271
professional	-12.3271
entertain	-12.3271
Titanic	-12.3271
True	-12.3271
Nothing	-12.3271
Gundam	-12.3271
Grant	-12.3271
Fox	-12.3271
Branagh	-12.3271
Kevin	-12.3271
responsible	-12.3271
Charles	-12.3271
standard	-12.3271
western	-12.3271
Morgan	-12.3271
understand	-12.3271
Henry	-12.3271
Grand	-12.3271
Washington	-12.3271
father	-12.3271
model	-12.3271
VHS	-12.3271
Daniel	-12.3271
broken	-12.3271
Bourne	-12.3271
House	-12.3271
▁refresh	-12.3272
Charlie	-12.3272
secret	-12.3272
culture	-12.3272
language	-12.3272
World	-12.3272
shift	-12.3272
complete	-12.3272
fantasy	-12.3272
strange	-12.3272
content	-12.3272
together	-12.3272
straight	-12.3272
romantic	-12.3272
episode	-12.3272
video	-12.3272
children	-12.3272
future	-12.3272
Roy	-12.3272
follow	-12.3273
Stone	-12.3273
/10)	-12.3274
Erik	-12.3274
next	-12.3274
value	-12.328
▁monst	-12.328
▁neglect	-12.3282
▁relax	-12.3283
▁happi	-12.3285
ristine	-12.3287
▁immense	-12.3289
wipe	-12.3295
approv	-12.3297
▁identit	-12.3298
▁amaze	-12.3299
rifle	-12.3303
Georg	-12.3305
▁suspens	-12.3308
Simpl	-12.3308
▁lumin	-12.3308
▁Alexandr	-12.3311
▁Korea	-12.3316
▁cynic	-12.3319
umours	-12.3319
nspector	-12.3322
nitially	-12.3322
▁competiti	-12.3324
▁explosi	-12.3324
▁revel	-12.3325
▁psychiatri	-12.3325
▁sanct	-12.3325
▁mirac	-12.3325
pectacular	-12.3326
equences	-12.3326
ociety	-12.3326
uicide	-12.3326
mooth	-12.3326
▁convent	-12.3326
occer	-12.3327
enaissance	-12.3328
▁Gwyn	-12.3328
▁extraordina	-12.3328
▁optimis	-12.3328
reasure	-12.3329
ntense	-12.3329
▁Finlay	-12.3329
esperate	-12.3329
hallenge	-12.3329
▁controvers	-12.3329
apolog	-12.3329
▁advent	-12.3329
agnificent	-12.3329
ethod	-12.3329
ditional	-12.333
ugoslavia	-12.333
logues	-12.333
▁stereo	-12.333
▁vamp	-12.333
quist	-12.333
▁appar	-12.333
ontempora	-12.333
eyond	-12.333
▁Shakespe	-12.333
▁deprav	-12.333
28/	-12.333
í	-12.333
▁liqu	-12.333
▁pivot	-12.333
▁subtract	-12.333
****/*****	-12.333
Anglaise	-12.333
Apprentice	-12.333
BASEketball	-12.333
BODY	-12.333
Caucasian	-12.333
Empire	-12.333
Example	-12.333
Giancarlo	-12.333
Government	-12.333
Greengrass	-12.333
INTELLIGENT	-12.333
MATA	-12.333
Metropolis	-12.333
Metschurat	-12.333
Michelangelo	-12.333
Protestant	-12.333
Similarly	-12.333
WARNING	-12.333
Whirl	-12.333
YTHING	-12.333
^	-12.333
ccupation	-12.333
democratic	-12.333
enguins	-12.333
evaluate	-12.333
hilarity	-12.333
occupy	-12.333
olocaust	-12.333
ribbean	-12.333
wretched	-12.333
yndrome	-12.333
à	-12.333
ï	-12.333
▁(1996	-12.333
▁1917	-12.333
▁1933	-12.333
▁1941-194	-12.333
▁1956	-12.333
▁1973	-12.333
▁1976	-12.333
▁1981	-12.333
▁1982	-12.333
▁1983	-12.333
▁1999	-12.333
▁AGAIN	-12.333
▁Account	-12.333
▁Admittedly	-12.333
▁Affleck	-12.333
▁Akki	-12.333
▁Apatow	-12.333
▁Argentinian	-12.333
▁Avalon	-12.333
▁BLOOD	-12.333
▁Balkan	-12.333
▁Barjatya	-12.333
▁Baryshnikov	-12.333
▁Batista	-12.333
▁Beatles	-12.333
▁Behind	-12.333
▁Broadbent	-12.333
▁Castorini	-12.333
▁Catalunya	-12.333
▁Clooney	-12.333
▁Crandall	-12.333
▁Cristina	-12.333
▁Dalmatians	-12.333
▁DeVito	-12.333
▁Depardieu	-12.333
▁Divorce	-12.333
▁EVERYTHING	-12.333
▁Eleniak	-12.333
▁Extrem	-12.333
▁Farnsworth	-12.333
▁Fastway	-12.333
▁Fessenden	-12.333
▁Flamen	-12.333
▁Goldblum	-12.333
▁Goliath	-12.333
▁Guetary	-12.333
▁Gyllenhaal	-12.333
▁Hammond	-12.333
▁Hewlett	-12.333
▁Innocence	-12.333
▁Internet	-12.333
▁Jasbir	-12.333
▁Jerusalem	-12.333
▁Kermit	-12.333
▁Kibbee	-12.333
▁Kipps	-12.333
▁LIKE	-12.333
▁Language	-12.333
▁Longstreet	-12.333
▁MacGregor	-12.333
▁Manhattan	-12.333
▁Mantegna	-12.333
▁Marquis	-12.333
▁McCord	-12.333
▁McIntire	-12.333
▁Moslem	-12.333
▁Mulligan	-12.333
▁Necroborg	-12.333
▁Neighbo	-12.333
▁Nighy	-12.333
▁Ninja	-12.333
▁Oregon	-12.333
▁PERFECT	-12.333
▁Paxson	-12.333
▁Phelps	-12.333
▁Pidgeon	-12.333
▁Pujari	-12.333
▁Pâquerette	-12.333
▁Quotes	-12.333
▁Rathbone	-12.333
▁Reidelsheimer	-12.333
▁Rhys	-12.333
▁Rhythm	-12.333
▁Ricci	-12.333
▁Rinaldi	-12.333
▁SHAKTI	-12.333
▁Schumacher	-12.333
▁Scooter	-12.333
▁Scorpion	-12.333
▁Shamroy	-12.333
▁Shinjuku	-12.333
▁Silvio	-12.333
▁Sinclair	-12.333
▁Sorbonne	-12.333
▁Soutendijk	-12.333
▁Specifically	-12.333
▁Sputnik	-12.333
▁Stalingrad	-12.333
▁Stooge	-12.333
▁Strauss	-12.333
▁Stretch	-12.333
▁Tamblyn	-12.333
▁Tamerlane	-12.333
▁Technically	-12.333
▁Terror	-12.333
▁Tomasso	-12.333
▁Tourneur	-12.333
▁Understandabl	-12.333
▁Urban	-12.333
▁VERGER	-12.333
▁Vampire	-12.333
▁Verneuil	-12.333
▁Vonnegut	-12.333
▁WATCH	-12.333
▁Yeager	-12.333
▁Yoda	-12.333
▁Yvaine	-12.333
▁adventurous	-12.333
▁affluent	-12.333
▁aggression	-12.333
▁amusement	-12.333
▁anguish	-12.333
▁apropos	-12.333
▁articulate	-12.333
▁assignment	-12.333
▁assimilate	-12.333
▁astronauts	-12.333
▁automobile	-12.333
▁baggage	-12.333
▁beguil	-12.333
▁bikini	-12.333
▁biology	-12.333
▁bracelet	-12.333
▁breeze	-12.333
▁caution	-12.333
▁cheerleader	-12.333
▁chimps	-12.333
▁cigarette	-12.333
▁circuit	-12.333
▁claustrophobia	-12.333
▁closure	-12.333
▁colonel	-12.333
▁comedienne	-12.333
▁commodity	-12.333
▁complacen	-12.333
▁complications	-12.333
▁confection	-12.333
▁conspicuous	-12.333
▁constitute	-12.333
▁convalesc	-12.333
▁creativity	-12.333
▁deceased	-12.333
▁declares	-12.333
▁delirious	-12.333
▁delusion	-12.333
▁depressive	-12.333
▁disservice	-12.333
▁doozy	-12.333
▁dutiful	-12.333
▁eclips	-12.333
▁elegance	-12.333
▁elusive	-12.333
▁embezzl	-12.333
▁emotive	-12.333
▁empire	-12.333
▁encapsulat	-12.333
▁encompass	-12.333
▁encouraging	-12.333
▁endeavor	-12.333
▁endeavour	-12.333
▁equipment	-12.333
▁equiv	-12.333
▁evocative	-12.333
▁exasperat	-12.333
▁excellence	-12.333
▁excluded	-12.333
▁exemplif	-12.333
▁extravaganza	-12.333
▁fictitio	-12.333
▁footsteps	-12.333
▁fruition	-12.333
▁gigantic	-12.333
▁godmother	-12.333
▁histrionic	-12.333
▁horrendous	-12.333
▁hybrid	-12.333
▁icicle	-12.333
▁iconography	-12.333
▁ignorance	-12.333
▁inaccurac	-12.333
▁incarnation	-12.333
▁inexplicably	-12.333
▁infancy	-12.333
▁inflection	-12.333
▁innocuous	-12.333
▁interlude	-12.333
▁jeopardy	-12.333
▁juxtaposition	-12.333
▁kitsch	-12.333
▁magnifi	-12.333
▁majestic	-12.333
▁marathon	-12.333
▁marijuana	-12.333
▁matinée	-12.333
▁melancholy	-12.333
▁metropol	-12.333
▁millennium	-12.333
▁misogynistic	-12.333
▁morbid	-12.333
▁mystifying	-12.333
▁naïve	-12.333
▁neuro	-12.333
▁nickname	-12.333
▁nonpareil	-12.333
▁notoriety	-12.333
▁oblivio	-12.333
▁occupant	-12.333
▁omitted	-12.333
▁opposition	-12.333
▁optical	-12.333
▁pedophil	-12.333
▁perpetrators	-12.333
▁persuade	-12.333
▁plausible	-12.333
▁pocket	-12.333
▁possibilities	-12.333
▁pregnancy	-12.333
▁prelude	-12.333
▁pretension	-12.333
▁psychic	-12.333
▁psychopath	-12.333
▁puncture	-12.333
▁qualification	-12.333
▁qualify	-12.333
▁quarrel	-12.333
▁rainbow	-12.333
▁reconcil	-12.333
▁rediscover	-12.333
▁redundancy	-12.333
▁reincarnation	-12.333
▁revolt	-12.333
▁saccharine	-12.333
▁scathing	-12.333
▁skewered	-12.333
▁snooty	-12.333
▁spaghetti	-12.333
▁squalor	-12.333
▁stubborn	-12.333
▁stuttering	-12.333
▁sufficient	-12.333
▁suffocat	-12.333
▁suppress	-12.333
▁synopsis	-12.333
▁testimony	-12.333
▁thwart	-12.333
▁travesty	-12.333
▁turkey	-12.333
▁tycoon	-12.333
▁unattractive	-12.333
▁unconvincing	-12.333
▁underestimat	-12.333
▁unfaithful	-12.333
▁unflinching	-12.333
▁unpretentious	-12.333
▁unresolved	-12.333
▁unsurpassed	-12.333
▁variable	-12.333
▁vulgar	-12.333
▁whiskers	-12.333
▁wizardry	-12.333
▁wrinkl	-12.333
Shakti	-12.333
andwiche	-12.333
▁BACK	-12.333
▁Bambi	-12.333
▁Benjamin	-12.333
▁Expres	-12.333
▁Gervais	-12.333
▁Incredible	-12.333
▁Kipling	-12.333
▁Mirror	-12.333
▁Monkeys	-12.333
▁Museum	-12.333
▁Quadrophenia	-12.333
▁Shannon	-12.333
▁TIME	-12.333
▁buffaloes	-12.333
▁concrete	-12.333
▁confound	-12.333
▁conjure	-12.333
▁embellish	-12.333
▁exuberan	-12.333
▁headmaster	-12.333
▁hillbill	-12.333
▁hypocris	-12.333
▁meticulous	-12.333
▁nihilis	-12.333
▁perverse	-12.333
▁pollut	-12.333
▁promiscuous	-12.333
▁pronounce	-12.333
▁splatter	-12.333
▁transsexual	-12.333
▁valiant	-12.333
▁wistful	-12.333
Aviv	-12.333
Phoebe	-12.333
Rosenstrasse	-12.333
Suspense	-12.333
anguorous	-12.333
forgivable	-12.333
▁Anupam	-12.333
▁BORN	-12.333
▁Chahine	-12.333
▁Cramer	-12.333
▁Dietrich	-12.333
▁GOOD	-12.333
▁Garcia	-12.333
▁Georgia	-12.333
▁Greedy	-12.333
▁Jewel	-12.333
▁Lanisha	-12.333
▁Minelli	-12.333
▁Muffat	-12.333
▁Muriel	-12.333
▁PARAD	-12.333
▁Panama	-12.333
▁Ramallo	-12.333
▁Simba	-12.333
▁Vienna	-12.333
▁Zucker	-12.333
▁abbey	-12.333
▁alchem	-12.333
▁allegations	-12.333
▁backstabbing	-12.333
▁bluster	-12.333
▁café	-12.333
▁coffee	-12.333
▁coherent	-12.333
▁eagle	-12.333
▁eminent	-12.333
▁envisioned	-12.333
▁graveyard	-12.333
▁gunfight	-12.333
▁improbable	-12.333
▁manuscript	-12.333
▁masochistic	-12.333
▁ramones	-12.333
▁remaster	-12.333
▁schlock	-12.333
▁shortcomings	-12.333
▁unthinkable	-12.333
avalier	-12.333
▁(1950)	-12.333
▁Akira	-12.333
▁Bartram	-12.333
▁Brendon	-12.333
▁Doody	-12.333
▁Ezra	-12.333
▁Gardner	-12.333
▁Gomez	-12.333
▁Houston	-12.333
▁Manfred	-12.333
▁Paltrow	-12.333
▁Stallion	-12.333
▁VCR	-12.333
▁Yeah	-12.333
▁buffoon	-12.333
▁carriage	-12.333
▁coffin	-12.333
▁disdain	-12.333
▁invasion	-12.333
▁pervade	-12.333
▁tandem	-12.333
▁tattoo	-12.333
▁whim	-12.333
▁whimsical	-12.333
Collection	-12.333
Miklos	-12.333
Thursby	-12.333
▁Hobson	-12.333
▁MVP	-12.333
▁Rooker	-12.333
▁Sierra	-12.333
▁Soraj	-12.333
▁Winner	-12.333
▁blatant	-12.333
▁bunker	-12.333
▁commission	-12.333
▁counterparts	-12.333
▁dunno	-12.333
▁faves	-12.333
▁janitor	-12.333
▁panache	-12.333
▁undercover	-12.333
eluxe	-12.333
rotocol	-12.333
yahoo	-12.333
▁Average	-12.333
▁Bronson	-12.333
▁Groov	-12.333
▁Scenes	-12.333
▁contaminate	-12.333
▁dejected	-12.333
▁dizzy	-12.333
▁legion	-12.333
▁muscular	-12.333
▁narrow	-12.333
▁pioneer	-12.333
▁testify	-12.333
▁Cassel	-12.333
▁Dallas	-12.333
▁Historic	-12.333
▁mafia	-12.333
▁ooze	-12.333
Brien	-12.333
Cantonese	-12.333
▁LOL	-12.333
▁penetrate	-12.333
▁provoke	-12.333
▁uncover	-12.333
dunnit	-12.333
knuckle	-12.333
▁Decent	-12.333
▁Dollar	-12.333
▁Dwarf	-12.333
▁Ganz	-12.333
▁Ocean	-12.333
▁Releas	-12.333
▁anxious	-12.333
▁approval	-12.333
▁atrocious	-12.333
▁vistas	-12.333
▁Conroy	-12.333
▁Daughter	-12.333
▁Pazu	-12.333
▁Treize	-12.333
▁brink	-12.333
▁venom	-12.333
Factual	-12.333
animator	-12.333
▁Harlem	-12.333
▁statistic	-12.333
▁Crosby	-12.333
▁Rooney	-12.333
▁erupt	-12.333
▁slang	-12.333
Demons	-12.333
TATION	-12.333
▁Cylon	-12.333
▁bruis	-12.333
▁deceit	-12.333
▁scum	-12.333
▁swallow	-12.333
▁Maniac	-12.333
▁Neeson	-12.333
▁aboriginal	-12.333
▁propriet	-12.333
▁swirl	-12.333
▁wager	-12.333
▁Eisen	-12.333
▁Marvel	-12.333
▁distress	-12.333
▁ingenious	-12.333
▁shirt	-12.333
▁BLA	-12.333
▁Bentley	-12.333
▁IMHO	-12.333
▁Spall	-12.333
▁bloodshed	-12.333
▁delude	-12.333
▁feroci	-12.333
▁vessel	-12.333
▁01	-12.333
▁Demme	-12.333
▁Foley	-12.333
▁MAD	-12.333
▁chamb	-12.333
1928	-12.333
▁Bassett	-12.333
▁Ironside	-12.333
▁Joyce	-12.333
Beirut	-12.333
lgud	-12.333
▁implied	-12.333
▁pretti	-12.333
▁BAB	-12.333
▁Thorn	-12.333
▁egg	-12.333
▁Livingston	-12.333
▁Manager	-12.333
▁underpinn	-12.333
▁region	-12.333
▁Earp	-12.333
▁berries	-12.333
▁decay	-12.333
▁drastic	-12.333
▁duties	-12.3331
1935	-12.3331
▁Trick	-12.3331
▁surge	-12.3331
▁chron	-12.3331
▁judici	-12.3331
heimer	-12.3331
▁Colombia	-12.3331
▁artfully	-12.3331
▁permit	-12.3331
▁profile	-12.3331
▁Evergreen	-12.3331
▁sassy	-12.3331
▁tedious	-12.3331
▁Gingold	-12.3331
▁Treat	-12.3331
▁Tudor	-12.3331
▁venue	-12.3331
▁Sofia	-12.3331
▁oscar	-12.3331
▁scarred	-12.3331
▁utiliz	-12.3331
▁steady	-12.3331
▁avenge	-12.3331
rganization	-12.3331
▁Quebec	-12.3331
▁renown	-12.3331
▁Sorry	-12.3331
ophy	-12.3331
▁dispose	-12.3331
▁laboratory	-12.3331
▁stagy	-12.3331
▁supervis	-12.3331
▁legitima	-12.3331
▁Krell	-12.3331
▁foreground	-12.3331
▁Parents	-12.3331
▁populate	-12.3331
▁merge	-12.3331
▁Lilies	-12.3331
▁diversif	-12.3331
▁subtleties	-12.3331
▁Brave	-12.3331
▁Desire	-12.3331
▁blink	-12.3331
▁Crisp	-12.3331
▁Boots	-12.3331
▁Lorre	-12.3331
▁pact	-12.3331
▁relay	-12.3331
▁vegetable	-12.3331
▁Altair	-12.3331
▁Hood	-12.3331
▁aesthetic	-12.3331
▁parasit	-12.3331
▁cattle	-12.3331
▁spill	-12.3331
▁hilt	-12.3331
leanings	-12.3331
▁prosper	-12.3331
▁Schill	-12.3331
▁mime	-12.3331
▁schizophreni	-12.3331
oyant	-12.3331
▁chatter	-12.3331
▁gib	-12.3331
Zeenat	-12.3331
misunderstanding	-12.3331
▁merry	-12.3331
▁programming	-12.3331
▁pedest	-12.3331
▁venal	-12.3331
▁Henness	-12.3331
▁Speed	-12.3331
Hazel	-12.3331
▁Center	-12.3331
▁fences	-12.3331
capita	-12.3331
Awesome	-12.3331
▁Bubble	-12.3331
▁ogre	-12.3331
JFK	-12.3331
▁Cesar	-12.3331
▁entity	-12.3331
FUL	-12.3331
▁Fabul	-12.3331
▁Battle	-12.3332
yuk	-12.3332
percent	-12.3332
▁anchor	-12.3332
▁piti	-12.3332
saloon	-12.3332
▁dictate	-12.3332
Schwarz	-12.3332
Waterdance	-12.3332
▁subscribe	-12.3332
▁meditati	-12.3332
Ozzie	-12.3332
Caprio	-12.3332
▁Speer	-12.3332
▁initiat	-12.3332
▁Smile	-12.3332
▁(1995)	-12.3332
Sidewa	-12.3332
▁ilk	-12.3332
▁Metal	-12.3332
▁slam	-12.3332
gradation	-12.3333
▁gown	-12.3333
Surviv	-12.3333
▁industri	-12.3333
▁hastily	-12.3333
elope	-12.3333
▁scatt	-12.3333
spitting	-12.3333
mpty	-12.3333
Porky	-12.3334
▁Atkins	-12.3334
▁Hilar	-12.3334
▁Fift	-12.3335
ricket	-12.3335
▁spree	-12.3335
▁assort	-12.3335
NBC	-12.3336
nheim	-12.3336
▁Camil	-12.3336
▁steadi	-12.3336
▁Ryu	-12.3336
▁regist	-12.3337
911	-12.3337
▁mudd	-12.3337
Jump	-12.3337
▁undermin	-12.3337
▁witti	-12.3337
▁resurrect	-12.3337
OTS	-12.3339
▁glob	-12.3339
Follow	-12.3341
▁Graci	-12.3341
▁adhere	-12.3341
▁Constan	-12.3341
llusion	-12.3342
▁rumour	-12.3342
▁slug	-12.3342
trappings	-12.3343
epper	-12.3343
Rodol	-12.3344
▁Gangs	-12.3345
naval	-12.3346
▁Dja	-12.3347
▁Heroin	-12.3347
▁Mysteri	-12.3349
rusade	-12.335
▁luminescen	-12.3353
▁repute	-12.3354
ozen	-12.3356
Critics	-12.3358
eyebrow	-12.336
iamond	-12.3361
▁mingle	-12.3362
▁Featur	-12.3363
▁Panthe	-12.3363
▁menace	-12.3364
▁approve	-12.3364
▁Cybil	-12.3367
Tulip	-12.3373
Downfall	-12.3375
Salman	-12.3377
Snap	-12.3378
dvocate	-12.3379
quart	-12.3379
▁salar	-12.3384
▁crumbl	-12.3388
ossible	-12.3389
unior	-12.3394
dominant	-12.3396
▁Merc	-12.34
uperbly	-12.34
▁heavi	-12.3405
▁memori	-12.3409
Normally	-12.341
SCI	-12.3411
alloon	-12.3414
▁dissolv	-12.3415
▁presti	-12.3431
exec	-12.3448
eepy	-12.3457
1962	-12.3461
lamp	-12.3467
Jonah	-12.3488
▁Winni	-12.3501
derbelly	-12.3503
deathbed	-12.3505
unseen	-12.351
raffic	-12.3517
▁unbelievabl	-12.3547
actuality	-12.3556
evolutionary	-12.3667
ddictive	-12.3678
▁collaps	-12.3693
emorabl	-12.3699
untle	-12.3709
civilized	-12.385
ffice	-12.3853
enact	-12.3871
[	-13.8271
{	-13.8275
	-13.8276
â	-13.833
	-13.8506
$	-13.8507
́	-13.8508
