▁xxunk	0
▁xxpad	0
▁xxbos	0
▁xxeos	0
▁xxfld	0
▁xxrep	0
▁xxwrep	0
▁xxup	0
▁xxmaj	0
<unk>	0
▁the	-3.3379
.	-3.3649
,	-3.4126
s	-3.50692
▁a	-3.85614
▁and	-3.88838
▁of	-4.02219
▁to	-4.11726
'	-4.21692
▁is	-4.25541
br	-4.42707
▁/>	-4.45257
▁in	-4.46089
<	-4.48581
▁it	-4.63974
▁I	-4.68906
▁that	-4.78939
▁this	-4.96726
▁	-4.96935
t	-5.10248
-	-5.16209
▁film	-5.1985
ing	-5.21783
▁with	-5.22042
▁was	-5.23736
▁as	-5.25495
▁for	-5.25993
▁movie	-5.34923
ed	-5.35889
▁The	-5.43435
▁but	-5.47894
▁on	-5.54001
▁(	-5.54204
ly	-5.56422
▁are	-5.58855
▁his	-5.59831
▁"	-5.61112
▁you	-5.64141
▁be	-5.69938
▁not	-5.73499
▁one	-5.7733
▁he	-5.78876
▁have	-5.8
"	-5.83484
d	-5.84866
▁who	-5.86189
▁an	-5.8813
▁by	-5.89781
)	-5.90226
▁from	-5.98653
▁all	-5.98777
y	-6.00309
n	-6.0049
e	-6.01863
▁has	-6.04094
▁at	-6.06792
▁her	-6.08661
▁It	-6.11849
▁like	-6.12749
▁out	-6.15209
▁they	-6.20164
▁so	-6.21343
▁about	-6.22003
▁very	-6.23004
▁good	-6.23434
▁some	-6.31286
▁more	-6.33937
▁story	-6.36434
!	-6.36872
▁just	-6.37436
▁or	-6.39361
▁can	-6.39888
▁This	-6.43059
▁see	-6.43329
▁great	-6.44297
er	-6.48602
▁what	-6.491
m	-6.51925
▁up	-6.52135
▁well	-6.52614
▁time	-6.54411
The	-6.55145
▁she	-6.56379
▁which	-6.57184
▁their	-6.58511
▁A	-6.58568
▁there	-6.60842
▁when	-6.61585
▁would	-6.62576
▁me	-6.6503
a	-6.67569
▁really	-6.68128
▁other	-6.69204
▁my	-6.69551
▁were	-6.69825
▁will	-6.71908
▁had	-6.71911
▁if	-6.71983
al	-6.7574
▁only	-6.76162
▁-	-6.77152
ve	-6.7833
▁into	-6.79935
I	-6.80463
▁than	-6.82115
▁first	-6.82182
▁most	-6.8353
▁much	-6.84211
:	-6.84298
▁people	-6.84372
▁also	-6.84692
▁we	-6.86527
▁get	-6.87246
▁him	-6.8808
▁best	-6.89406
...	-6.89486
▁been	-6.90744
▁do	-6.91898
▁love	-6.92215
▁think	-6.92579
▁even	-6.93416
re	-6.94237
▁how	-6.95227
▁way	-6.95515
▁no	-6.96599
?	-6.99545
▁made	-6.99941
▁show	-7.00419
▁them	-7.01006
▁because	-7.02534
▁character	-7.04528
▁seen	-7.04699
▁could	-7.04822
▁life	-7.05229
in	-7.0616
▁many	-7.06198
▁characters	-7.07038
;	-7.07177
es	-7.08265
▁two	-7.09396
r	-7.09529
▁too	-7.09737
▁films	-7.10199
▁watch	-7.11014
▁over	-7.11257
).	-7.12356
▁make	-7.12449
▁He	-7.12464
▁But	-7.13907
▁don	-7.13926
▁'	-7.15716
o	-7.16061
▁little	-7.16104
▁being	-7.19811
p	-7.20001
▁know	-7.2138
▁after	-7.22166
▁movies	-7.22985
or	-7.23796
▁find	-7.24159
▁i	-7.24453
▁man	-7.24599
▁never	-7.25907
▁any	-7.27092
S	-7.27795
▁does	-7.28221
i	-7.29791
▁plot	-7.30832
▁go	-7.30854
▁its	-7.31232
▁S	-7.32782
▁In	-7.33057
▁still	-7.33367
▁did	-7.33678
▁end	-7.33878
▁ever	-7.34268
),	-7.36376
▁scene	-7.36475
▁acting	-7.3662
▁where	-7.36824
on	-7.37334
▁And	-7.37796
A	-7.38048
▁better	-7.3921
▁real	-7.4051
▁say	-7.407
▁work	-7.40949
▁these	-7.42512
▁should	-7.42522
ll	-7.4259
▁back	-7.42916
▁give	-7.43727
/	-7.43969
▁off	-7.44063
▁then	-7.44073
▁years	-7.44172
▁such	-7.44262
c	-7.45329
▁those	-7.46588
▁here	-7.46919
and	-7.49071
▁There	-7.49563
en	-7.50662
▁lot	-7.52563
▁own	-7.53047
▁cast	-7.53312
▁world	-7.53927
▁part	-7.54481
▁your	-7.54486
g	-7.54805
▁series	-7.54903
▁B	-7.56273
▁through	-7.57137
▁makes	-7.57518
▁scenes	-7.57844
quite	-7.57897
▁old	-7.5846
▁while	-7.58827
▁<	-7.59447
▁She	-7.59482
▁actors	-7.59786
th	-7.59815
▁C	-7.60249
▁un	-7.61096
▁young	-7.6209
▁again	-7.63522
▁doesn	-7.63569
▁!	-7.63889
▁something	-7.63945
▁performance	-7.64104
&	-7.64614
▁bit	-7.65067
ic	-7.65593
▁always	-7.66848
▁down	-7.67182
▁before	-7.67477
▁few	-7.67481
▁funny	-7.67501
▁look	-7.6752
▁director	-7.67858
▁want	-7.68437
▁though	-7.68748
the	-7.6893
h	-7.69113
▁role	-7.70452
▁thing	-7.7052
▁between	-7.70798
▁us	-7.71646
▁comedy	-7.71983
▁new	-7.72341
▁fun	-7.73091
it	-7.73779
ion	-7.74775
▁action	-7.74851
▁right	-7.75094
▁watching	-7.75259
▁going	-7.755
le	-7.7605
▁bad	-7.76238
▁now	-7.76302
▁thought	-7.771
▁If	-7.77181
▁music	-7.77271
▁same	-7.77389
▁family	-7.77791
▁fact	-7.7814
l	-7.7894
▁things	-7.7898
b	-7.7909
▁got	-7.79512
▁P	-7.7981
▁must	-7.79848
▁may	-7.80196
▁both	-7.80378
▁every	-7.80599
▁didn	-7.80647
▁excellent	-7.80653
▁interesting	-7.81261
▁seems	-7.8154
able	-7.82089
▁another	-7.82269
k	-7.82531
an	-7.82571
▁feel	-7.83486
se	-7.83492
▁job	-7.85311
▁DVD	-7.86189
C	-7.8648
▁actually	-7.86697
▁put	-7.87103
(	-7.87254
▁come	-7.87358
▁done	-7.87643
▁why	-7.87969
▁pretty	-7.88395
▁different	-7.89304
▁around	-7.89746
▁horror	-7.89766
▁hard	-7.90068
▁course	-7.902
▁each	-7.90204
f	-7.915
▁M	-7.91779
▁take	-7.92077
▁times	-7.92126
▁whole	-7.92381
▁big	-7.9254
u	-7.92735
This	-7.92749
▁long	-7.92886
▁last	-7.92981
▁You	-7.93258
▁original	-7.93889
▁kind	-7.93914
▁woman	-7.94417
▁rather	-7.94863
▁almost	-7.9495
man	-7.95443
▁our	-7.95456
ri	-7.9578
▁enough	-7.95823
▁saw	-7.95824
▁played	-7.96309
▁plays	-7.96706
te	-7.96832
▁seem	-7.96866
▁without	-7.9705
▁might	-7.97281
▁E	-7.98526
is	-7.98547
▁far	-7.99404
D	-8.00132
▁become	-8.00257
▁re	-8.00561
▁am	-8.00622
ur	-8.00636
ation	-8.00665
▁gets	-8.00846
▁keep	-8.01016
▁As	-8.01329
ity	-8.0143
▁together	-8.02301
▁classic	-8.02385
▁beautiful	-8.02426
▁found	-8.02809
▁place	-8.03071
T	-8.03764
▁enjoy	-8.03838
▁day	-8.04155
ch	-8.04695
▁They	-8.05167
el	-8.05252
st	-8.05354
▁shows	-8.05386
▁true	-8.05449
▁girl	-8.06254
▁tell	-8.08159
▁watched	-8.08269
ar	-8.08444
▁American	-8.09165
▁main	-8.09268
▁point	-8.10165
ness	-8.11125
▁anyone	-8.11475
▁screen	-8.11497
▁home	-8.11518
as	-8.1165
id	-8.11667
▁since	-8.11906
▁father	-8.12022
▁T	-8.12065
at	-8.12161
▁TV	-8.12625
▁comes	-8.12968
▁use	-8.13561
ie	-8.13793
▁nice	-8.13908
▁goes	-8.13924
E	-8.14262
▁yet	-8.14297
M	-8.14725
▁G	-8.14851
▁set	-8.1494
▁ending	-8.15578
▁When	-8.15582
It	-8.16034
▁performances	-8.16317
▁audience	-8.16633
▁help	-8.16666
▁fan	-8.16929
▁probably	-8.17276
to	-8.17441
▁actor	-8.17519
▁We	-8.17737
▁F	-8.1785
▁John	-8.17901
▁worth	-8.18245
▁perfect	-8.19248
est	-8.19471
▁script	-8.19706
▁short	-8.19738
".	-8.1985
▁wonderful	-8.19888
▁takes	-8.19895
▁co	-8.19995
▁play	-8.20126
ra	-8.20161
--	-8.20282
w	-8.21489
▁recommend	-8.21619
▁mind	-8.21626
ers	-8.22034
▁later	-8.22193
▁especially	-8.22203
▁So	-8.2247
P	-8.22575
▁believe	-8.22777
▁nothing	-8.22788
▁year	-8.23058
▁away	-8.23358
▁himself	-8.23399
▁K	-8.2344
ter	-8.23778
▁drama	-8.24008
▁b	-8.24382
R	-8.24455
▁D	-8.24676
▁special	-8.24696
us	-8.24789
ce	-8.24792
▁version	-8.24892
▁sure	-8.24934
▁loved	-8.2514
▁human	-8.25962
▁having	-8.25967
▁definite	-8.26009
up	-8.26113
▁What	-8.26186
▁heart	-8.2637
▁small	-8.26621
▁amazing	-8.26883
▁war	-8.26945
ive	-8.2748
▁book	-8.27645
▁once	-8.27692
▁everything	-8.27941
ir	-8.27956
▁everyone	-8.27964
▁looking	-8.28345
",	-8.2861
▁seeing	-8.28721
▁One	-8.28857
▁O	-8.29152
▁least	-8.29278
▁dur	-8.29345
▁making	-8.29399
▁episode	-8.31098
▁enjoyed	-8.31941
ous	-8.3195
▁sense	-8.32007
▁three	-8.32007
la	-8.32603
less	-8.32634
▁fine	-8.32683
▁That	-8.33518
▁trying	-8.33807
▁2	-8.34167
▁THE	-8.34232
▁10	-8.34325
▁along	-8.34422
▁W	-8.34455
ro	-8.34494
B	-8.3471
▁second	-8.34832
▁need	-8.34995
▁read	-8.35511
▁early	-8.35572
▁often	-8.35943
▁left	-8.36249
▁guy	-8.36964
▁moments	-8.37423
▁To	-8.3757
▁friends	-8.37679
▁looks	-8.37825
▁wife	-8.38451
▁shot	-8.38492
▁under	-8.38511
▁effects	-8.38727
ok	-8.38807
▁For	-8.3956
▁liked	-8.39724
▁live	-8.39773
▁usual	-8.39938
▁friend	-8.39943
O	-8.40156
il	-8.40301
▁favorite	-8.40702
▁used	-8.4125
▁My	-8.41354
▁won	-8.41481
▁head	-8.41538
▁men	-8.41726
▁style	-8.42297
▁high	-8.42425
▁minutes	-8.42526
▁understand	-8.43158
li	-8.43609
▁star	-8.43751
ent	-8.43777
▁past	-8.44022
▁remember	-8.44064
▁person	-8.44077
▁said	-8.44523
▁came	-8.44726
▁top	-8.44757
ist	-8.44882
▁turn	-8.45016
▁lives	-8.45285
▁truly	-8.45311
▁anything	-8.45312
▁night	-8.46193
▁R	-8.46275
ary	-8.46464
v	-8.46681
▁next	-8.46904
▁couple	-8.46911
un	-8.4692
▁works	-8.47425
▁kids	-8.47471
▁hope	-8.47658
▁However	-8.47786
▁line	-8.47932
▁All	-8.48007
▁less	-8.48321
▁start	-8.48451
▁women	-8.49344
▁death	-8.49364
▁De	-8.49645
▁black	-8.50204
um	-8.50229
▁ga	-8.50477
et	-8.5055
ol	-8.50562
▁today	-8.50683
▁given	-8.5089
▁de	-8.51356
ies	-8.51473
▁3	-8.51734
▁--	-8.51789
▁meet	-8.52274
▁Bo	-8.52396
▁let	-8.52519
▁fans	-8.52682
▁someone	-8.52835
▁full	-8.53305
ally	-8.53543
▁stand	-8.53558
▁sever	-8.53568
▁Hollywood	-8.5358
ry	-8.54008
▁viewer	-8.54163
▁Not	-8.5468
▁reason	-8.54853
▁boy	-8.55087
▁low	-8.55568
▁light	-8.55837
▁budget	-8.56275
▁rest	-8.56327
▁brilliant	-8.56672
▁else	-8.57037
▁New	-8.57258
▁view	-8.57281
he	-8.57303
ful	-8.57495
▁others	-8.57614
ck	-8.57619
de	-8.57947
L	-8.58039
▁idea	-8.58498
▁dialogue	-8.58835
▁mother	-8.58906
▁although	-8.58944
▁Mr	-8.59126
ble	-8.59443
▁picture	-8.59477
▁murder	-8.59528
N	-8.59551
▁playing	-8.59635
▁late	-8.59685
▁until	-8.59743
▁genre	-8.59778
▁entertaining	-8.59815
▁strong	-8.60104
▁cinema	-8.60638
▁L	-8.60653
▁beginning	-8.60662
G	-8.60724
▁however	-8.6075
▁p	-8.60778
like	-8.60918
▁side	-8.60978
▁relationship	-8.61395
▁expect	-8.61491
▁case	-8.61627
am	-8.61628
▁doing	-8.61763
▁care	-8.61775
▁game	-8.62436
▁His	-8.62759
▁U	-8.62891
▁try	-8.62934
ish	-8.6318
▁documentary	-8.63466
▁Whil	-8.63571
ment	-8.63626
▁extreme	-8.64429
▁dead	-8.6446
▁certainly	-8.64666
▁simple	-8.65378
▁near	-8.65386
▁told	-8.65399
▁throughout	-8.65424
▁close	-8.65851
▁hand	-8.65965
▁stars	-8.66255
▁wrong	-8.66349
▁direction	-8.66367
▁With	-8.66441
ine	-8.6697
▁turns	-8.67106
▁themselves	-8.67329
▁animation	-8.67329
▁written	-8.67416
▁face	-8.68069
▁simply	-8.68319
▁video	-8.68371
▁itself	-8.6842
▁town	-8.68517
▁production	-8.69359
▁based	-8.69403
▁house	-8.69505
ta	-8.6993
F	-8.70017
▁dark	-8.70142
▁hilarious	-8.70329
."	-8.70495
▁mean	-8.70601
ant	-8.70616
me	-8.70663
▁fantastic	-8.7135
▁half	-8.71382
▁went	-8.71404
▁Paul	-8.71422
▁title	-8.71447
▁Of	-8.71529
W	-8.7228
ul	-8.72389
▁future	-8.72431
▁maybe	-8.72457
▁sort	-8.72474
▁completely	-8.72614
▁No	-8.7357
▁name	-8.74226
▁1	-8.74248
▁example	-8.74475
▁felt	-8.74475
▁Richard	-8.74525
▁Even	-8.74565
▁Michael	-8.74575
▁parts	-8.74784
tic	-8.75115
H	-8.75266
▁history	-8.75541
▁money	-8.75543
▁quality	-8.75569
▁attention	-8.75574
▁getting	-8.75606
▁piece	-8.75795
1	-8.75814
▁final	-8.75853
▁highly	-8.76075
▁Some	-8.76379
▁matter	-8.76616
▁David	-8.76679
▁art	-8.77262
ite	-8.77309
one	-8.77608
▁school	-8.77701
▁At	-8.77703
▁novel	-8.77704
▁child	-8.77705
▁c	-8.77708
out	-8.77715
▁camera	-8.77738
▁enjoyable	-8.77785
▁killer	-8.77871
▁episodes	-8.7807
co	-8.78117
▁called	-8.78118
▁Re	-8.78153
▁musical	-8.7828
age	-8.7858
▁hold	-8.78808
▁moving	-8.7883
▁change	-8.78836
ian	-8.78855
hi	-8.79148
▁An	-8.79185
what	-8.79217
▁already	-8.79911
▁perhaps	-8.7997
▁N	-8.80032
▁order	-8.80038
▁finally	-8.80312
In	-8.80335
▁sex	-8.80798
ton	-8.80842
▁After	-8.81151
▁Also	-8.81172
▁moment	-8.81479
bsolutely	-8.81836
▁Disney	-8.82191
▁children	-8.82199
▁interest	-8.82309
▁against	-8.82337
▁either	-8.82375
▁flick	-8.82622
▁car	-8.82628
▁humor	-8.83306
▁cinematography	-8.8332
▁sometimes	-8.83329
▁Oscar	-8.83349
▁career	-8.83603
K	-8.83643
▁fall	-8.8392
▁v	-8.84039
ha	-8.84072
▁m	-8.84123
▁easy	-8.84483
▁Ma	-8.84492
▁behind	-8.84504
lo	-8.8475
x	-8.84889
▁Man	-8.85194
▁d	-8.85263
▁events	-8.85305
ia	-8.8561
ty	-8.8569
▁white	-8.85792
But	-8.8617
▁add	-8.86446
▁superb	-8.86475
▁slow	-8.86477
▁fight	-8.86488
▁thriller	-8.86949
ne	-8.87049
▁shown	-8.87246
▁5	-8.87682
dy	-8.87786
▁chance	-8.8806
▁team	-8.88071
▁released	-8.88324
▁directed	-8.88364
▁wanted	-8.88405
ach	-8.88431
▁present	-8.88826
▁laugh	-8.88902
▁roles	-8.89189
▁similar	-8.89274
▁modern	-8.89275
▁country	-8.893
but	-8.89322
▁including	-8.89456
▁named	-8.89659
ther	-8.89748
▁brother	-8.89979
▁sound	-8.90039
If	-8.90102
▁type	-8.90105
do	-8.9015
▁actress	-8.90423
▁writing	-8.90509
▁pick	-8.90539
▁wants	-8.90616
▁guys	-8.90627
▁known	-8.90725
▁run	-8.91275
▁number	-8.91301
▁strange	-8.91608
▁stories	-8.91759
▁group	-8.91762
▁supporting	-8.92156
▁4	-8.92692
▁song	-8.9284
▁lead	-8.92849
▁important	-8.93048
▁son	-8.9315
▁Well	-8.93179
▁H	-8.93184
z	-8.93538
▁lines	-8.93908
▁bring	-8.94246
▁cool	-8.94321
▁adventure	-8.9433
▁poor	-8.9434
▁evil	-8.94368
▁J	-8.94741
ate	-8.94749
▁days	-8.95189
▁local	-8.95606
▁score	-8.95613
▁act	-8.95698
▁heard	-8.96042
▁deal	-8.96135
▁ago	-8.96405
▁due	-8.96481
▁starts	-8.9649
▁season	-8.96545
▁Don	-8.96566
▁Ro	-8.96689
ng	-8.96702
▁romantic	-8.96921
▁French	-8.96954
▁powerful	-8.97001
▁realistic	-8.97027
▁Although	-8.9705
ted	-8.97214
▁songs	-8.97388
▁dis	-8.9746
▁girls	-8.97665
▁atmosphere	-8.98255
▁daughter	-8.98255
▁feeling	-8.98266
▁tale	-8.98358
go	-8.98474
▁stop	-8.98847
▁taken	-8.98973
▁hit	-8.9902
▁r	-8.99059
▁train	-8.99128
▁call	-8.99152
▁soon	-8.99238
▁dream	-8.99378
ge	-8.99531
	-8.99606
▁knew	-8.99607
▁pull	-8.99607
▁major	-8.99608
▁entertainment	-8.9961
▁lost	-8.99622
▁James	-8.99703
▁era	-8.99737
▁eyes	-8.99771
▁Al	-9.00013
!!	-9.0016
▁pre	-9.00274
▁haven	-9.00438
▁emotional	-9.00625
▁clear	-9.0064
ism	-9.00703
▁begins	-9.00934
▁happy	-9.00979
▁message	-9.00983
▁city	-9.01021
▁famous	-9.01039
▁self	-9.01057
▁Be	-9.0113
▁Ho	-9.01427
,"	-9.01696
▁experience	-9.01803
▁entire	-9.0196
▁wish	-9.02279
▁unique	-9.02365
▁st	-9.02368
▁stuff	-9.02371
V	-9.02391
▁Robert	-9.02441
▁8	-9.02485
▁Dr	-9.0261
▁hear	-9.02775
▁wonder	-9.03214
▁lack	-9.03216
▁age	-9.03293
▁form	-9.03355
▁release	-9.03566
▁above	-9.03773
▁York	-9.038
▁involved	-9.03883
▁80	-9.03902
▁War	-9.03917
▁coming	-9.03971
▁follow	-9.03986
taking	-9.04226
ma	-9.04729
no	-9.04763
time	-9.04891
▁America	-9.04917
▁level	-9.05037
▁power	-9.05065
▁problem	-9.05109
▁voice	-9.05111
▁despi	-9.05137
▁police	-9.05184
▁memorable	-9.05202
▁husband	-9.05202
▁four	-9.05213
▁word	-9.05224
There	-9.05681
land	-9.05989
▁ex	-9.06423
▁violence	-9.06651
▁living	-9.06652
▁alone	-9.06655
ay	-9.06673
▁fast	-9.06678
▁herself	-9.06712
▁hate	-9.06816
ance	-9.06989
▁happen	-9.07036
om	-9.07368
!)	-9.07699
▁serious	-9.07734
▁certain	-9.07737
im	-9.07748
be	-9.07876
▁German	-9.07908
▁class	-9.07941
▁easily	-9.08122
▁soundtrack	-9.08122
▁eye	-9.08305
2	-9.08637
old	-9.08679
▁comic	-9.08724
fi	-9.08838
per	-9.09192
▁air	-9.09413
▁awesome	-9.09614
▁believable	-9.09623
▁English	-9.09641
▁Jack	-9.09693
▁etc	-9.09696
▁possible	-9.09727
▁Ben	-9.09839
vi	-9.0987
▁happened	-9.10101
istic	-9.10438
if	-9.10482
ling	-9.10787
▁fair	-9.1092
▁working	-9.11062
▁nature	-9.11471
▁turned	-9.1205
▁viewing	-9.1207
▁talk	-9.12087
▁Her	-9.12095
▁deep	-9.1212
▁toward	-9.12182
ably	-9.12241
▁create	-9.12376
▁across	-9.12668
giving	-9.1267
▁con	-9.12677
▁social	-9.12679
▁myself	-9.12688
▁basic	-9.12728
▁cut	-9.12969
der	-9.13026
▁feature	-9.13353
▁Co	-9.1358
J	-9.13665
ill	-9.13982
▁contain	-9.1423
▁opinion	-9.1423
▁subject	-9.14231
▁brought	-9.14237
▁City	-9.14387
▁opening	-9.14704
▁total	-9.14748
U	-9.14992
ley	-9.15208
▁realize	-9.15554
line	-9.15635
▁rich	-9.1582
▁female	-9.15846
▁please	-9.15857
▁portrayal	-9.159
▁`	-9.15902
▁ten	-9.15928
▁situation	-9.1602
▁Just	-9.16047
▁needs	-9.16101
ke	-9.16213
▁greatest	-9.16244
which	-9.16736
who	-9.16756
▁allow	-9.16876
5	-9.16905
And	-9.17202
ever	-9.17295
▁beauty	-9.1743
▁crime	-9.1743
▁British	-9.17448
▁married	-9.17463
ru	-9.17539
▁problems	-9.17555
▁leave	-9.17828
*	-9.18153
▁says	-9.18475
▁Joe	-9.18628
▁blood	-9.18836
▁cop	-9.18976
▁pay	-9.19192
▁killed	-9.19533
▁writer	-9.19606
!!!	-9.19793
▁viewers	-9.19878
op	-9.20031
▁7	-9.20317
7	-9.20343
▁obvious	-9.2035
▁particular	-9.2035
▁notice	-9.2038
da	-9.20608
▁large	-9.20648
▁clever	-9.20737
▁mystery	-9.20737
▁masterpiece	-9.20737
ex	-9.20749
▁agree	-9.2079
ner	-9.20801
▁overall	-9.20865
▁cannot	-9.20868
▁reality	-9.2094
▁surprised	-9.20991
by	-9.20998
Y	-9.21011
▁Who	-9.21021
son	-9.21028
▁Sam	-9.21227
▁kill	-9.21647
▁sad	-9.21649
▁started	-9.21751
▁note	-9.21768
▁h	-9.21889
▁features	-9.22311
▁dance	-9.22356
▁treat	-9.22402
▁subtle	-9.22414
▁complete	-9.22429
▁animated	-9.22431
▁sweet	-9.22431
▁solid	-9.22433
▁yourself	-9.22476
▁Go	-9.22576
▁room	-9.22637
▁Lo	-9.22678
▁recently	-9.22713
ick	-9.22735
pe	-9.23028
▁interested	-9.23143
ud	-9.23247
em	-9.23255
▁catch	-9.23425
came	-9.23459
▁perfectly	-9.23519
▁guess	-9.23584
▁support	-9.23609
▁20	-9.23638
ak	-9.23683
for	-9.23815
All	-9.23859
▁On	-9.24017
▁Peter	-9.24122
▁period	-9.24156
▁third	-9.24156
▁sequel	-9.24156
▁Japanese	-9.24174
▁exactly	-9.24247
▁sets	-9.24296
▁supposed	-9.2432
▁V	-9.24331
▁Now	-9.24445
▁particularly	-9.246
▁question	-9.24624
▁kid	-9.24676
▁St	-9.25
▁explain	-9.25421
▁box	-9.25428
▁mention	-9.25451
▁La	-9.25464
▁t	-9.25553
▁elements	-9.25641
na	-9.25732
▁twists	-9.25758
▁showing	-9.25791
▁doubt	-9.2591
▁romance	-9.2591
▁television	-9.25912
▁throw	-9.25912
▁incredible	-9.25914
▁Film	-9.25941
▁return	-9.25952
▁rock	-9.25959
▁body	-9.26008
▁Good	-9.26016
▁check	-9.26018
▁clearly	-9.26408
▁cartoon	-9.26427
▁fear	-9.26454
▁parents	-9.26474
▁credit	-9.26541
▁stay	-9.26548
ig	-9.26558
▁appears	-9.26559
▁hour	-9.26574
▁hero	-9.26691
ated	-9.26725
▁non	-9.27112
▁typical	-9.27351
▁pace	-9.27412
▁Bill	-9.27625
▁straight	-9.27695
▁70	-9.27701
▁respect	-9.27704
▁screenplay	-9.27709
▁George	-9.2774
▁Great	-9.27842
▁9	-9.27934
▁review	-9.28146
ut	-9.2826
▁using	-9.28513
▁Tom	-9.28577
▁discover	-9.28777
▁ways	-9.28787
▁break	-9.28902
▁Ver	-9.28982
▁Ha	-9.29055
les	-9.29337
▁personal	-9.29471
▁among	-9.29515
▁further	-9.29517
▁single	-9.29533
▁detective	-9.29546
3	-9.2955
▁shots	-9.29584
▁sexual	-9.2961
▁Like	-9.29621
▁cover	-9.29627
▁Most	-9.29644
▁Chris	-9.29675
▁comment	-9.29685
▁talent	-9.29707
▁US	-9.29744
▁instead	-9.2989
▁portrayed	-9.29898
▁looked	-9.30072
▁figure	-9.30105
▁leads	-9.30152
▁Le	-9.30175
▁attempt	-9.30213
end	-9.30259
mo	-9.30385
▁rate	-9.30414
ized	-9.30447
▁spirit	-9.30491
▁learn	-9.3103
▁theme	-9.31074
▁King	-9.31074
▁knows	-9.31105
▁middle	-9.31377
▁Tony	-9.31386
▁World	-9.31412
▁decides	-9.31501
▁decided	-9.31637
▁f	-9.31858
▁offer	-9.31881
pa	-9.32276
6	-9.32521
▁recommended	-9.32798
▁general	-9.32877
▁imagine	-9.32954
lan	-9.3307
▁Fro	-9.33116
▁difficult	-9.3323
▁earlier	-9.33253
▁wall	-9.33271
▁tries	-9.33274
▁vari	-9.33279
▁dramatic	-9.33374
▁Lee	-9.33513
▁These	-9.33687
▁Do	-9.33765
▁surprise	-9.33791
▁win	-9.33955
ver	-9.33976
ron	-9.34245
▁beat	-9.34494
▁buy	-9.34613
▁forget	-9.34968
▁complex	-9.35139
▁Scott	-9.35176
▁plenty	-9.35176
kept	-9.35176
▁shame	-9.3518
▁decent	-9.3518
▁happens	-9.3525
▁battle	-9.35263
▁storyline	-9.35387
▁focus	-9.35569
▁visual	-9.35678
▁talking	-9.35868
▁Ca	-9.35927
▁Then	-9.35961
▁sequence	-9.36133
▁rating	-9.36179
▁land	-9.36309
ial	-9.36383
▁inside	-9.36452
▁wait	-9.36589
▁sit	-9.36669
▁stage	-9.36852
▁open	-9.37036
▁saying	-9.37065
▁manage	-9.37084
ac	-9.37133
▁truth	-9.37136
▁terrific	-9.37138
▁huge	-9.37139
▁weird	-9.37139
▁compelling	-9.37207
mm	-9.3721
▁Stewart	-9.37227
▁quickly	-9.37255
My	-9.37278
com	-9.37293
▁prove	-9.3736
▁Star	-9.37368
▁successful	-9.37421
▁copy	-9.37435
▁touching	-9.37494
▁obviously	-9.37594
9	-9.37606
▁talented	-9.37648
ily	-9.38146
mi	-9.38184
▁e	-9.3823
ung	-9.38233
▁comments	-9.38385
▁Mo	-9.3867
▁cause	-9.38715
▁previous	-9.38745
▁William	-9.38911
▁Me	-9.39054
▁violent	-9.39138
▁society	-9.39159
▁spend	-9.39167
?"	-9.39213
▁odd	-9.39258
▁outside	-9.3936
4	-9.39427
side	-9.39629
lie	-9.39707
▁dog	-9.39708
▁ends	-9.39906
▁mostly	-9.40062
ai	-9.40379
▁reviews	-9.40463
What	-9.40481
▁miss	-9.40561
av	-9.40563
▁Every	-9.40606
▁accept	-9.40689
▁50	-9.40765
bi	-9.40785
▁success	-9.40883
▁appreciate	-9.40883
▁spot	-9.41167
▁control	-9.41173
▁background	-9.41177
▁material	-9.41177
▁suspense	-9.4118
▁footage	-9.41181
▁political	-9.41228
▁front	-9.41243
▁disappointed	-9.41271
▁step	-9.41323
▁noir	-9.41613
rk	-9.41625
▁themes	-9.41693
▁forward	-9.41697
▁share	-9.42145
▁effort	-9.42258
▁sequences	-9.4227
▁secret	-9.42279
▁sister	-9.42314
▁falls	-9.42362
▁g	-9.42438
▁minute	-9.4248
▁shock	-9.42712
ought	-9.42729
▁effective	-9.42891
dden	-9.43021
ey	-9.43176
▁prison	-9.43231
▁Smith	-9.4326
▁journey	-9.43261
▁caught	-9.43264
▁running	-9.43276
▁Maybe	-9.43318
▁scary	-9.43328
▁list	-9.43387
As	-9.43479
ap	-9.43584
▁How	-9.43843
!"	-9.43882
ci	-9.43926
▁older	-9.44248
▁...	-9.44287
ip	-9.44404
lu	-9.44455
ast	-9.44599
▁beautifully	-9.44852
ring	-9.45022
▁means	-9.45264
▁Di	-9.45271
▁dialog	-9.45384
▁admit	-9.45387
▁available	-9.45388
▁likable	-9.45388
▁language	-9.45389
▁business	-9.4539
▁search	-9.4539
▁stunning	-9.45391
▁telling	-9.45398
▁store	-9.45414
▁male	-9.45445
▁water	-9.45508
▁except	-9.45535
▁filled	-9.4575
ence	-9.45764
▁building	-9.45858
▁*	-9.45902
of	-9.45913
we	-9.46069
ect	-9.46151
ating	-9.46327
▁leading	-9.46369
ake	-9.46498
▁adult	-9.46685
▁choice	-9.46687
▁effect	-9.46735
▁speak	-9.47003
ho	-9.47061
ew	-9.47174
▁actual	-9.47188
not	-9.47366
credibly	-9.47562
▁glad	-9.47562
▁outstanding	-9.47562
▁girlfriend	-9.47586
▁western	-9.4765
▁Though	-9.47657
▁Watch	-9.47721
▁Jane	-9.47746
▁follows	-9.47788
▁cr	-9.47887
▁Rock	-9.47889
▁appear	-9.47937
▁hot	-9.47943
▁moves	-9.47988
▁provides	-9.47991
▁none	-9.48064
▁compare	-9.48417
▁Y	-9.48636
▁upon	-9.48749
oo	-9.48994
▁within	-9.49149
▁mix	-9.49312
ber	-9.49517
▁ride	-9.49656
▁popular	-9.49785
▁attack	-9.49786
▁serial	-9.49787
▁creepy	-9.49838
all	-9.49872
")	-9.49903
▁bar	-9.49932
▁Jim	-9.5005
▁thinking	-9.50194
▁lovely	-9.50344
▁pro	-9.50461
▁brings	-9.50524
▁direct	-9.50615
▁portray	-9.5069
▁fully	-9.50904
▁attempts	-9.51188
00	-9.51322
▁rare	-9.51669
▁leaves	-9.51742
ang	-9.51751
▁whe	-9.51825
ny	-9.51939
▁Lincoln	-9.52057
▁intelligent	-9.52057
▁silly	-9.52057
▁genius	-9.5206
▁boring	-9.52062
▁minor	-9.52086
▁appearance	-9.52094
▁anyway	-9.52126
▁familiar	-9.5213
▁Black	-9.52146
▁impressed	-9.52174
▁weak	-9.52213
▁amusing	-9.52278
▁Williams	-9.52371
▁missed	-9.52608
▁entirely	-9.52697
▁di	-9.52708
▁deserves	-9.52953
▁detail	-9.53207
▁expected	-9.5324
over	-9.53481
ard	-9.53484
▁wonderfully	-9.53525
▁jokes	-9.536
▁questions	-9.53711
▁steal	-9.53811
▁charm	-9.53863
▁emotions	-9.53889
▁recent	-9.54003
way	-9.54024
▁save	-9.54088
ory	-9.54134
ack	-9.54161
So	-9.54227
▁boss	-9.54325
▁stupid	-9.54383
▁jump	-9.54383
▁quiet	-9.54383
▁approach	-9.54384
▁tension	-9.54385
▁anime	-9.54385
▁South	-9.54441
▁free	-9.54509
▁Movie	-9.54515
▁words	-9.54575
▁cute	-9.5473
▁charming	-9.54935
ward	-9.55308
▁younger	-9.55448
▁Un	-9.555
▁Ra	-9.55917
▁hours	-9.56002
▁result	-9.56109
▁setting	-9.56111
▁members	-9.5613
▁casting	-9.56136
▁reading	-9.56199
ise	-9.562
back	-9.56209
EN	-9.56261
che	-9.56265
▁Or	-9.56313
▁natural	-9.56478
▁escape	-9.56626
%	-9.56764
▁genuine	-9.56764
▁joy	-9.56765
▁beyond	-9.56768
▁gem	-9.56777
tion	-9.56779
▁creative	-9.56833
▁People	-9.5684
▁fantasy	-9.5684
▁listen	-9.56905
▁delightful	-9.56931
▁Still	-9.56995
ound	-9.57048
ow	-9.57073
▁generally	-9.57259
▁relationships	-9.57288
ka	-9.57538
▁terms	-9.577
▁ma	-9.58278
▁Love	-9.5834
▁suit	-9.58375
ING	-9.5843
▁party	-9.58658
▁Ba	-9.58775
▁normal	-9.5892
▁master	-9.58951
▁post	-9.59051
▁lose	-9.59104
▁Red	-9.59124
▁narrative	-9.59203
▁segment	-9.59203
▁terrible	-9.59203
▁space	-9.59207
▁Paris	-9.59219
▁crew	-9.59224
▁Dan	-9.59243
sh	-9.59263
▁disturbing	-9.59305
ba	-9.59335
He	-9.59548
▁By	-9.59575
▁Br	-9.59622
▁considered	-9.59647
▁Mary	-9.5973
ni	-9.59822
▁seriously	-9.59852
▁aren	-9.59885
▁nor	-9.60133
ab	-9.6014
nce	-9.60166
ga	-9.60239
ti	-9.60281
even	-9.60295
work	-9.60354
▁meaning	-9.60502
io	-9.60884
▁credits	-9.60904
▁move	-9.60943
ink	-9.60981
au	-9.61026
▁See	-9.61096
uch	-9.61152
▁week	-9.61171
▁build	-9.61236
▁animals	-9.61248
▁unlike	-9.6145
ture	-9.61584
▁Mar	-9.61614
	-9.61703
▁fresh	-9.61703
▁company	-9.61703
▁studio	-9.61703
▁brief	-9.61705
▁accent	-9.61705
▁indeed	-9.61718
▁development	-9.6172
▁w	-9.61725
▁lady	-9.61764
▁editing	-9.6181
For	-9.61843
▁provide	-9.61846
▁forced	-9.61865
▁winning	-9.61865
▁gone	-9.61871
▁First	-9.61873
▁starring	-9.61951
▁yes	-9.61981
▁Best	-9.6215
▁created	-9.62181
nother	-9.62214
▁directing	-9.62317
▁40	-9.62666
▁Ford	-9.62698
▁honest	-9.62729
▁flaws	-9.62772
▁images	-9.63085
▁30	-9.63117
▁expecting	-9.63206
ning	-9.63338
▁j	-9.63373
▁mere	-9.63606
▁soldiers	-9.63721
▁theater	-9.63853
ier	-9.6387
▁19	-9.63908
▁camp	-9.64009
▁spoil	-9.64078
▁gorgeous	-9.64267
▁physical	-9.64267
▁unusual	-9.64267
▁cheap	-9.64267
▁project	-9.64269
▁impressive	-9.64274
▁psychological	-9.64282
ities	-9.64285
▁Mark	-9.64325
▁eventually	-9.64336
▁Story	-9.64378
▁Night	-9.64381
▁Director	-9.6452
▁directors	-9.6461
ER	-9.64805
▁dreams	-9.64805
▁area	-9.64825
▁former	-9.64919
totally	-9.65042
▁Sp	-9.65108
▁drug	-9.65113
▁mis	-9.65201
▁l	-9.65265
ot	-9.65447
▁fighting	-9.65549
▁apart	-9.65759
▁remains	-9.65838
▁draw	-9.66099
ade	-9.66165
▁per	-9.66226
You	-9.66227
fer	-9.66321
▁11	-9.66383
▁finish	-9.66418
An	-9.66695
▁10.	-9.66805
▁public	-9.66898
▁concept	-9.66899
▁impossible	-9.66903
▁edge	-9.66906
▁pure	-9.66919
▁helps	-9.66941
▁Henry	-9.66965
▁Perhaps	-9.66983
▁Why	-9.67002
▁fit	-9.67012
▁five	-9.67016
▁manner	-9.67017
▁OK	-9.6706
▁produced	-9.67082
▁die	-9.67093
▁sub	-9.67105
▁surprisingly	-9.67277
eek	-9.67366
low	-9.67441
▁deeply	-9.6757
day	-9.67658
▁fl	-9.67775
▁mentioned	-9.67784
▁gun	-9.67923
▁gore	-9.67933
▁numbers	-9.67948
▁Li	-9.68057
▁acted	-9.68059
off	-9.68063
ug	-9.6811
king	-9.68509
▁Se	-9.68573
▁worked	-9.68797
▁centr	-9.68887
▁surprising	-9.69213
▁Gra	-9.69251
▁villain	-9.69312
▁willing	-9.69396
▁trip	-9.69401
▁super	-9.69521
▁Steve	-9.69524
uff	-9.69541
▁regard	-9.69575
▁breath	-9.6959
▁London	-9.69601
▁bizarre	-9.69601
▁cheesy	-9.69601
▁collection	-9.69601
▁fascinating	-9.69601
▁pleasant	-9.69601
▁exciting	-9.69601
▁visit	-9.69601
▁1950	-9.69603
▁friendship	-9.69616
▁pleasure	-9.69624
you	-9.6963
▁dancing	-9.6965
▁science	-9.69676
▁Arthur	-9.69688
▁average	-9.69708
▁Hi	-9.69744
▁earth	-9.69749
▁Jo	-9.69789
▁moral	-9.6979
▁Pa	-9.69827
▁content	-9.69841
▁ultimately	-9.69842
▁singing	-9.69888
▁tone	-9.69928
▁po	-9.70038
▁missing	-9.70358
di	-9.70391
▁killing	-9.70491
▁points	-9.70581
our	-9.70593
▁hands	-9.70602
top	-9.70796
▁issues	-9.7084
▁ch	-9.70852
po	-9.70862
▁n	-9.70939
tra	-9.71157
held	-9.71402
▁delivers	-9.71456
ure	-9.71625
os	-9.71751
▁suffer	-9.71817
▁suggest	-9.71834
▁decide	-9.71945
▁convincing	-9.71982
▁remind	-9.72144
▁en	-9.72159
▁consider	-9.7219
▁Andy	-9.72191
▁office	-9.72317
▁author	-9.72335
▁fiction	-9.72349
▁England	-9.72379
▁chemistry	-9.72379
▁mysterious	-9.72379
▁pilot	-9.72379
▁superior	-9.72379
▁Davis	-9.72379
▁gangster	-9.72379
▁Italian	-9.72379
▁fellow	-9.72383
▁comedies	-9.72397
?)	-9.72414
▁immediately	-9.72439
▁Jean	-9.72449
con	-9.7245
▁sent	-9.72453
▁hair	-9.72509
▁Allen	-9.72594
▁Joan	-9.72656
▁Indian	-9.72658
▁West	-9.72727
▁Yes	-9.72764
▁display	-9.7306
▁waiting	-9.73168
▁6	-9.73175
▁exception	-9.73382
▁Here	-9.73482
▁knowing	-9.73485
▁boys	-9.73589
▁laughing	-9.73646
ney	-9.73692
ping	-9.73964
8	-9.73972
qui	-9.74056
played	-9.74174
▁/>"	-9.74293
▁90	-9.74611
▁intense	-9.74831
▁date	-9.75033
▁victim	-9.75107
▁magic	-9.75111
▁write	-9.75147
▁VHS	-9.75236
▁imagination	-9.75236
▁negative	-9.75236
▁tragic	-9.75236
▁Two	-9.75236
▁track	-9.75236
▁faith	-9.75237
▁six	-9.75241
▁worst	-9.7525
▁anti	-9.75254
▁apartment	-9.75277
▁Other	-9.75293
▁literally	-9.753
▁vision	-9.75328
ight	-9.75356
▁Young	-9.75458
this	-9.75485
▁painful	-9.75489
well	-9.75495
▁tend	-9.75636
act	-9.75641
▁monster	-9.75759
▁aspect	-9.75932
▁feelings	-9.76025
cing	-9.76103
▁adults	-9.7633
▁sci	-9.7634
so	-9.76355
▁lived	-9.76369
ven	-9.76443
▁lover	-9.76651
nd	-9.76725
▁chase	-9.76761
▁15	-9.76792
artial	-9.7681
▁fashion	-9.77131
▁hi	-9.77402
▁match	-9.77468
▁th	-9.77539
▁inter	-9.77674
▁Si	-9.77839
▁include	-9.77843
▁trouble	-9.77882
▁capture	-9.77915
▁street	-9.78121
▁fire	-9.78161
▁accurate	-9.78177
▁computer	-9.78177
▁criminal	-9.78177
▁marriage	-9.78177
▁nudity	-9.78177
▁tragedy	-9.78177
▁presence	-9.78178
▁cross	-9.78178
▁10/10	-9.78183
▁Miss	-9.78184
▁law	-9.78185
▁epic	-9.7819
▁impact	-9.782
▁Sullivan	-9.7823
▁Du	-9.78317
To	-9.78323
▁hell	-9.7854
▁carrie	-9.78665
▁mark	-9.78672
let	-9.78762
▁soul	-9.78773
▁critics	-9.789
▁details	-9.79051
▁tears	-9.7935
▁bear	-9.79399
▁lots	-9.79527
ious	-9.79637
ual	-9.79662
▁cost	-9.79752
▁Will	-9.79754
ON	-9.79754
▁hat	-9.79849
▁bl	-9.80107
▁pass	-9.80172
▁grow	-9.80367
war	-9.80597
▁ended	-9.80697
erous	-9.80761
▁cult	-9.80823
▁ha	-9.81029
▁cry	-9.81046
▁leav	-9.81133
▁brutal	-9.81172
▁ask	-9.81197
▁Chinese	-9.81207
▁current	-9.81207
▁strength	-9.81207
▁common	-9.81207
▁conclusion	-9.81208
▁claim	-9.81211
▁60	-9.81213
▁predictable	-9.81218
▁depth	-9.8122
▁stick	-9.8123
▁eat	-9.81235
▁putting	-9.81236
▁insight	-9.81244
▁sick	-9.81247
▁Charles	-9.81248
▁Johnny	-9.81248
▁OF	-9.81285
▁begin	-9.81295
▁million	-9.81321
▁somehow	-9.81322
▁amount	-9.81349
▁actresses	-9.81433
nt	-9.81466
▁send	-9.81574
▁Billy	-9.81635
▁wise	-9.81759
▁avoid	-9.81782
▁du	-9.81783
ical	-9.81783
▁ability	-9.8182
▁considering	-9.81847
rd	-9.82014
▁apparently	-9.82018
▁touch	-9.82152
▁changed	-9.82164
kin	-9.82346
▁Sea	-9.82485
▁reasons	-9.82566
my	-9.8274
▁whom	-9.82758
Once	-9.82765
ize	-9.82774
ette	-9.82848
▁compar	-9.83183
▁Ne	-9.83258
▁needed	-9.83286
▁mess	-9.8344
▁meant	-9.83482
▁sl	-9.83544
▁tape	-9.83563
ball	-9.8375
▁develop	-9.83997
▁desire	-9.84022
og	-9.84039
▁li	-9.84056
▁state	-9.84105
▁conflict	-9.84332
▁hospital	-9.84332
▁innocent	-9.84332
▁potential	-9.84332
▁silent	-9.84332
▁spectacular	-9.84332
▁climax	-9.84333
▁smart	-9.84334
▁humour	-9.84335
▁decade	-9.84335
▁favourite	-9.84336
▁cat	-9.84369
▁involving	-9.84389
▁relative	-9.84389
▁wrote	-9.84389
▁professional	-9.84391
▁traditional	-9.84398
▁crazy	-9.844
▁equally	-9.84424
▁aspects	-9.84464
▁torture	-9.84492
▁scenery	-9.84571
▁Big	-9.84614
▁im	-9.84615
▁whatever	-9.84634
▁Cage	-9.84676
▁Ray	-9.84705
▁key	-9.84759
▁bi	-9.84976
▁mixed	-9.85012
▁sexy	-9.85036
▁Z	-9.85543
▁sounds	-9.85696
▁runs	-9.85722
ress	-9.85807
▁challenge	-9.85898
fu	-9.86166
▁wear	-9.86242
▁flicks	-9.8629
▁meeting	-9.86418
Le	-9.86695
▁lie	-9.86855
▁walk	-9.86996
One	-9.87042
lly	-9.87099
▁baby	-9.87113
▁Frank	-9.87297
▁mood	-9.87299
▁("	-9.87362
▁gr	-9.87384
▁possibl	-9.87394
▁twist	-9.87431
▁IMDb	-9.87558
▁century	-9.87558
▁government	-9.87558
▁wild	-9.87558
▁peace	-9.87558
▁remake	-9.87558
▁wedding	-9.87558
▁ruin	-9.87559
▁tough	-9.87569
▁dangerous	-9.87569
▁wide	-9.87572
▁impression	-9.87573
▁Lady	-9.87586
▁Heart	-9.87644
▁Jackie	-9.87671
▁finest	-9.878
▁Gary	-9.87819
▁historical	-9.87854
▁Park	-9.87913
▁planet	-9.87952
cy	-9.88129
▁God	-9.88205
▁Boy	-9.88334
ik	-9.88382
▁Tr	-9.88391
▁Lu	-9.88447
▁Ru	-9.88456
▁imp	-9.8857
▁longer	-9.88654
▁costumes	-9.88735
▁thanks	-9.88815
art	-9.88824
row	-9.89156
▁red	-9.8933
rew	-9.89477
▁Mc	-9.89768
men	-9.89805
ric	-9.89875
Overall	-9.90183
▁record	-9.90389
del	-9.90447
▁Marie	-9.90452
▁situations	-9.90464
▁taste	-9.90544
▁vote	-9.90583
▁delight	-9.90676
▁award	-9.90761
▁purpose	-9.90891
▁refreshing	-9.90891
▁crowd	-9.90892
▁join	-9.90892
▁overcome	-9.90892
▁baseball	-9.90894
▁blue	-9.90897
▁childhood	-9.90901
▁bunch	-9.90904
fully	-9.90916
▁blow	-9.90933
▁Christopher	-9.90976
▁Eddie	-9.90979
▁Those	-9.91
▁somewhere	-9.91015
▁African	-9.91024
▁Simon	-9.91032
▁Cr	-9.91044
▁rap	-9.91054
▁Th	-9.91056
▁value	-9.9132
▁gra	-9.9136
▁drawn	-9.9137
▁bare	-9.91461
▁Ann	-9.91588
RA	-9.91682
▁occasional	-9.91854
▁deals	-9.91875
▁la	-9.91921
▁gay	-9.91942
▁died	-9.91947
▁following	-9.9221
▁presented	-9.92226
▁ti	-9.9225
than	-9.92253
▁warm	-9.92436
▁focuse	-9.92475
her	-9.92539
right	-9.92598
▁sign	-9.93085
bu	-9.93232
▁se	-9.93235
▁mo	-9.93245
with	-9.93307
▁owner	-9.9352
good	-9.93648
▁design	-9.93763
▁enter	-9.93886
ability	-9.94015
▁fill	-9.94173
▁NOT	-9.9434
▁industry	-9.9434
▁adaptation	-9.9434
▁biggest	-9.9434
▁lawyer	-9.9434
▁fault	-9.94342
▁1930	-9.94343
▁Stone	-9.94372
▁Jones	-9.94401
▁trailer	-9.94415
▁necessary	-9.94432
▁Dead	-9.94454
ice	-9.94499
▁fate	-9.94506
▁born	-9.94528
▁suddenly	-9.94552
▁Day	-9.94606
▁Van	-9.94715
▁(19	-9.94729
▁struggle	-9.94808
▁Gu	-9.94829
nna	-9.9485
▁element	-9.94874
star	-9.94931
▁Mu	-9.95096
▁appeared	-9.95103
▁Only	-9.95135
▁agent	-9.95195
led	-9.95361
▁absolute	-9.95378
▁slowly	-9.9549
▁months	-9.95494
▁brothers	-9.95856
▁brilliantly	-9.95892
▁Ri	-9.95895
▁door	-9.95982
ten	-9.95998
▁Na	-9.96067
ler	-9.96124
▁Rogers	-9.96158
den	-9.9631
▁standards	-9.9638
▁drive	-9.96433
▁comed	-9.96454
▁def	-9.96515
▁survive	-9.96765
down	-9.9682
▁travel	-9.96915
▁offers	-9.96972
▁filmmakers	-9.97049
▁plan	-9.97148
▁serve	-9.97158
town	-9.9722
▁appeal	-9.97358
▁unexpected	-9.97503
that	-9.97553
▁sh	-9.97588
▁Victoria	-9.9766
que	-9.97769
▁Yet	-9.97872
▁affect	-9.97873
▁Jenny	-9.97911
▁morning	-9.97911
▁ridiculous	-9.97911
▁heavy	-9.97913
▁interview	-9.97914
▁culture	-9.97919
▁Ch	-9.97919
▁ground	-9.97928
▁debut	-9.97972
▁engaging	-9.97976
▁Stephen	-9.97976
▁grand	-9.97979
▁mad	-9.98083
▁ideal	-9.98093
▁justice	-9.98094
▁Hav	-9.98108
▁Desp	-9.98229
▁scared	-9.98234
▁Matt	-9.98379
▁unlikely	-9.98474
port	-9.98497
▁sc	-9.98525
▁extra	-9.98562
▁animal	-9.98852
▁acts	-9.99028
▁judge	-9.99081
ea	-9.99084
rs	-9.99387
La	-9.99407
▁Pro	-9.99508
▁laughs	-9.9953
▁Dick	-9.9967
▁El	-9.99927
▁nicely	-10.0039
▁players	-10.0043
▁crack	-10.0082
▁writers	-10.0093
house	-10.0095
some	-10.0096
light	-10.0115
▁Bu	-10.0122
▁involve	-10.0127
ern	-10.0145
▁describe	-10.0148
▁maker	-10.0151
▁Angel	-10.0154
▁witness	-10.0154
▁neighbor	-10.0161
▁commercial	-10.0161
▁contrast	-10.0161
▁convince	-10.0161
▁desperate	-10.0161
▁hundred	-10.0161
▁poignant	-10.0161
▁Powell	-10.0161
▁clean	-10.0161
▁latter	-10.0162
▁process	-10.0162
▁road	-10.0162
▁utter	-10.0162
▁raise	-10.0162
▁Harris	-10.0162
▁Irish	-10.0162
▁revenge	-10.0162
▁Trek	-10.0163
▁awful	-10.0165
▁thoroughly	-10.0165
▁media	-10.0173
▁Little	-10.0174
▁Daniel	-10.0174
▁partner	-10.0174
▁sight	-10.0175
▁army	-10.0175
▁plus	-10.0176
▁Freddy	-10.0177
▁humanity	-10.0181
▁accident	-10.0181
0	-10.0181
▁shoot	-10.0183
▁hop	-10.0183
▁Har	-10.0184
▁reveal	-10.0185
▁Earth	-10.0187
▁18	-10.0189
▁lesson	-10.0191
Ma	-10.0217
▁included	-10.0223
▁filmed	-10.0224
▁emotion	-10.0228
qu	-10.0228
▁dress	-10.0229
▁finished	-10.023
▁zombie	-10.0235
▁soldier	-10.0241
▁seat	-10.025
▁seek	-10.0251
▁alive	-10.0256
▁mini	-10.0256
▁Ed	-10.0277
▁ideas	-10.0284
▁happening	-10.0304
▁ahead	-10.0308
ties	-10.034
red	-10.035
▁fi	-10.0364
▁returns	-10.0429
▁fare	-10.0437
OR	-10.0462
▁addition	-10.0471
When	-10.0477
life	-10.0477
making	-10.0478
either	-10.0488
▁sleep	-10.049
é	-10.0493
iv	-10.0504
▁100	-10.0512
▁Hoffman	-10.0546
▁Street	-10.0546
▁Washington	-10.0546
▁afraid	-10.0546
▁choose	-10.0546
▁glimpse	-10.0546
▁regular	-10.0546
▁funniest	-10.0546
▁Brown	-10.0546
▁hurt	-10.0546
▁trash	-10.0546
▁comparison	-10.0546
▁Albert	-10.0547
▁aware	-10.0547
▁information	-10.0547
▁underrated	-10.0548
▁prefer	-10.0548
▁behavior	-10.0549
▁Harry	-10.0549
▁slasher	-10.055
▁cold	-10.0551
▁includes	-10.0552
▁model	-10.0552
▁Ka	-10.0552
▁horrible	-10.0552
▁Astaire	-10.0553
▁remarkable	-10.0553
▁doctor	-10.0553
▁photography	-10.0555
▁milit	-10.0555
▁captures	-10.0555
▁mid	-10.0557
▁frame	-10.0557
▁Kate	-10.0558
▁Kid	-10.0561
▁Christy	-10.0563
▁Sure	-10.0563
▁wave	-10.0564
▁Jr	-10.0572
val	-10.0584
▁sell	-10.0587
▁moved	-10.0592
▁Fu	-10.0597
▁seeming	-10.0601
▁Sho	-10.0602
▁Da	-10.0611
▁Germany	-10.0613
▁introduce	-10.0616
▁developed	-10.0621
▁decision	-10.0632
▁hits	-10.0637
▁student	-10.0638
▁reaction	-10.064
ically	-10.0643
mon	-10.0644
▁Pe	-10.0645
▁member	-10.0651
▁pictures	-10.066
▁filmmaker	-10.0671
ft	-10.0682
▁Wa	-10.0696
▁Car	-10.0696
▁slight	-10.0699
▁pa	-10.0708
▁sta	-10.0721
▁Vi	-10.0723
see	-10.0729
real	-10.0762
ino	-10.077
▁pain	-10.0778
part	-10.0784
ail	-10.0785
gotten	-10.0788
▁lighting	-10.0794
▁k	-10.0795
ear	-10.08
▁relate	-10.0804
▁starting	-10.0816
▁o	-10.0817
mer	-10.0833
▁Che	-10.0836
wise	-10.0867
ina	-10.0875
ship	-10.0879
▁rent	-10.0896
year	-10.0901
▁values	-10.0902
▁feels	-10.0933
za	-10.0942
ane	-10.0944
▁favor	-10.0945
	-10.0946
▁Feinstone	-10.0946
▁Gordon	-10.0946
▁Lynch	-10.0946
▁Russian	-10.0946
▁combination	-10.0946
▁excitement	-10.0946
▁ghost	-10.0946
▁target	-10.0946
▁Gypo	-10.0946
▁Hartley	-10.0946
▁floor	-10.0946
▁concert	-10.0946
▁Batman	-10.0946
▁convey	-10.0946
▁inspired	-10.0946
▁urban	-10.0946
▁surreal	-10.0946
▁loving	-10.0947
▁existence	-10.0947
▁plain	-10.0947
▁Jason	-10.0947
▁loud	-10.0947
▁everybody	-10.0947
▁kick	-10.0947
▁Japan	-10.0948
▁thus	-10.095
▁path	-10.095
▁Margaret	-10.0951
▁passion	-10.0951
▁commentary	-10.0951
▁shop	-10.0951
▁trust	-10.0953
▁Bruce	-10.0953
▁Gerard	-10.0953
▁cinematic	-10.0956
▁num	-10.0956
▁movement	-10.0957
▁Anne	-10.0957
▁Sha	-10.0959
▁otherwise	-10.0959
▁Walter	-10.0961
▁Danny	-10.0961
▁Bond	-10.0963
▁Unfortunately	-10.0965
▁teacher	-10.0968
▁satisfying	-10.097
▁tried	-10.097
▁pair	-10.0971
▁:)	-10.0974
▁Phil	-10.0975
▁Where	-10.0975
rry	-10.0977
▁House	-10.0978
▁manager	-10.0982
▁burn	-10.0989
▁Anyway	-10.0994
gar	-10.0998
▁X	-10.1003
▁reminded	-10.1017
▁managed	-10.1017
ger	-10.1027
▁Many	-10.1036
▁Mik	-10.1054
▁answer	-10.1055
▁murders	-10.1065
ya	-10.1081
▁followed	-10.1085
▁ready	-10.1089
▁Americans	-10.112
▁types	-10.1125
Ro	-10.1127
▁Ta	-10.1137
unk	-10.1159
▁arrive	-10.1161
▁Hu	-10.1163
▁forces	-10.1187
▁artists	-10.1213
▁exceptional	-10.1222
▁thrill	-10.1229
ell	-10.1231
▁Les	-10.1239
play	-10.1244
bel	-10.1255
ile	-10.1268
▁Fi	-10.1277
▁par	-10.1278
▁perform	-10.1293
▁roll	-10.1294
movie	-10.1299
▁carry	-10.1313
▁Mor	-10.132
▁Ted	-10.1322
boy	-10.1341
▁produce	-10.1341
▁authentic	-10.1359
▁intriguing	-10.1363
▁premise	-10.1363
▁contract	-10.1363
▁study	-10.1363
▁Morris	-10.1363
▁instance	-10.1363
▁difference	-10.1363
▁curious	-10.1363
▁witty	-10.1364
▁magnificent	-10.1364
▁ho	-10.1364
▁Western	-10.1364
▁push	-10.1365
▁tight	-10.1365
▁attend	-10.1366
▁Charlie	-10.1366
▁flat	-10.1367
▁hotel	-10.1369
▁significant	-10.1369
▁Eric	-10.137
▁personality	-10.1371
▁page	-10.1371
▁tired	-10.1372
▁loss	-10.1372
rate	-10.1375
▁Gene	-10.1376
▁intended	-10.1378
ative	-10.1384
▁soft	-10.1388
▁annoying	-10.1395
▁band	-10.1401
▁Show	-10.1407
▁gain	-10.1409
▁skill	-10.1409
▁villains	-10.1413
▁appreciated	-10.1424
▁wind	-10.1428
▁darker	-10.1429
▁rarely	-10.1436
▁previously	-10.1446
▁mon	-10.145
▁Overall	-10.1453
▁host	-10.1456
cha	-10.1457
▁mistake	-10.1457
▁May	-10.1461
▁ball	-10.1472
▁Denn	-10.1488
verything	-10.1495
▁Andrews	-10.1517
▁hire	-10.1521
▁added	-10.1536
▁dealing	-10.1543
till	-10.1556
▁lo	-10.1559
wer	-10.1559
▁Con	-10.1561
▁Uni	-10.1564
▁books	-10.1584
▁ratings	-10.1595
hearted	-10.1601
▁Pu	-10.1601
atch	-10.1625
▁learns	-10.163
She	-10.1651
▁featur	-10.1656
▁understanding	-10.1672
▁drugs	-10.1672
ush	-10.1685
▁Fl	-10.1691
af	-10.1709
▁program	-10.172
mark	-10.1729
That	-10.173
Who	-10.1731
vo	-10.174
▁Chan	-10.175
▁IS	-10.1751
▁loves	-10.1753
ified	-10.1756
aw	-10.1756
▁ultimate	-10.1759
▁influence	-10.1767
They	-10.1767
▁Wood	-10.179
▁reflect	-10.1793
▁melodrama	-10.1796
▁Master	-10.1797
▁Barbara	-10.1798
▁Columbo	-10.1798
▁Gundam	-10.1798
▁creature	-10.1798
▁ensemble	-10.1798
▁gritty	-10.1798
▁league	-10.1798
▁twice	-10.1798
▁Church	-10.1798
▁Christmas	-10.1798
▁double	-10.1798
▁food	-10.1798
▁suicide	-10.1798
▁protect	-10.1798
▁attitude	-10.1798
▁intellectual	-10.1798
▁storytelling	-10.1798
▁Kelly	-10.1798
▁haunting	-10.1798
▁smile	-10.1798
▁opportunity	-10.1798
▁began	-10.1798
▁Martin	-10.1798
▁summer	-10.1798
▁cheer	-10.1798
▁France	-10.1798
▁kung	-10.1799
No	-10.1799
▁shadow	-10.1799
▁clothes	-10.1799
▁knowledge	-10.1799
▁associat	-10.1799
▁handsome	-10.18
▁naive	-10.18
▁nobody	-10.18
▁worse	-10.1801
▁Nick	-10.1802
▁Green	-10.1803
▁Vance	-10.1804
▁fell	-10.1804
▁Halloween	-10.1806
▁boyfriend	-10.1806
▁correct	-10.1809
▁test	-10.181
▁faces	-10.181
▁touches	-10.1811
▁audiences	-10.1812
▁fr	-10.1813
ments	-10.1815
▁Dark	-10.1816
▁sharp	-10.1816
▁victims	-10.1817
▁Hitler	-10.1818
eg	-10.182
▁heroes	-10.1821
ned	-10.1831
▁Steven	-10.1839
▁complaint	-10.1844
▁shooting	-10.1863
▁deliver	-10.187
▁asked	-10.1872
ible	-10.1873
▁Far	-10.1879
▁Eva	-10.1925
We	-10.1926
▁color	-10.194
▁suspect	-10.194
▁highlight	-10.1947
▁quote	-10.1977
▁sp	-10.1978
▁spit	-10.2011
uring	-10.2019
▁Time	-10.2031
▁reach	-10.2034
▁sea	-10.2044
cut	-10.2062
ue	-10.2102
ja	-10.2102
▁ill	-10.2108
▁ring	-10.213
▁pieces	-10.2162
▁dy	-10.2167
▁disc	-10.2168
▁Bob	-10.2176
director	-10.2185
Now	-10.2189
▁destroy	-10.2203
▁mental	-10.2208
??	-10.2224
▁High	-10.2229
vin	-10.2234
▁Home	-10.2234
▁bull	-10.2249
▁disappear	-10.2252
▁reminisc	-10.2252
▁Bakshi	-10.2252
▁Floriane	-10.2252
▁Flynn	-10.2252
▁distract	-10.2252
▁experiment	-10.2252
▁foreign	-10.2252
▁universe	-10.2252
▁condition	-10.2252
▁positive	-10.2252
▁satire	-10.2252
▁specific	-10.2252
▁belief	-10.2252
▁Moore	-10.2252
▁Susan	-10.2252
ros	-10.2253
▁bond	-10.2253
▁screw	-10.2253
▁committed	-10.2253
▁tune	-10.2254
▁sitting	-10.2254
▁Jerry	-10.2254
▁personalities	-10.2254
▁imagery	-10.2254
▁grew	-10.2254
▁marry	-10.2255
▁unknown	-10.2258
▁treatment	-10.226
▁Emma	-10.226
▁Widmark	-10.226
▁flow	-10.226
▁met	-10.2261
▁Victor	-10.2261
▁complicated	-10.2263
▁Gold	-10.2263
▁Can	-10.2264
▁Because	-10.2264
▁Barry	-10.2265
Donald	-10.2266
▁Grant	-10.227
▁print	-10.2271
▁lucky	-10.2274
▁guard	-10.2274
▁asks	-10.2276
▁singer	-10.2277
nny	-10.2279
▁Award	-10.228
▁Pitt	-10.2285
▁lovers	-10.2289
ura	-10.2291
Ha	-10.2315
▁Oh	-10.2327
▁growing	-10.2337
▁artist	-10.2338
lent	-10.2342
▁artistic	-10.2344
ou	-10.2344
!!!!	-10.2357
uck	-10.236
▁personally	-10.2364
▁continue	-10.2405
▁joke	-10.2415
can	-10.2416
▁Nazi	-10.2417
▁graphic	-10.2419
▁expression	-10.2419
▁led	-10.2431
▁Hal	-10.2434
long	-10.2442
▁worthy	-10.2447
ita	-10.2483
▁Tim	-10.2503
▁uncle	-10.2535
appy	-10.2537
▁player	-10.2542
▁talents	-10.2556
▁cartoons	-10.2582
▁skills	-10.2587
▁14	-10.2594
▁Su	-10.2608
ob	-10.2612
▁students	-10.2615
▁arts	-10.262
American	-10.2659
film	-10.2659
John	-10.2659
▁drop	-10.2662
▁Ken	-10.2671
▁depict	-10.2675
▁constant	-10.2689
pro	-10.2706
▁Louis	-10.271
▁Brad	-10.2712
▁Hol	-10.2717
▁wit	-10.2719
▁root	-10.272
AND	-10.2724
+	-10.2728
▁Bettie	-10.2728
▁Festival	-10.2728
▁Olivier	-10.2728
▁accomplish	-10.2728
▁colour	-10.2728
▁folks	-10.2728
▁identity	-10.2728
▁intrigue	-10.2728
▁perspective	-10.2728
▁speech	-10.2728
▁terrifying	-10.2728
▁tremendous	-10.2728
▁vehicle	-10.2728
▁dubbed	-10.2728
▁maintain	-10.2728
▁giant	-10.2728
▁rival	-10.2728
▁center	-10.2728
▁okay	-10.2728
▁account	-10.2728
▁brain	-10.2728
▁speed	-10.2728
▁welcome	-10.2728
▁angry	-10.2729
▁solve	-10.2729
▁Sunday	-10.2729
▁mask	-10.2729
▁Kong	-10.2729
▁risk	-10.2729
▁marvelous	-10.2729
▁ladies	-10.2729
▁Devil	-10.2729
▁shape	-10.2729
▁scientist	-10.2729
▁opposite	-10.273
▁Adam	-10.273
▁community	-10.273
▁interpretation	-10.273
▁interaction	-10.273
▁breathtaking	-10.273
▁Art	-10.2731
▁European	-10.2731
ates	-10.2732
▁depiction	-10.2733
▁bright	-10.2734
▁blend	-10.2734
▁Academy	-10.2734
▁Instead	-10.2734
▁reward	-10.2735
▁Ruth	-10.2736
▁invite	-10.2738
▁bored	-10.274
▁charge	-10.2742
▁Life	-10.2744
▁flying	-10.2749
▁Page	-10.2749
▁Parker	-10.2752
izing	-10.2753
ough	-10.2756
▁San	-10.2763
▁guns	-10.277
▁prime	-10.2774
▁handle	-10.2787
▁masterful	-10.2793
action	-10.2795
▁passed	-10.2806
▁realized	-10.2835
jo	-10.2855
▁shocking	-10.2858
she	-10.2863
use	-10.2867
▁Ju	-10.2888
how	-10.2898
▁Te	-10.2898
▁leader	-10.2906
▁:	-10.291
▁ne	-10.2912
▁youth	-10.2915
▁patient	-10.2916
lar	-10.2917
▁bed	-10.2919
car	-10.2919
▁reference	-10.292
tu	-10.2921
▁wondering	-10.2922
very	-10.2927
▁remain	-10.2927
IS	-10.2931
ST	-10.2939
▁sports	-10.2948
▁reviewer	-10.2957
▁mine	-10.2976
▁rep	-10.2977
ah	-10.2984
lee	-10.2998
▁drag	-10.3004
nda	-10.3004
field	-10.3012
die	-10.3019
▁actions	-10.3019
▁treasure	-10.3042
hand	-10.3042
▁cars	-10.3042
▁continues	-10.3054
▁onto	-10.3067
▁erotic	-10.3092
▁12	-10.3098
▁ver	-10.31
iness	-10.3107
where	-10.3125
▁round	-10.3132
▁Too	-10.3138
▁plans	-10.3146
▁event	-10.3154
though	-10.3155
X	-10.3158
budget	-10.3159
▁loose	-10.3168
AL	-10.3175
▁revolution	-10.3179
▁wh	-10.3189
▁apparent	-10.3189
made	-10.3192
▁comp	-10.3197
▁futur	-10.3204
▁develops	-10.3207
▁buff	-10.3219
▁nation	-10.3225
▁safe	-10.3227
▁Arnold	-10.3228
▁Vietnam	-10.3228
▁Which	-10.3228
▁awkward	-10.3228
▁club	-10.3228
▁college	-10.3228
▁intelligence	-10.3228
▁mountain	-10.3228
▁portrait	-10.3228
▁rescue	-10.3228
▁routine	-10.3228
▁system	-10.3228
▁veteran	-10.3228
▁Sidney	-10.3228
▁dumb	-10.3228
▁freak	-10.3228
▁Walken	-10.3228
▁Logan	-10.3228
▁subtitles	-10.3229
▁network	-10.3229
▁Spike	-10.3229
▁green	-10.3229
▁Jenni	-10.3229
▁creating	-10.3229
▁expectations	-10.3229
▁True	-10.3229
▁sword	-10.3229
▁stylish	-10.3229
▁rough	-10.323
▁flee	-10.323
▁Oliver	-10.323
▁mature	-10.323
▁threaten	-10.323
▁international	-10.3231
▁rise	-10.3232
▁Warner	-10.3232
▁Jackson	-10.3233
▁seven	-10.3233
▁abuse	-10.3234
▁gold	-10.3234
▁Navy	-10.3235
▁trial	-10.3236
▁Buck	-10.3237
▁chilling	-10.3238
▁Pacino	-10.3238
▁parody	-10.3238
▁Max	-10.3238
▁mass	-10.3239
▁Later	-10.3239
▁humorous	-10.3239
▁Fire	-10.3241
▁mouth	-10.3241
▁Jeff	-10.3241
▁icon	-10.3243
▁cable	-10.3252
▁deserved	-10.3255
▁unfortunately	-10.3264
▁nightmare	-10.3264
coming	-10.3267
▁gory	-10.3272
▁troubled	-10.3279
▁voices	-10.3281
▁dated	-10.3286
▁saved	-10.3293
▁factor	-10.3296
▁Fred	-10.3298
ford	-10.3298
▁fits	-10.3302
▁captured	-10.3303
▁ship	-10.3319
ural	-10.3333
▁indie	-10.3356
▁discovered	-10.3365
▁Brothers	-10.3366
▁card	-10.3366
▁States	-10.3367
▁shines	-10.3376
▁emotionally	-10.3378
▁topic	-10.3396
▁pal	-10.3408
▁finale	-10.3409
▁em	-10.3413
▁laughed	-10.3432
▁individual	-10.3441
▁count	-10.3448
▁promise	-10.3459
▁standard	-10.3462
hu	-10.347
▁goal	-10.3473
pl	-10.3517
they	-10.3527
ottom	-10.3529
▁na	-10.3534
▁surely	-10.3545
slightly	-10.3548
ev	-10.361
▁changes	-10.3612
▁answers	-10.3613
▁provid	-10.362
▁Fa	-10.3621
▁Stan	-10.3636
▁kills	-10.364
▁India	-10.3654
▁luck	-10.3655
!).	-10.3661
▁Per	-10.3674
iest	-10.3679
style	-10.3682
ham	-10.3682
point	-10.3685
Some	-10.3689
▁crash	-10.3697
▁surround	-10.3698
key	-10.3707
▁Jimm	-10.3709
▁technical	-10.3714
▁initial	-10.3714
▁sing	-10.3722
▁appropriate	-10.3723
▁hang	-10.3728
▁craft	-10.3733
▁Pri	-10.3747
▁express	-10.3747
$	-10.3748
▁discuss	-10.375
▁product	-10.375
▁village	-10.3754
▁eight	-10.3754
▁CRY	-10.3755
▁Curtis	-10.3755
▁Texas	-10.3755
▁degree	-10.3755
▁drink	-10.3755
▁extraordinary	-10.3755
▁festival	-10.3755
▁innocence	-10.3755
▁politics	-10.3755
▁religion	-10.3755
▁sympathetic	-10.3755
▁trilogy	-10.3755
▁twenty	-10.3755
▁Lucas	-10.3755
▁essence	-10.3755
▁practical	-10.3755
▁ancient	-10.3755
▁honor	-10.3755
▁price	-10.3755
▁task	-10.3755
▁1980	-10.3755
▁advance	-10.3755
▁gripping	-10.3755
▁phone	-10.3755
▁Wild	-10.3755
▁dynamic	-10.3756
▁generation	-10.3756
▁Edward	-10.3756
▁dad	-10.3756
▁guest	-10.3757
▁radio	-10.3757
▁department	-10.3757
▁Alice	-10.3757
▁chick	-10.3757
▁proud	-10.3757
▁skin	-10.3758
▁WWII	-10.3758
▁fake	-10.3758
▁Thank	-10.3759
▁Howard	-10.3759
▁bigger	-10.376
▁theatrical	-10.3761
▁Sky	-10.3761
▁technology	-10.3762
▁hide	-10.3762
▁gather	-10.3764
Bo	-10.3766
▁sentimental	-10.3769
▁fame	-10.3769
▁Finally	-10.3771
▁=	-10.3776
▁Nothing	-10.3776
▁officer	-10.3777
▁fictional	-10.3777
▁realism	-10.3779
▁hooked	-10.378
▁div	-10.3782
▁Brian	-10.3783
▁disappointing	-10.3784
▁Jon	-10.3787
▁repeated	-10.3787
▁plane	-10.379
▁becoming	-10.3791
▁Peters	-10.3797
▁constantly	-10.3799
▁pitch	-10.3799
▁concerned	-10.3802
ez	-10.3806
▁endless	-10.3807
▁driven	-10.3818
LE	-10.3819
▁forgotten	-10.3826
▁IN	-10.3833
▁bloody	-10.3837
▁appealing	-10.3838
lum	-10.3848
▁brave	-10.3862
LY	-10.3865
▁higher	-10.3866
▁force	-10.3867
▁cap	-10.3871
▁ran	-10.3872
▁seasons	-10.3912
▁Ja	-10.3915
gue	-10.3929
▁opera	-10.3931
▁forever	-10.3933
▁superbly	-10.3934
▁Ab	-10.3941
▁bo	-10.3947
min	-10.3956
▁Super	-10.3958
▁More	-10.3978
stor	-10.3981
mond	-10.3982
evin	-10.3983
teen	-10.3987
legendary	-10.3996
▁sisters	-10.4003
▁teenager	-10.4009
▁u	-10.4023
▁image	-10.4028
head	-10.4038
▁opens	-10.4046
▁visuals	-10.4051
▁dig	-10.4052
▁Cor	-10.4055
▁teenagers	-10.4057
▁Dur	-10.406
bout	-10.4064
▁admire	-10.4072
▁references	-10.4091
▁remembered	-10.4095
han	-10.4142
▁bother	-10.4148
ization	-10.4165
▁Gree	-10.4172
get	-10.4188
▁punch	-10.419
stead	-10.4195
har	-10.4208
▁gas	-10.4212
▁min	-10.4212
und	-10.4219
hood	-10.4234
▁THI	-10.4239
▁sat	-10.4246
▁shorts	-10.4246
▁bomb	-10.4246
although	-10.4254
▁Julie	-10.426
ram	-10.4269
Of	-10.427
▁bat	-10.427
▁unfortunate	-10.4271
▁explore	-10.428
ONE	-10.4287
ving	-10.4292
▁recognize	-10.4295
▁tradition	-10.4299
▁le	-10.43
▁island	-10.4303
▁formula	-10.4305
most	-10.4307
▁object	-10.4308
▁1970	-10.431
▁Catholic	-10.431
▁Russell	-10.431
▁Taylor	-10.431
▁circumstances	-10.431
▁families	-10.431
▁obsession	-10.431
▁ordinary	-10.431
▁profound	-10.431
▁remote	-10.431
▁research	-10.431
▁section	-10.431
▁technique	-10.431
▁Spielberg	-10.431
▁independent	-10.431
▁Army	-10.431
▁affair	-10.431
▁trapped	-10.431
▁Clark	-10.431
▁cousin	-10.431
▁prevent	-10.431
▁teeth	-10.431
▁naked	-10.431
▁memory	-10.431
,000	-10.431
▁Palma	-10.4311
▁freedom	-10.4311
▁advice	-10.4311
▁attractive	-10.4311
▁transition	-10.4311
▁Burn	-10.4311
talk	-10.4311
▁feet	-10.4312
beat	-10.4313
▁spin	-10.4313
▁Australian	-10.4314
▁market	-10.4314
▁16	-10.4315
▁pool	-10.4316
▁heroine	-10.4316
▁Novak	-10.4316
▁blockbuster	-10.4316
▁nominated	-10.4316
▁Carol	-10.4317
▁anymore	-10.4317
▁oh	-10.4318
▁chosen	-10.4318
▁Gar	-10.4319
▁polished	-10.432
▁Especially	-10.432
▁Fonda	-10.432
▁Matthau	-10.4321
▁streets	-10.4321
▁Fuller	-10.4321
▁blonde	-10.4322
▁Vincent	-10.4325
▁Again	-10.4325
▁station	-10.4325
▁define	-10.4326
▁Ex	-10.4327
▁recall	-10.4332
▁connection	-10.4337
▁load	-10.4341
▁raw	-10.4352
▁Eye	-10.4352
▁Lewis	-10.4353
▁restore	-10.4357
▁Lost	-10.4362
Let	-10.4363
▁described	-10.4365
Man	-10.4366
▁painting	-10.4367
▁stranger	-10.4371
▁Before	-10.4378
▁revealed	-10.4383
gh	-10.4394
▁Jud	-10.4422
▁visually	-10.4425
▁games	-10.4433
▁demonstrate	-10.4445
▁speaking	-10.4458
▁depend	-10.4464
ery	-10.447
▁alien	-10.4471
dimensional	-10.4476
▁demon	-10.4488
▁portrays	-10.4505
room	-10.4507
▁Gun	-10.4513
▁finding	-10.4519
stuck	-10.4523
▁revolve	-10.4538
ank	-10.4544
j	-10.4555
▁str	-10.4567
▁TO	-10.4576
▁workers	-10.4579
▁horse	-10.4582
▁represent	-10.4584
ctor	-10.4587
▁Roger	-10.4594
▁concerns	-10.4594
▁rule	-10.4595
Go	-10.4599
IT	-10.4608
▁producer	-10.4614
▁murdered	-10.4617
▁machine	-10.4623
▁surprises	-10.465
eth	-10.465
ILL	-10.4655
▁amazingly	-10.4657
▁teen	-10.466
mple	-10.4661
now	-10.4681
▁Par	-10.4692
mate	-10.4697
▁considerabl	-10.4699
▁Mad	-10.471
ze	-10.4713
▁resemble	-10.4717
ute	-10.472
▁inner	-10.472
emy	-10.4723
looking	-10.4732
▁Hill	-10.4733
ility	-10.474
Fi	-10.4747
▁Fe	-10.4767
az	-10.4775
▁complain	-10.4778
Z	-10.48
pre	-10.4801
other	-10.4809
▁pan	-10.4812
too	-10.4815
Before	-10.4827
Anyway	-10.4828
class	-10.4829
especially	-10.4829
girl	-10.4829
Also	-10.4829
▁scream	-10.4842
▁cur	-10.4842
▁multi	-10.4846
SH	-10.4866
▁praise	-10.4867
SE	-10.4868
▁combine	-10.4869
▁suppose	-10.4869
win	-10.4881
▁realise	-10.4884
▁favorites	-10.4887
▁teenage	-10.4891
IN	-10.4892
▁quest	-10.4894
▁lay	-10.4898
▁Corbett	-10.4898
▁Douglas	-10.4898
▁GREAT	-10.4898
▁Gauri	-10.4898
▁Keaton	-10.4898
▁Kusturica	-10.4898
▁Miyazaki	-10.4898
▁Morgan	-10.4898
▁Shakespeare	-10.4898
▁Wilson	-10.4898
▁channel	-10.4898
▁confused	-10.4898
▁confusing	-10.4898
▁contemporary	-10.4898
▁documentaries	-10.4898
▁fabulous	-10.4898
▁knock	-10.4898
▁mechanic	-10.4898
▁thousand	-10.4898
▁widow	-10.4898
▁MGM	-10.4898
▁command	-10.4898
▁crude	-10.4898
▁frequent	-10.4898
▁precise	-10.4898
▁vivid	-10.4898
▁Kirk	-10.4898
▁Uncle	-10.4898
▁Woman	-10.4898
▁damn	-10.4898
▁gift	-10.4898
▁Dream	-10.4898
▁Three	-10.4898
▁pathetic	-10.4898
▁lonely	-10.4898
▁basis	-10.4898
▁Anderson	-10.4898
▁blind	-10.4899
▁Alfre	-10.4899
▁organ	-10.4899
▁confront	-10.4899
stream	-10.4899
▁Walsh	-10.4899
▁Rooney	-10.4899
▁Hitchcock	-10.4899
▁Lisa	-10.4899
▁torment	-10.4899
▁jail	-10.4899
▁Heston	-10.49
▁relief	-10.49
▁device	-10.49
▁California	-10.4901
▁Prince	-10.4901
▁Fool	-10.4901
▁accus	-10.4901
▁spent	-10.4901
▁Gilliam	-10.4902
▁Mexico	-10.4902
uel	-10.4903
▁refuses	-10.4904
▁gross	-10.4904
▁dozen	-10.4905
▁McCoy	-10.4905
▁North	-10.4907
▁anywhere	-10.4907
▁chapter	-10.4909
▁gang	-10.491
▁nowhere	-10.491
▁afternoon	-10.4919
▁surfing	-10.4921
▁Roman	-10.4923
▁homeless	-10.4926
▁overlooked	-10.4926
▁Kim	-10.4926
▁8/10	-10.4928
▁defend	-10.4932
▁Bette	-10.4932
▁failed	-10.4934
▁Cole	-10.4936
▁handled	-10.4938
▁****	-10.4939
ember	-10.4939
▁balance	-10.4941
▁perfection	-10.4942
▁anger	-10.4945
▁Winters	-10.4947
▁grown	-10.4949
▁Girl	-10.4953
▁motion	-10.4956
story	-10.4965
lam	-10.4967
ED	-10.4968
cultural	-10.4973
▁Jer	-10.4981
ET	-10.4985
▁proved	-10.4989
▁sum	-10.4992
▁naturally	-10.4998
poli	-10.5006
▁mayor	-10.5007
van	-10.5007
Alan	-10.5008
▁effectively	-10.5013
sha	-10.5014
rated	-10.5032
Be	-10.5032
▁castle	-10.505
more	-10.5072
▁learning	-10.5081
lish	-10.5082
▁ST	-10.5085
▁site	-10.5085
▁holes	-10.5122
▁thoughtful	-10.5132
▁unforgettabl	-10.5133
core	-10.5135
▁aim	-10.5146
ometimes	-10.5151
OW	-10.5159
▁strongly	-10.5162
ix	-10.5164
▁concern	-10.5164
▁clichés	-10.5198
mbo	-10.5198
▁angle	-10.5212
▁Hank	-10.5213
▁cliché	-10.5214
▁location	-10.5224
des	-10.5238
TE	-10.524
▁Lion	-10.5263
▁Twi	-10.5268
▁Col	-10.5279
▁starr	-10.5283
ax	-10.5286
ana	-10.5292
▁graphics	-10.5297
▁mu	-10.53
▁operat	-10.5317
▁colors	-10.5317
▁Mari	-10.532
▁symbol	-10.5322
▁Bud	-10.5322
Not	-10.537
El	-10.5374
▁Sa	-10.5378
▁Mann	-10.5385
rie	-10.5389
▁Lea	-10.54
RE	-10.5403
▁Ram	-10.5404
▁ALL	-10.5409
board	-10.5443
gre	-10.5445
NG	-10.5449
writer	-10.545
wood	-10.5451
screen	-10.5453
white	-10.5454
After	-10.5454
Whil	-10.5456
type	-10.546
Fro	-10.5472
▁quick	-10.5485
▁sudden	-10.5485
ender	-10.5486
▁require	-10.5493
At	-10.5496
▁Africa	-10.5498
night	-10.5503
▁report	-10.5508
▁glass	-10.5514
▁screening	-10.5518
▁badly	-10.5518
▁oppos	-10.5521
rained	-10.5521
▁court	-10.5523
▁Atlantis	-10.5523
▁Lemmon	-10.5523
▁Modesty	-10.5523
▁Murphy	-10.5523
▁Reynolds	-10.5523
▁Verhoeven	-10.5523
▁Voight	-10.5523
▁captivating	-10.5523
▁creator	-10.5523
▁depressing	-10.5523
▁explicit	-10.5523
▁homosexual	-10.5523
▁lesbian	-10.5523
▁mediocre	-10.5523
▁mirror	-10.5523
▁poverty	-10.5523
▁propaganda	-10.5523
▁recruit	-10.5523
▁religious	-10.5523
▁ruthless	-10.5523
▁sensitive	-10.5523
▁Brosnan	-10.5523
▁evident	-10.5523
▁facial	-10.5523
▁Israel	-10.5523
▁Ollie	-10.5523
▁regret	-10.5523
▁weapon	-10.5523
▁desert	-10.5523
▁inhabit	-10.5523
▁contact	-10.5524
▁chain	-10.5524
▁competent	-10.5524
▁retire	-10.5524
▁splendid	-10.5524
▁qualities	-10.5524
▁subplot	-10.5524
▁Miller	-10.5524
▁conversation	-10.5524
▁7/10	-10.5524
▁angel	-10.5524
▁south	-10.5524
▁grasp	-10.5524
▁psychiatrist	-10.5524
▁stock	-10.5525
▁Trier	-10.5525
▁closing	-10.5525
atrick	-10.5525
▁range	-10.5525
▁Music	-10.5525
▁Luke	-10.5525
▁subsequent	-10.5525
▁bread	-10.5526
▁Fido	-10.5526
▁block	-10.5526
▁bank	-10.5527
▁Lena	-10.5527
▁crush	-10.5527
▁Queen	-10.5527
▁eerie	-10.5528
▁achievement	-10.5528
agi	-10.5529
▁ear	-10.5529
▁Marine	-10.553
▁LOVE	-10.553
▁sophisticated	-10.553
▁Branagh	-10.553
▁prior	-10.5531
▁grace	-10.5532
▁Carrey	-10.5533
▁Moon	-10.5533
▁everyday	-10.5534
▁choreography	-10.5536
▁link	-10.5537
▁Jesse	-10.5537
▁mission	-10.5538
▁Sci	-10.5542
▁tense	-10.5543
▁Kei	-10.5544
▁reporter	-10.5545
▁Danes	-10.5548
▁Sinc	-10.5549
onnie	-10.5552
▁combined	-10.5555
▁explored	-10.5557
▁mom	-10.5557
Ch	-10.5562
▁Get	-10.5568
▁received	-10.5569
▁belong	-10.5571
iff	-10.5578
▁Anna	-10.558
itz	-10.5586
▁Val	-10.5589
10	-10.5591
▁earn	-10.5592
▁Pol	-10.5593
▁board	-10.5596
ky	-10.5599
udge	-10.5605
▁pop	-10.5628
▁fairy	-10.5631
▁Iran	-10.5636
▁pri	-10.5637
▁sincere	-10.5637
▁theaters	-10.5641
signed	-10.5657
▁weeks	-10.566
▁paced	-10.5689
ending	-10.5696
▁AT	-10.5697
▁results	-10.5701
▁Let	-10.5702
Do	-10.5708
ool	-10.5711
▁opened	-10.5713
20	-10.5716
▁Hell	-10.5723
▁Sir	-10.5737
▁succeeds	-10.5741
▁focused	-10.5742
▁lights	-10.5763
▁breaking	-10.5763
▁Take	-10.577
▁confiden	-10.5772
▁wo	-10.5774
▁Mol	-10.5785
▁hearing	-10.5786
gen	-10.5817
berg	-10.5817
▁chair	-10.5819
▁Bel	-10.582
▁secrets	-10.5825
▁exist	-10.5831
▁sons	-10.5843
▁locations	-10.5844
▁Mer	-10.5847
ran	-10.5858
▁machines	-10.5865
cur	-10.587
▁unfold	-10.5876
▁hint	-10.5878
▁Sch	-10.5885
▁legend	-10.5891
▁sport	-10.5892
aff	-10.5897
▁sings	-10.5906
nne	-10.5917
▁issue	-10.5919
pher	-10.5928
je	-10.5929
▁aid	-10.5946
▁figures	-10.5953
▁versions	-10.5956
▁fish	-10.5963
▁sole	-10.5985
▁Ball	-10.599
▁stays	-10.5992
▁ta	-10.6009
▁hopes	-10.6016
▁ro	-10.6027
▁musicals	-10.6028
▁Rai	-10.6047
▁notable	-10.6049
▁resist	-10.6053
AS	-10.6064
▁extras	-10.6071
▁entertain	-10.6084
▁crap	-10.6096
▁struggles	-10.6099
▁continu	-10.6103
▁overly	-10.6114
▁arm	-10.612
▁porn	-10.6129
▁receiv	-10.6144
▁awards	-10.6145
rous	-10.615
▁poster	-10.615
▁pit	-10.615
▁essential	-10.615
▁achieve	-10.6156
▁broke	-10.6165
▁encourage	-10.6168
▁whil	-10.6169
▁Hat	-10.6177
▁Europe	-10.6186
▁trans	-10.6188
▁cruel	-10.6189
▁birth	-10.6189
▁Cagney	-10.619
▁Cusack	-10.619
▁Foster	-10.619
▁Hilliard	-10.619
▁Joseph	-10.619
▁Karloff	-10.619
▁Nightmare	-10.619
▁Spanish	-10.619
▁Sunrise	-10.619
▁evidence	-10.619
▁financial	-10.619
▁memories	-10.619
▁pursue	-10.619
▁scenario	-10.619
▁silence	-10.619
▁striking	-10.619
▁ticket	-10.619
▁vacation	-10.619
▁Pegg	-10.619
▁Picture	-10.619
▁Ranma	-10.619
▁adorable	-10.619
▁church	-10.619
▁corner	-10.619
▁corny	-10.619
▁exquisite	-10.619
▁harsh	-10.619
▁intensity	-10.619
▁White	-10.619
▁Steele	-10.619
▁drown	-10.619
▁clip	-10.619
▁official	-10.619
▁endearing	-10.619
▁rude	-10.619
▁bleak	-10.619
▁Old	-10.619
▁sinister	-10.619
▁timing	-10.619
▁reunion	-10.619
▁League	-10.619
▁Neil	-10.619
▁excuse	-10.6191
▁spoke	-10.6191
▁destruction	-10.6191
▁neighborhood	-10.6191
▁fond	-10.6191
▁enemy	-10.6191
Claire	-10.6191
▁Robinson	-10.6191
▁trick	-10.6192
▁motivation	-10.6192
▁worthwhile	-10.6192
▁River	-10.6192
▁weekend	-10.6193
▁Todd	-10.6193
▁unnecessary	-10.6193
▁Ryan	-10.6193
▁flight	-10.6193
▁dare	-10.6193
▁screenwriter	-10.6193
▁winner	-10.6194
▁nomination	-10.6195
▁curse	-10.6197
▁Anthony	-10.6198
▁affection	-10.6198
▁Italy	-10.62
▁Cook	-10.6201
▁UK	-10.6201
▁bug	-10.6202
▁Ghost	-10.6203
▁Winchester	-10.6203
▁WH	-10.6204
▁Thomas	-10.6204
▁Johnson	-10.6205
▁Sara	-10.6207
▁Spirit	-10.6208
▁Cinderella	-10.6208
▁Planet	-10.6208
▁rever	-10.6209
cher	-10.6209
▁darkness	-10.6211
▁tie	-10.6212
▁guilty	-10.6212
▁purchased	-10.6214
▁Von	-10.6215
▁Ac	-10.6215
▁broken	-10.6216
▁Second	-10.6217
▁capable	-10.6218
▁Philip	-10.6219
▁Please	-10.6222
lock	-10.6223
▁sorry	-10.6223
▁leg	-10.6227
▁Game	-10.623
▁driver	-10.6231
▁length	-10.6232
▁Care	-10.6235
▁intimate	-10.6236
▁DE	-10.6239
▁aside	-10.6244
▁bitter	-10.6244
▁rob	-10.6245
imp	-10.6254
▁wood	-10.6262
▁powers	-10.6262
gger	-10.6267
▁levels	-10.6269
eating	-10.6279
▁Highly	-10.6282
▁thrilling	-10.6282
Th	-10.6282
▁touched	-10.6301
▁normally	-10.6302
▁consequences	-10.6311
▁Grim	-10.6315
▁rid	-10.6316
▁experiences	-10.6317
ERS	-10.632
**	-10.6323
On	-10.6326
▁suffering	-10.6347
▁sadly	-10.6352
▁ages	-10.6356
▁paint	-10.636
OO	-10.6375
EL	-10.6382
▁cell	-10.6385
uous	-10.6417
yes	-10.6417
▁cu	-10.6419
▁protagonists	-10.6422
▁Leo	-10.6441
▁fails	-10.6447
there	-10.6457
▁choices	-10.647
▁training	-10.6479
▁believ	-10.6491
▁murderer	-10.6495
▁fa	-10.6506
don	-10.6514
▁greater	-10.6522
▁Ice	-10.6535
▁wasted	-10.6539
▁flaw	-10.6548
▁chas	-10.6561
▁rip	-10.6568
▁driv	-10.6568
unch	-10.6585
▁strip	-10.66
▁Men	-10.6607
ison	-10.6632
CE	-10.6638
▁Cal	-10.6644
▁Nazis	-10.6647
BI	-10.6693
▁bre	-10.6733
▁reactions	-10.6739
maker	-10.6761
▁reveals	-10.6764
▁format	-10.6787
▁Mon	-10.6791
AN	-10.6827
known	-10.683
Michael	-10.6835
With	-10.6835
Although	-10.6835
something	-10.6835
Paul	-10.6835
worth	-10.6835
including	-10.6838
▁Christ	-10.6844
ography	-10.6844
▁sorts	-10.6846
▁annoy	-10.685
▁connect	-10.6851
▁addict	-10.6856
▁limit	-10.6856
▁alter	-10.6857
▁expert	-10.6864
▁exact	-10.6869
▁hunt	-10.6872
Yes	-10.6879
cious	-10.6887
▁fo	-10.6888
arch	-10.6891
▁separate	-10.6897
tention	-10.6901
▁courage	-10.6902
▁danger	-10.6902
▁Fox	-10.6903
▁alcohol	-10.6903
▁commit	-10.6903
▁relation	-10.6904
▁censor	-10.6904
▁respond	-10.6904
▁stretch	-10.6904
}	-10.6904
▁9/11	-10.6904
▁April	-10.6904
▁Brooke	-10.6904
▁Brooks	-10.6904
▁Canadian	-10.6904
▁Cowboy	-10.6904
▁Ernest	-10.6904
▁Preminger	-10.6904
▁Ralph	-10.6904
▁Stooges	-10.6904
▁Tierney	-10.6904
▁Video	-10.6904
▁advantage	-10.6904
▁metaphor	-10.6904
▁plague	-10.6904
▁puppet	-10.6904
▁racism	-10.6904
▁smooth	-10.6904
▁Bourne	-10.6904
▁Evil	-10.6904
▁Gothic	-10.6904
▁Kitty	-10.6904
▁uniform	-10.6904
▁Blake	-10.6904
▁shift	-10.6904
▁virtual	-10.6904
▁Heaven	-10.6904
▁swimming	-10.6904
▁ensue	-10.6904
▁overwhelming	-10.6904
▁president	-10.6904
▁Mitchell	-10.6904
▁elder	-10.6904
▁Fanfan	-10.6904
▁fulfill	-10.6904
▁insult	-10.6905
▁amazed	-10.6905
▁random	-10.6905
▁strike	-10.6905
▁Raines	-10.6905
▁Indeed	-10.6905
▁introduction	-10.6905
▁Cuba	-10.6905
▁transport	-10.6905
▁1940	-10.6905
▁Bugs	-10.6905
▁greed	-10.6905
▁pressure	-10.6905
▁Ginger	-10.6905
▁Michelle	-10.6905
▁window	-10.6906
▁examin	-10.6906
▁symbolism	-10.6906
▁petty	-10.6906
▁Kath	-10.6906
▁revelation	-10.6906
▁Bollywood	-10.6906
▁twin	-10.6906
SPOILERS	-10.6906
▁assume	-10.6906
▁understood	-10.6907
ivil	-10.6907
▁Look	-10.6907
ops	-10.6907
▁sitcom	-10.6908
▁private	-10.6908
▁Dirt	-10.6908
▁intentions	-10.6908
▁Price	-10.6908
▁Know	-10.6909
▁nail	-10.6909
▁grab	-10.6909
▁employ	-10.691
▁discussion	-10.691
▁insane	-10.6911
▁Baker	-10.6911
▁dirty	-10.6911
▁Frankie	-10.6911
▁suspenseful	-10.6911
▁worry	-10.6912
▁Miles	-10.6913
▁Richardson	-10.6913
▁Shaw	-10.6914
▁nine	-10.6915
▁dislike	-10.6915
▁Horror	-10.6918
▁Gay	-10.6919
▁clothing	-10.6919
▁established	-10.6921
▁laughter	-10.6921
▁Lauren	-10.6922
▁spell	-10.6922
▁Robin	-10.6922
orious	-10.6922
▁Actor	-10.6924
▁improv	-10.6925
amily	-10.6926
▁counter	-10.6927
▁Bear	-10.693
▁aging	-10.6931
▁arrested	-10.6932
▁Excellent	-10.6939
▁arc	-10.694
▁Does	-10.694
▁17	-10.6943
▁boat	-10.6947
▁foot	-10.6948
▁Tur	-10.6949
▁tender	-10.6952
▁connected	-10.6954
▁failing	-10.6954
▁flawed	-10.6955
▁recognized	-10.6956
▁warning	-10.6957
Sha	-10.696
▁bill	-10.697
ardo	-10.6973
lord	-10.6974
▁critical	-10.6977
▁depicted	-10.6979
▁hanging	-10.6982
▁destroyed	-10.6983
▁delivered	-10.6985
▁Age	-10.699
ranged	-10.6998
▁convincingly	-10.7009
▁Wars	-10.7015
ken	-10.7028
▁grim	-10.7028
▁label	-10.7031
spect	-10.7031
▁walking	-10.7033
udd	-10.7043
▁watchable	-10.7055
▁pr	-10.7067
▁plant	-10.7073
Wayne	-10.7086
▁ju	-10.7101
▁Charl	-10.7107
▁loo	-10.711
▁settings	-10.7112
▁Friends	-10.712
▁beach	-10.7121
▁buying	-10.7122
▁offering	-10.7134
▁rated	-10.7155
fashioned	-10.7169
▁stunts	-10.7178
▁hum	-10.7178
▁cameos	-10.7209
▁sacrifice	-10.721
▁para	-10.7233
put	-10.7234
▁exists	-10.7244
tti	-10.7247
▁efforts	-10.7255
▁CO	-10.7268
▁BE	-10.7272
▁Ang	-10.7272
▁Hanks	-10.7275
▁angles	-10.7275
▁exploit	-10.7277
oul	-10.7284
exploitation	-10.7286
eu	-10.7287
▁represents	-10.73
Jo	-10.7302
▁fe	-10.7306
losing	-10.7315
▁fights	-10.7316
▁tear	-10.7324
▁placed	-10.7338
▁deserve	-10.7339
▁SO	-10.7345
▁scare	-10.7349
▁occur	-10.736
▁Leon	-10.7367
▁patients	-10.7373
▁term	-10.7373
US	-10.7393
▁pun	-10.7406
bidde	-10.7419
▁suspects	-10.7422
vy	-10.7433
▁fears	-10.7436
aving	-10.7438
▁cameo	-10.7442
hank	-10.7442
motion	-10.7468
▁Mont	-10.7474
!!!!!	-10.7483
▁Wing	-10.7494
matic	-10.7503
▁zombies	-10.7521
▁shoots	-10.7525
igh	-10.7535
▁convention	-10.7536
▁Are	-10.7538
▁sha	-10.7542
▁drives	-10.7572
~	-10.7601
Girl	-10.7602
paced	-10.7602
view	-10.7603
just	-10.7604
Just	-10.7604
However	-10.7605
written	-10.7605
scene	-10.7605
Director	-10.7605
80	-10.7607
series	-10.7609
Star	-10.7609
after	-10.7609
except	-10.7615
▁flesh	-10.7624
▁helping	-10.763
40	-10.7635
▁neat	-10.7637
thology	-10.7643
gging	-10.7643
▁base	-10.7647
▁guilt	-10.7648
.....	-10.7649
MAN	-10.7654
▁repeat	-10.7655
▁Shi	-10.7655
▁fift	-10.7661
▁Mil	-10.7663
▁Rose	-10.7666
▁drunk	-10.7668
fic	-10.7668
▁terror	-10.767
▁convict	-10.767
▁invent	-10.7672
▁Cinema	-10.7673
Ossessione	-10.7674
▁Beatty	-10.7674
▁Dolph	-10.7674
▁FREEDOM	-10.7674
▁Friday	-10.7674
▁Orleans	-10.7674
▁Point	-10.7674
▁Thailand	-10.7674
▁companion	-10.7674
▁crisis	-10.7674
▁cynical	-10.7674
▁eccentric	-10.7674
▁execution	-10.7674
▁gratuitous	-10.7674
▁happiness	-10.7674
▁imaginative	-10.7674
▁increasing	-10.7674
▁nowadays	-10.7674
▁obsessed	-10.7674
▁obtain	-10.7674
▁reputation	-10.7674
▁slapstick	-10.7674
▁substance	-10.7674
▁surface	-10.7674
▁sympathy	-10.7674
▁underground	-10.7674
▁Alexander	-10.7674
▁Beckinsale	-10.7674
▁Glenn	-10.7674
▁Polanski	-10.7674
▁Rachel	-10.7674
▁Streep	-10.7674
▁Tracy	-10.7674
▁countries	-10.7674
▁Cooper	-10.7674
▁Schmid	-10.7674
▁Scooby	-10.7674
▁deliberate	-10.7674
▁false	-10.7674
▁switch	-10.7674
▁position	-10.7674
▁ultra	-10.7674
▁Blood	-10.7674
▁Certainly	-10.7674
▁Fisher	-10.7674
▁Sissy	-10.7674
▁Power	-10.7674
▁irony	-10.7674
▁nasty	-10.7674
▁extent	-10.7674
▁trait	-10.7674
▁medical	-10.7674
▁haunted	-10.7674
▁daring	-10.7674
▁devote	-10.7674
▁exceed	-10.7674
▁cowboy	-10.7674
▁minimal	-10.7674
▁float	-10.7674
▁race	-10.7674
▁stopped	-10.7674
▁forgive	-10.7674
▁service	-10.7674
▁empty	-10.7674
Zorro	-10.7674
lection	-10.7674
▁football	-10.7674
▁failure	-10.7674
▁secur	-10.7674
▁criticism	-10.7674
▁Gere	-10.7674
▁assistant	-10.7674
▁Living	-10.7674
▁boast	-10.7675
▁roommate	-10.7675
escent	-10.7675
▁Catherine	-10.7675
▁Alison	-10.7675
▁native	-10.7675
▁Glover	-10.7675
▁Christian	-10.7675
▁tank	-10.7676
▁sale	-10.7676
▁subway	-10.7676
▁spiritual	-10.7676
▁reject	-10.7677
▁Lord	-10.7677
▁{	-10.7677
stood	-10.7677
▁MacMurray	-10.7677
▁sailor	-10.7677
▁Demon	-10.7678
▁blame	-10.7678
stein	-10.7678
▁suck	-10.7679
▁cities	-10.7679
Death	-10.7679
▁FOR	-10.7679
▁upset	-10.7679
▁madness	-10.768
▁secretary	-10.7682
▁Long	-10.7682
▁Tarzan	-10.7682
▁responsible	-10.7682
▁scratch	-10.7683
▁35	-10.7684
▁End	-10.7684
▁Lake	-10.7685
▁Edie	-10.7686
▁Direct	-10.7687
▁Scar	-10.7687
▁Baby	-10.7687
▁yell	-10.7688
▁sadness	-10.7688
▁Besides	-10.7688
▁Rick	-10.7689
▁adore	-10.7689
▁replaced	-10.769
river	-10.769
▁Law	-10.769
▁Zero	-10.769
retty	-10.7691
▁21	-10.7692
▁coach	-10.7693
▁Police	-10.7695
▁lust	-10.7697
▁Full	-10.7697
lways	-10.7697
▁climb	-10.7698
▁busy	-10.7699
▁exaggerated	-10.7699
▁table	-10.7703
▁Boyle	-10.7705
▁locked	-10.7707
▁comics	-10.7709
▁Carla	-10.7711
▁***	-10.7714
Al	-10.7716
▁stark	-10.7717
▁farce	-10.7718
▁lifetime	-10.7724
▁Sun	-10.7725
Jack	-10.7738
▁Hard	-10.774
▁pet	-10.7742
▁layer	-10.7743
▁Indians	-10.7744
▁closer	-10.7745
▁bound	-10.775
▁Guy	-10.7752
▁deeper	-10.7756
▁stated	-10.7758
▁swear	-10.7766
ashi	-10.777
▁gu	-10.7776
Mr	-10.7777
▁rolling	-10.778
▁fatal	-10.7783
▁sleeping	-10.779
▁catchy	-10.7792
Julia	-10.7794
script	-10.7801
▁Add	-10.7803
▁beside	-10.7812
▁god	-10.7825
▁lesser	-10.7832
▁methods	-10.7841
▁dancers	-10.7843
ski	-10.7844
▁bus	-10.7844
▁therefore	-10.7844
▁tri	-10.7873
bert	-10.7875
▁fu	-10.7876
▁thank	-10.7876
▁appearing	-10.7879
▁Any	-10.7883
▁stereotypes	-10.7885
read	-10.7887
▁Laura	-10.7893
▁explained	-10.7897
▁Din	-10.7898
▁Mario	-10.7916
▁pen	-10.7916
▁gal	-10.7936
going	-10.7943
▁flashbacks	-10.7944
▁stone	-10.7959
▁ranks	-10.797
▁Sta	-10.7975
▁heck	-10.7989
▁occurs	-10.7997
▁Chi	-10.8014
TH	-10.804
▁primar	-10.8064
jar	-10.8069
▁prim	-10.8077
▁fail	-10.8092
▁rules	-10.8098
rian	-10.8099
liners	-10.8105
hop	-10.8112
▁believed	-10.8114
▁Ron	-10.8149
▁stunt	-10.8195
▁pe	-10.8201
▁Your	-10.8201
ban	-10.8203
▁costume	-10.8203
▁expressions	-10.8209
▁Andrew	-10.8215
▁function	-10.8233
▁rank	-10.8233
▁hole	-10.8239
mos	-10.8249
▁Lin	-10.8256
▁Hall	-10.8259
▁rec	-10.8271
nson	-10.8272
▁Gr	-10.8321
▁Nor	-10.8325
▁Wal	-10.8329
▁Son	-10.8365
▁Carl	-10.8399
▁Grand	-10.8406
▁forest	-10.8409
▁intent	-10.8411
vid	-10.8413
ease	-10.8413
place	-10.8415
Holes	-10.8433
provoking	-10.8435
Great	-10.8437
moral	-10.8443
bound	-10.845
kill	-10.8457
▁accidental	-10.8471
▁mob	-10.8483
▁ignore	-10.8491
▁pin	-10.8494
▁betray	-10.8495
▁progress	-10.8497
▁possess	-10.8502
▁manipulat	-10.8502
▁assassin	-10.8503
▁interpret	-10.8504
Q	-10.8504
▁psycho	-10.8505
▁contest	-10.8505
▁Nichol	-10.8506
inspire	-10.8507
▁1996	-10.8507
▁befriend	-10.8507
▁environment	-10.8507
▁Alicia	-10.8507
▁Beautiful	-10.8507
▁Beckham	-10.8507
▁Berlin	-10.8507
▁Chaplin	-10.8507
▁Davies	-10.8507
▁Dominic	-10.8507
▁Europa	-10.8507
▁Frontier	-10.8507
▁Gabriel	-10.8507
▁Goldsworthy	-10.8507
▁Hawke	-10.8507
▁Lloyd	-10.8507
▁Lugosi	-10.8507
▁Nelson	-10.8507
▁Potter	-10.8507
▁Soprano	-10.8507
▁Venom	-10.8507
▁advertis	-10.8507
▁beneath	-10.8507
▁brilliance	-10.8507
▁collaps	-10.8507
▁contribute	-10.8507
▁contribution	-10.8507
▁disagree	-10.8507
▁elaborate	-10.8507
▁embrace	-10.8507
▁executed	-10.8507
▁expensive	-10.8507
▁fragile	-10.8507
▁ludicrous	-10.8507
▁magazine	-10.8507
▁mysteries	-10.8507
▁orchestra	-10.8507
▁principal	-10.8507
▁prostitute	-10.8507
▁relevant	-10.8507
▁soccer	-10.8507
▁terribly	-10.8507
▁tribute	-10.8507
▁truck	-10.8507
▁wealthy	-10.8507
▁Castle	-10.8507
▁Dentist	-10.8507
▁Fiction	-10.8507
▁Oberon	-10.8507
▁Walker	-10.8507
▁border	-10.8507
▁frightening	-10.8507
▁heavily	-10.8507
▁Emory	-10.8507
▁excited	-10.8507
▁Iturbi	-10.8507
▁bonus	-10.8507
▁backdrop	-10.8507
▁variety	-10.8507
▁CGI	-10.8507
▁dedicat	-10.8507
▁medium	-10.8507
▁Lukas	-10.8507
phrase	-10.8507
▁Falk	-10.8507
▁library	-10.8507
▁Quaid	-10.8507
▁harm	-10.8507
▁Tomei	-10.8507
▁amateur	-10.8507
▁riot	-10.8507
Follow	-10.8507
▁steel	-10.8507
▁Altman	-10.8507
▁stereotypical	-10.8507
▁Sept	-10.8507
▁Series	-10.8507
▁calm	-10.8507
▁triumph	-10.8507
▁idiot	-10.8507
▁Quinn	-10.8507
▁adapted	-10.8507
▁emerge	-10.8507
▁grandmother	-10.8507
▁Definitely	-10.8507
▁Garfield	-10.8507
▁dubbing	-10.8507
▁chief	-10.8507
▁internet	-10.8507
▁suburb	-10.8508
▁trap	-10.8508
▁finger	-10.8508
▁health	-10.8508
▁eager	-10.8508
▁drumm	-10.8508
▁rain	-10.8508
▁boot	-10.8508
▁servant	-10.8508
▁excessive	-10.8508
▁flea	-10.8509
ergeant	-10.8509
▁Year	-10.8509
▁fool	-10.8509
▁Stanley	-10.8509
▁paper	-10.8509
▁flash	-10.851
▁mutual	-10.851
Tom	-10.851
▁cutting	-10.851
▁snow	-10.851
▁slim	-10.8511
drum	-10.8511
▁comedian	-10.8511
▁showcase	-10.8511
▁mill	-10.8512
▁invention	-10.8512
▁Worth	-10.8512
▁editor	-10.8512
▁unbelievable	-10.8512
isha	-10.8513
▁oil	-10.8513
rguably	-10.8514
▁45	-10.8514
▁circle	-10.8514
▁13	-10.8515
▁Four	-10.8515
▁survival	-10.8516
▁trio	-10.8516
▁Chance	-10.8516
▁Nevertheless	-10.8517
▁absorb	-10.8517
▁Willis	-10.8518
▁charismatic	-10.8518
▁vast	-10.8518
▁copies	-10.8519
▁winter	-10.852
▁Princess	-10.852
▁Out	-10.8521
▁Kline	-10.8522
▁Island	-10.8524
▁dull	-10.8524
▁settled	-10.8527
▁vampir	-10.8528
▁Writer	-10.8529
uffalo	-10.8531
▁presentation	-10.8532
▁carefully	-10.8534
▁Return	-10.8535
▁letter	-10.8537
▁useful	-10.8537
▁Hardy	-10.8538
▁abandoned	-10.8539
▁Last	-10.8541
▁nonsense	-10.8542
▁Come	-10.8544
▁achieved	-10.8546
aire	-10.8547
▁required	-10.8547
▁Meanwhile	-10.8548
▁Brazil	-10.8554
▁Blue	-10.8555
▁delivery	-10.8557
▁mistaken	-10.8559
▁reel	-10.8563
▁doom	-10.8563
▁limited	-10.8565
▁factory	-10.8567
▁Dad	-10.8568
▁shy	-10.8569
▁entertained	-10.857
▁pity	-10.8573
bear	-10.8574
wearing	-10.8575
▁ease	-10.8576
▁dollars	-10.8577
lon	-10.8579
▁provoking	-10.858
▁Really	-10.8582
yard	-10.8583
▁~	-10.8586
▁screaming	-10.8589
▁string	-10.8598
▁surrounding	-10.8599
▁beast	-10.86
▁hamm	-10.8605
fest	-10.8611
▁butler	-10.8612
▁park	-10.8615
▁performed	-10.8624
▁press	-10.8627
▁Jan	-10.8629
wan	-10.863
▁twisted	-10.8638
▁Penn	-10.8642
Broke	-10.8643
albe	-10.8644
owed	-10.8646
▁Plus	-10.8649
▁Jam	-10.8651
▁promot	-10.8656
▁conventional	-10.8659
▁directly	-10.8661
law	-10.8667
▁passing	-10.8669
▁disco	-10.8687
▁dies	-10.8696
▁Rea	-10.8711
▁gags	-10.8718
▁instant	-10.8726
▁East	-10.8735
▁worker	-10.8736
▁centre	-10.8737
▁learned	-10.8738
▁returned	-10.875
98	-10.8754
▁Jay	-10.8769
▁Fr	-10.8775
▁Part	-10.8776
▁prob	-10.8776
▁Fre	-10.8777
tale	-10.8785
▁Was	-10.8788
▁ice	-10.8793
▁aged	-10.8794
Such	-10.8797
▁landscapes	-10.8803
▁guts	-10.8804
ient	-10.8808
tell	-10.8816
disc	-10.882
▁faced	-10.8821
▁ca	-10.8821
Un	-10.8829
▁pai	-10.8842
lash	-10.8842
▁va	-10.8842
▁suitabl	-10.8845
▁comfort	-10.8885
▁Had	-10.8897
▁Del	-10.891
▁unfolds	-10.8917
▁Mel	-10.8929
ji	-10.8934
▁caring	-10.8946
▁tap	-10.8948
▁Que	-10.8965
▁Bon	-10.8972
cepti	-10.8973
▁teens	-10.8976
letting	-10.8983
▁comical	-10.8998
Oh	-10.9002
een	-10.9011
lley	-10.9024
▁individuals	-10.9033
▁counts	-10.9035
bbing	-10.9041
▁Yo	-10.9052
▁succeed	-10.9053
▁Fur	-10.9054
▁dimension	-10.906
▁reviewers	-10.9077
▁landscape	-10.9103
▁sun	-10.9103
▁flashback	-10.9104
▁protagonist	-10.9105
▁highlights	-10.9109
Red	-10.9115
▁month	-10.912
kar	-10.912
▁cla	-10.9126
▁shar	-10.913
under	-10.9142
By	-10.9145
▁mistakes	-10.9152
shed	-10.9154
abo	-10.9158
▁Wor	-10.9165
▁spoiler	-10.9168
▁Have	-10.9172
▁Tan	-10.9174
▁gut	-10.9177
▁shad	-10.9178
▁robot	-10.9178
▁Fra	-10.9206
▁Dam	-10.9209
▁decisions	-10.921
gent	-10.9216
stars	-10.9217
▁Walt	-10.9225
▁Sant	-10.9252
bot	-10.9266
▁HA	-10.9273
▁logic	-10.9275
iz	-10.9278
spiring	-10.9293
▁spr	-10.9295
▁sto	-10.9303
face	-10.9317
▁scar	-10.9319
self	-10.9328
fee	-10.9341
comfortable	-10.9343
while	-10.9344
Lewis	-10.9345
House	-10.9345
Desp	-10.9346
fall	-10.9349
▁Marc	-10.9353
Even	-10.9356
Still	-10.9363
▁impress	-10.9363
▁dec	-10.9363
Well	-10.9364
TV	-10.9365
▁pack	-10.9365
▁squa	-10.9374
▁rape	-10.9378
▁Kill	-10.9379
live	-10.9386
▁Brand	-10.9389
mother	-10.939
▁necessar	-10.9391
▁DO	-10.9392
▁Barr	-10.9396
▁Whe	-10.9408
▁Ever	-10.941
fire	-10.9412
▁Franco	-10.9412
ject	-10.9413
▁multipl	-10.9414
ecret	-10.9414
aptain	-10.9414
▁detract	-10.9416
▁observ	-10.9416
▁narration	-10.9416
▁Miike	-10.9416
▁jewel	-10.9416
▁nervous	-10.9416
Psycho	-10.9416
Titanic	-10.9416
▁Century	-10.9416
▁Giallo	-10.9416
▁Hamlet	-10.9416
▁Lamarr	-10.9416
▁Marjorie	-10.9416
▁Nancy	-10.9416
▁Nicole	-10.9416
▁Wonderful	-10.9416
▁acclaim	-10.9416
▁category	-10.9416
▁controversial	-10.9416
▁corpse	-10.9416
▁delicious	-10.9416
▁description	-10.9416
▁distinct	-10.9416
▁eagle	-10.9416
▁electric	-10.9416
▁energetic	-10.9416
▁energy	-10.9416
▁exchange	-10.9416
▁exercise	-10.9416
▁gloom	-10.9416
▁hysterical	-10.9416
▁impersonat	-10.9416
▁instinct	-10.9416
▁jungle	-10.9416
▁knife	-10.9416
▁mesmerizing	-10.9416
▁obscure	-10.9416
▁optimis	-10.9416
▁practice	-10.9416
▁quirky	-10.9416
▁redemption	-10.9416
▁relax	-10.9416
▁responsibility	-10.9416
▁restaurant	-10.9416
▁riveting	-10.9416
▁sensual	-10.9416
▁sleazy	-10.9416
▁stomach	-10.9416
▁structure	-10.9416
▁struggling	-10.9416
▁thirty	-10.9416
▁undoubtedly	-10.9416
▁vulnerable	-10.9416
▁Hopper	-10.9416
▁Laurel	-10.9416
▁Murder	-10.9416
▁Reeves	-10.9416
▁Spock	-10.9416
▁cliche	-10.9416
▁client	-10.9416
▁combat	-10.9416
▁dentist	-10.9416
▁education	-10.9416
▁poetic	-10.9416
▁whatsoever	-10.9416
▁Sarno	-10.9416
▁casual	-10.9416
▁ironic	-10.9416
▁AIDS	-10.9416
▁Edith	-10.9416
▁Space	-10.9416
▁aftermath	-10.9416
▁fortune	-10.9416
▁Martian	-10.9416
▁Anime	-10.9416
▁Could	-10.9416
▁Satur	-10.9416
enzel	-10.9416
▁creation	-10.9416
▁faint	-10.9416
▁status	-10.9416
▁steam	-10.9416
▁daily	-10.9416
▁eleven	-10.9416
▁portion	-10.9416
▁Actually	-10.9416
▁Brenda	-10.9416
▁Heaton	-10.9416
▁heaven	-10.9416
▁entry	-10.9416
▁Bernard	-10.9416
▁claustrophobic	-10.9416
▁cried	-10.9416
Kenneth	-10.9416
▁Palace	-10.9416
▁spread	-10.9416
▁Clint	-10.9417
▁Francisco	-10.9417
▁Goldberg	-10.9417
▁journalist	-10.9417
▁spark	-10.9417
▁thankfully	-10.9417
▁Bloom	-10.9417
▁pretend	-10.9417
▁tele	-10.9417
▁keen	-10.9417
▁tongue	-10.9417
▁Terry	-10.9417
▁flair	-10.9417
▁afterwards	-10.9417
▁competition	-10.9417
▁tree	-10.9417
▁collaboration	-10.9417
▁argument	-10.9417
▁Science	-10.9417
▁disease	-10.9417
▁lift	-10.9417
▁judgment	-10.9417
▁Grey	-10.9418
▁Doctor	-10.9418
▁Comedy	-10.9418
▁stiff	-10.9418
▁investigation	-10.9418
▁liking	-10.9418
▁render	-10.9418
▁Prison	-10.9418
▁controlled	-10.9419
▁Christine	-10.9419
▁saving	-10.9419
▁disappointment	-10.9419
▁June	-10.9419
▁flawless	-10.9419
▁menace	-10.942
▁unrealistic	-10.942
▁anybody	-10.942
▁eighties	-10.942
▁objective	-10.942
▁applaud	-10.942
▁lend	-10.9421
▁fix	-10.9421
▁shout	-10.9421
▁Rather	-10.9422
▁SEA	-10.9422
▁artwork	-10.9422
▁Marty	-10.9422
▁buil	-10.9423
▁III	-10.9423
▁react	-10.9423
▁Latin	-10.9423
▁Right	-10.9423
▁everywhere	-10.9424
▁Cox	-10.9425
▁bag	-10.9426
▁farmer	-10.9426
▁lovabl	-10.9426
▁preach	-10.9426
▁Hanzo	-10.9427
▁Brilliant	-10.9427
▁Harriet	-10.9427
▁Connor	-10.9427
▁translate	-10.9427
▁spooky	-10.9427
▁24	-10.9428
ajor	-10.9429
▁imitat	-10.9429
▁selfish	-10.9429
▁package	-10.9429
▁frankly	-10.9429
▁determined	-10.9432
▁Fan	-10.9433
▁attracted	-10.9433
▁Lindsay	-10.9433
▁Would	-10.9433
▁Consider	-10.9434
▁bodies	-10.9435
▁adopt	-10.9435
▁Child	-10.9436
▁thin	-10.9436
▁Rings	-10.9437
▁witnesses	-10.944
▁Charlotte	-10.944
actic	-10.9441
▁Wind	-10.9441
▁lip	-10.9441
▁Anyone	-10.9442
▁Song	-10.9444
gged	-10.9444
▁atmospheric	-10.9449
▁enjoyment	-10.945
▁disturbed	-10.9451
▁edited	-10.9453
▁surfer	-10.9459
▁Dean	-10.9464
▁Asian	-10.9464
▁stress	-10.9465
▁prepared	-10.9466
▁Louise	-10.9467
igi	-10.9468
▁Pre	-10.9468
struck	-10.9468
▁meaningful	-10.9469
▁spy	-10.9471
▁essentially	-10.9472
▁investigate	-10.9473
▁Jona	-10.948
▁SW	-10.948
Don	-10.948
▁bone	-10.948
▁Fay	-10.9481
ular	-10.9483
esque	-10.9483
▁sna	-10.9484
▁mar	-10.9487
proving	-10.9489
▁shoes	-10.95
▁comfortable	-10.9501
▁Real	-10.9504
▁upper	-10.9513
▁sin	-10.9514
▁endure	-10.9516
▁soap	-10.9518
▁fur	-10.9525
▁cheat	-10.9526
▁hom	-10.953
EVER	-10.9536
▁Cat	-10.9537
01	-10.9538
▁north	-10.9539
▁makeup	-10.954
▁referr	-10.9546
▁lur	-10.9547
▁talkie	-10.9553
▁field	-10.9553
Can	-10.9558
raham	-10.9565
urg	-10.9581
▁solo	-10.9582
▁crying	-10.9595
org	-10.9606
▁detailed	-10.9619
▁seeking	-10.962
PS	-10.9621
▁List	-10.9629
▁typically	-10.9631
▁row	-10.9634
characterization	-10.9635
▁ba	-10.9642
▁hu	-10.9649
ager	-10.9661
▁nu	-10.9663
▁mock	-10.9665
▁web	-10.9667
▁Runn	-10.9671
isk	-10.9677
▁warn	-10.9683
▁demands	-10.9686
▁size	-10.9687
▁Gi	-10.9689
▁Cha	-10.9703
▁encounters	-10.971
▁Ku	-10.971
▁Ste	-10.971
ntin	-10.9711
▁grade	-10.9712
main	-10.9726
▁boxing	-10.9727
aged	-10.9735
▁Ry	-10.9737
leton	-10.9742
▁west	-10.9742
pul	-10.9742
▁aired	-10.975
▁ought	-10.9751
▁spoilers	-10.9753
▁harder	-10.9756
ister	-10.9758
▁flu	-10.976
▁Elm	-10.9776
rding	-10.9799
▁lacking	-10.9807
semi	-10.9813
▁scares	-10.9815
cycle	-10.982
▁exc	-10.9853
▁SA	-10.9856
▁hints	-10.9868
Nina	-10.9871
▁Lot	-10.9881
.......	-10.9883
▁MAN	-10.9893
▁clan	-10.9893
ief	-10.9894
pan	-10.9895
▁hoped	-10.9905
robably	-10.9906
▁reache	-10.9907
was	-10.991
ldom	-10.9924
▁horses	-10.9932
▁producers	-10.9933
icious	-10.9935
bad	-10.9937
▁Pie	-10.9946
oni	-10.9957
lick	-10.997
▁gro	-10.9999
▁user	-11.0001
▁Top	-11.001
mmer	-11.0014
ike	-11.0016
▁identifi	-11.0038
▁AN	-11.0047
73	-11.0057
▁Lil	-11.0058
▁Sin	-11.0064
▁Hans	-11.0064
ement	-11.0077
▁Tap	-11.0098
▁encounter	-11.0101
zen	-11.0101
▁parent	-11.0118
▁occasion	-11.0134
zo	-11.0136
ellar	-11.0153
▁Tre	-11.0164
lienate	-11.0165
lair	-11.017
adi	-11.0184
▁mytholog	-11.0218
▁Make	-11.0221
Water	-11.0226
AM	-11.023
▁urge	-11.0237
ressed	-11.0242
raw	-11.0243
fan	-11.0243
done	-11.025
ames	-11.0253
▁sho	-11.0266
inal	-11.027
haw	-11.0273
▁refer	-11.0288
▁Way	-11.0298
look	-11.0303
▁disappoint	-11.0309
▁Lou	-11.0315
▁captur	-11.0335
▁historic	-11.0341
▁stumble	-11.0341
_	-11.0342
Look	-11.0344
▁owe	-11.0344
hero	-11.0345
Earth	-11.0345
First	-11.0346
book	-11.0346
sexual	-11.0346
from	-11.0347
power	-11.0348
plot	-11.0348
Watch	-11.035
His	-11.0353
watch	-11.0356
▁hook	-11.0357
illard	-11.0362
scor	-11.0366
noir	-11.0366
▁fat	-11.0368
▁chang	-11.0371
Bill	-11.0373
▁Mak	-11.0378
uzz	-11.0382
▁feat	-11.0384
▁split	-11.0384
▁nuance	-11.0386
▁hip	-11.0391
onica	-11.0399
miss	-11.0404
▁Pick	-11.0406
▁refus	-11.0408
UT	-11.041
▁frustrat	-11.0412
▁commun	-11.0412
ification	-11.0413
▁install	-11.0414
▁slave	-11.0415
▁photo	-11.0416
▁Amazon	-11.0416
▁hypno	-11.0416
Renaissance	-11.0416
wrenching	-11.0416
▁2004	-11.0416
▁Felix	-11.0416
▁HBO	-11.0416
▁McLaglen	-11.0416
▁Morbius	-11.0416
▁Seymour	-11.0416
▁Visconti	-11.0416
▁accompany	-11.0416
▁celebrity	-11.0416
▁composer	-11.0416
▁contemplat	-11.0416
▁curiosity	-11.0416
▁definitive	-11.0416
▁delicate	-11.0416
▁disguis	-11.0416
▁economic	-11.0416
▁evolve	-11.0416
▁explanation	-11.0416
▁exploration	-11.0416
▁glory	-11.0416
▁happily	-11.0416
▁holiday	-11.0416
▁immensely	-11.0416
▁jazz	-11.0416
▁loneliness	-11.0416
▁newspaper	-11.0416
▁pattern	-11.0416
▁peripher	-11.0416
▁phenomenon	-11.0416
▁principle	-11.0416
▁professor	-11.0416
▁rendition	-11.0416
▁rifle	-11.0416
▁sneak	-11.0416
▁suspend	-11.0416
▁/>9/10	-11.0416
▁1978	-11.0416
▁Bhandarkar	-11.0416
▁Carpenter	-11.0416
▁Chamberlain	-11.0416
▁Craven	-11.0416
▁Elizabeth	-11.0416
▁Farrah	-11.0416
▁Gielgud	-11.0416
▁Naudet	-11.0416
▁Pierce	-11.0416
▁Stanwyck	-11.0416
▁Vonnegut	-11.0416
▁choir	-11.0416
▁crook	-11.0416
▁gloss	-11.0416
▁gruesome	-11.0416
▁migrat	-11.0416
▁outrageous	-11.0416
▁piano	-11.0416
▁reluctant	-11.0416
▁scope	-11.0416
▁solution	-11.0416
▁debate	-11.0416
▁universal	-11.0416
▁Close	-11.0416
▁Cutter	-11.0416
▁disaster	-11.0416
▁REAL	-11.0416
▁buried	-11.0416
▁Lumet	-11.0416
▁dump	-11.0416
▁tackle	-11.0416
▁inherent	-11.0416
▁Dutch	-11.0416
#####	-11.0416
▁cinematographer	-11.0416
▁nostalgic	-11.0416
▁Arab	-11.0416
▁nonetheless	-11.0416
▁Aaron	-11.0416
▁Godfather	-11.0416
▁Eastwood	-11.0416
▁miles	-11.0416
▁trademark	-11.0416
▁conscience	-11.0416
▁importance	-11.0416
▁straightforward	-11.0416
▁litera	-11.0417
▁Chief	-11.0417
▁resident	-11.0417
▁superhero	-11.0417
▁wrap	-11.0417
▁9/10	-11.0417
▁smoke	-11.0417
▁poison	-11.0417
▁blank	-11.0417
▁2001	-11.0417
▁Timmy	-11.0417
▁Virginia	-11.0417
▁taught	-11.0417
▁Carmen	-11.0417
▁Diana	-11.0417
▁jaw	-11.0418
▁pacing	-11.0418
▁guide	-11.0418
▁staff	-11.0418
▁horrific	-11.0418
▁easier	-11.0418
▁tiny	-11.0419
▁thug	-11.0419
▁China	-11.0419
▁error	-11.0419
▁terrorist	-11.0419
idnight	-11.0419
▁Ward	-11.0419
▁passionate	-11.0419
▁glow	-11.0419
▁inventive	-11.042
▁Stevenson	-11.042
▁sky	-11.042
▁proof	-11.042
▁foul	-11.042
▁depart	-11.042
▁Larry	-11.042
▁quarter	-11.042
▁unfair	-11.042
▁assassination	-11.042
▁frustration	-11.042
▁wake	-11.0421
▁Calam	-11.0421
▁lush	-11.0421
▁plight	-11.0422
▁Burton	-11.0422
▁borrow	-11.0422
▁conductor	-11.0422
▁hopefully	-11.0423
▁countryside	-11.0424
▁Carter	-11.0424
▁acco	-11.0424
scale	-11.0424
▁Human	-11.0425
Sam	-11.0425
▁Kidman	-11.0426
▁sake	-11.0426
▁Wow	-11.0427
▁Donna	-11.0427
▁reflection	-11.0427
▁somebody	-11.0427
▁Hickock	-11.0428
▁significance	-11.0428
▁Kudos	-11.0428
▁Holmes	-11.0428
▁Rating	-11.0429
ville	-11.0429
▁Color	-11.0429
▁Sherry	-11.0429
▁invad	-11.0429
▁bang	-11.043
▁Timon	-11.043
▁rave	-11.043
▁betrayal	-11.0431
▁Roach	-11.0431
▁Enjoy	-11.0431
AST	-11.0431
▁disgusting	-11.0431
▁punches	-11.0434
▁Natalie	-11.0434
▁witch	-11.0434
▁statement	-11.0436
▁Bros	-11.0436
▁bold	-11.0436
▁standout	-11.0436
▁Saw	-11.0437
▁philosophical	-11.0437
▁Helen	-11.0438
▁Cain	-11.0438
chiev	-11.0438
▁uneven	-11.0438
▁Sox	-11.0441
▁Tess	-11.0441
▁Personally	-11.0443
▁outlaw	-11.0443
▁Sadly	-11.0443
▁assured	-11.0443
▁Linda	-11.0444
▁pole	-11.0445
aught	-11.0446
▁hopeless	-11.045
▁Nation	-11.0452
▁properly	-11.0452
▁address	-11.0452
▁USA	-11.0453
▁weight	-11.0455
▁bland	-11.0457
▁Dawn	-11.0459
▁Dance	-11.0459
▁creep	-11.046
▁invest	-11.046
▁flop	-11.0461
▁insist	-11.0465
▁Ko	-11.0465
▁Alex	-11.0465
▁vig	-11.0466
▁Pokemon	-11.0466
▁dry	-11.0468
▁Mere	-11.0471
▁Emil	-11.0472
▁jerk	-11.0474
▁recommendation	-11.0476
▁wa	-11.0481
itive	-11.0482
▁rear	-11.0486
▁Toni	-11.0487
elle	-11.0495
▁cab	-11.0496
▁Leonard	-11.0502
▁abusi	-11.0504
▁Up	-11.0509
64	-11.0511
▁Spy	-11.052
▁campy	-11.0521
▁trade	-11.0522
▁bombing	-11.0522
▁height	-11.0526
bow	-11.053
▁citizens	-11.0536
▁via	-11.0537
▁slipp	-11.054
acted	-11.0546
****	-11.0554
Gone	-11.0558
▁illustrat	-11.0558
▁dropp	-11.056
▁discovery	-11.0566
▁clues	-11.057
▁imagined	-11.0585
▁van	-11.0585
dom	-11.0593
▁pic	-11.0598
▁stronger	-11.0602
▁overlook	-11.0603
homo	-11.0603
▁explosions	-11.0604
rying	-11.0625
▁musicians	-11.0639
▁severe	-11.0639
▁drawing	-11.0645
▁timeless	-11.0649
▁Thing	-11.0652
▁stealing	-11.0676
▁performers	-11.0681
▁swim	-11.0702
▁commented	-11.0703
▁AL	-11.0742
love	-11.0744
lov	-11.0747
▁guessing	-11.0769
▁robots	-11.0775
ium	-11.0777
▁shine	-11.0778
eason	-11.0789
▁chew	-11.0794
elling	-11.0804
▁Pin	-11.0808
▁identif	-11.0812
▁Luis	-11.0814
scape	-11.0819
▁transform	-11.0824
▁Roa	-11.0833
▁Maria	-11.0836
50	-11.0852
hock	-11.0855
▁closely	-11.0859
▁king	-11.0861
▁bott	-11.087
RD	-11.0871
Bas	-11.0876
lma	-11.088
probably	-11.0884
▁Ten	-11.0894
▁bust	-11.0897
utting	-11.0912
▁wor	-11.0923
▁Jew	-11.0932
▁ob	-11.0934
90	-11.0944
▁arriv	-11.0946
new	-11.0948
▁demand	-11.0952
▁su	-11.0969
▁bump	-11.0971
▁Dar	-11.0995
▁Ned	-11.0995
▁challeng	-11.1
pot	-11.1001
EST	-11.1011
RU	-11.1012
▁conc	-11.1022
▁Ze	-11.1026
did	-11.1084
▁myth	-11.1098
▁rat	-11.1102
pless	-11.1132
▁MO	-11.1138
▁notch	-11.116
▁teach	-11.1178
▁Friend	-11.1215
▁Brother	-11.122
net	-11.1227
▁Char	-11.1228
unning	-11.1246
ado	-11.1248
OUR	-11.1251
▁State	-11.1269
lain	-11.1281
▁ep	-11.1296
▁bur	-11.1297
lmost	-11.1301
odd	-11.1302
▁aff	-11.1308
pparently	-11.1311
void	-11.132
30	-11.1333
▁lab	-11.1351
▁Pat	-11.1353
Cut	-11.1357
▁Pi	-11.1384
▁Matth	-11.1385
▁predict	-11.1392
Dr	-11.1399
▁!!!!!!!	-11.1416
▁photograph	-11.1421
era	-11.1425
breaking	-11.1453
length	-11.1455
foot	-11.1456
Lost	-11.1456
Where	-11.1456
mentioned	-11.1457
Good	-11.1457
personal	-11.1457
David	-11.1457
Richard	-11.1457
because	-11.1458
James	-11.1459
winning	-11.1459
▁satisfy	-11.1472
check	-11.1472
Big	-11.1473
How	-11.1474
▁bog	-11.1476
▁mild	-11.1486
▁proper	-11.1491
▁generate	-11.1501
▁trail	-11.1502
▁philosoph	-11.1503
▁craz	-11.1503
▁Jess	-11.1505
▁consistent	-11.1506
Doo	-11.1511
imit	-11.1514
▁inspiration	-11.1515
▁Burt	-11.1522
▁gentle	-11.1523
▁absurd	-11.1524
ential	-11.1524
▁destin	-11.1524
▁document	-11.1525
▁Virgin	-11.1526
▁inherit	-11.1526
ltimately	-11.1527
#	-11.1527
@	-11.1527
Hitokiri	-11.1527
▁announc	-11.1527
▁condemn	-11.1527
▁recognition	-11.1527
Scream	-11.1527
▁/>10/10	-11.1527
▁1960	-11.1527
▁1983	-11.1527
▁Beatles	-11.1527
▁Bridges	-11.1527
▁Broad	-11.1527
▁Brooklyn	-11.1527
▁Character	-11.1527
▁Dorothy	-11.1527
▁Fontaine	-11.1527
▁Hickok	-11.1527
▁Izzard	-11.1527
▁Kurosawa	-11.1527
▁Lawrence	-11.1527
▁Lennon	-11.1527
▁Marshall	-11.1527
▁Mildred	-11.1527
▁Miraglia	-11.1527
▁Myrtle	-11.1527
▁Paltrow	-11.1527
▁Pixar	-11.1527
▁Professor	-11.1527
▁Thompson	-11.1527
▁Yokai	-11.1527
▁adequate	-11.1527
▁ambiguous	-11.1527
▁astonishing	-11.1527
▁benefit	-11.1527
▁bridge	-11.1527
▁cerebral	-11.1527
▁coffee	-11.1527
▁coincidence	-11.1527
▁confirm	-11.1527
▁credibility	-11.1527
▁dazzling	-11.1527
▁disbelief	-11.1527
▁divorce	-11.1527
▁domestic	-11.1527
▁embarrass	-11.1527
▁espionage	-11.1527
▁fascinate	-11.1527
▁glorious	-11.1527
▁graduat	-11.1527
▁humiliat	-11.1527
▁hyper	-11.1527
▁jealous	-11.1527
▁ourselves	-11.1527
▁scheme	-11.1527
▁sibling	-11.1527
▁spoof	-11.1527
▁superficial	-11.1527
▁territory	-11.1527
▁unpleasant	-11.1527
Original	-11.1527
▁Abhay	-11.1527
▁Garbo	-11.1527
▁Hudson	-11.1527
▁Pearl	-11.1527
▁Sheriff	-11.1527
▁absence	-11.1527
▁filthy	-11.1527
▁household	-11.1527
▁mafia	-11.1527
▁samurai	-11.1527
▁sidekick	-11.1527
▁smiling	-11.1527
▁smoking	-11.1527
▁Cassel	-11.1527
▁Jesus	-11.1527
▁Kubrick	-11.1527
▁Nadia	-11.1527
▁Sandler	-11.1527
▁Vega	-11.1527
▁Watson	-11.1527
▁ambition	-11.1527
▁glued	-11.1527
▁sheriff	-11.1527
▁therapy	-11.1527
▁venture	-11.1527
▁wicked	-11.1527
▁wilderness	-11.1527
▁Custer	-11.1527
▁Spider	-11.1527
▁sweat	-11.1527
▁motive	-11.1527
▁website	-11.1527
▁Ritter	-11.1527
▁digital	-11.1527
▁firm	-11.1527
▁pervert	-11.1527
▁Dunst	-11.1527
▁ABC	-11.1527
▁Field	-11.1527
▁Omar	-11.1527
▁broadcast	-11.1527
▁dominate	-11.1527
Jacque	-11.1527
▁queen	-11.1527
▁inform	-11.1527
▁Sheila	-11.1527
▁trace	-11.1527
▁Salva	-11.1527
▁newcomer	-11.1527
Deliverance	-11.1527
▁civilization	-11.1527
▁afford	-11.1527
▁Casper	-11.1527
▁Loren	-11.1527
▁Strange	-11.1527
▁bathroom	-11.1527
▁improvement	-11.1527
▁storm	-11.1527
▁prejudice	-11.1527
▁Superhero	-11.1527
▁shallow	-11.1528
boiled	-11.1528
▁Kurt	-11.1528
▁Montana	-11.1528
▁proceedings	-11.1528
▁Technicolor	-11.1528
▁funeral	-11.1528
▁extend	-11.1528
▁Unborn	-11.1528
▁isolation	-11.1528
▁1990	-11.1528
▁roof	-11.1528
▁swing	-11.1528
▁incident	-11.1528
dmittedly	-11.1528
▁thread	-11.1528
▁Heights	-11.1528
adapt	-11.1528
▁Nobody	-11.1528
▁cash	-11.1528
▁facing	-11.1528
▁Deanna	-11.1528
▁lunch	-11.1528
▁ugly	-11.1528
▁outfit	-11.1528
▁decay	-11.1529
▁assault	-11.1529
ARK	-11.1529
▁Nathan	-11.1529
▁planned	-11.1529
IES	-11.1529
▁peak	-11.1529
▁angst	-11.1529
▁sixties	-11.1529
▁hoot	-11.1529
▁contend	-11.1529
▁Kiss	-11.1529
▁Muni	-11.1529
▁installment	-11.1529
▁Mind	-11.1529
▁merit	-11.153
▁Gosha	-11.153
▁Mira	-11.153
▁candle	-11.153
▁Alvin	-11.153
▁waitress	-11.153
▁Masterson	-11.1531
▁blast	-11.1531
▁nude	-11.1531
▁advise	-11.1532
▁ambiguity	-11.1532
▁intentional	-11.1532
/10	-11.1532
warrior	-11.1532
▁Graham	-11.1532
▁colorful	-11.1532
▁Norma	-11.1532
▁preced	-11.1533
otic	-11.1533
▁Zone	-11.1533
▁weaknesses	-11.1534
▁theatre	-11.1535
▁Burg	-11.1535
othy	-11.1535
▁flowers	-11.1536
▁divers	-11.1536
▁Hope	-11.1536
▁bath	-11.1536
▁Juan	-11.1537
▁Sub	-11.1537
dental	-11.1538
▁Thus	-11.1538
▁antics	-11.1538
▁pound	-11.1538
▁shootout	-11.1538
▁engineer	-11.1538
▁Cody	-11.1539
▁Tank	-11.1539
▁distan	-11.1539
▁inspirational	-11.1539
▁Abby	-11.154
▁Remember	-11.154
▁acknowledge	-11.154
▁Chavez	-11.154
▁Swedish	-11.154
▁kidnapped	-11.154
source	-11.1541
woman	-11.1541
▁biography	-11.1541
▁deem	-11.1542
▁glamorous	-11.1542
▁unreal	-11.1542
▁Never	-11.1542
▁Lane	-11.1543
▁Mother	-11.1543
▁arranged	-11.1544
▁forgettable	-11.1544
Play	-11.1546
▁Pig	-11.1546
▁prisoners	-11.1546
▁suggestion	-11.1546
▁Jap	-11.1547
▁lifestyle	-11.1547
▁heels	-11.1547
▁Jet	-11.1547
▁fantasi	-11.1548
▁Lang	-11.1548
▁joker	-11.1549
▁possibility	-11.1549
▁Amazing	-11.1549
▁Craig	-11.1549
▁Kansas	-11.1549
▁Legend	-11.1549
▁Recommended	-11.1549
▁exposure	-11.1549
▁masses	-11.1549
▁Bravo	-11.1549
▁active	-11.1551
▁torn	-11.1554
eyed	-11.1556
▁Phantom	-11.1558
▁None	-11.1559
▁pub	-11.1559
▁construct	-11.1561
▁Book	-11.1562
thful	-11.1563
▁Back	-11.1563
▁code	-11.1565
zzie	-11.1567
▁Caine	-11.1567
CK	-11.1567
▁char	-11.157
▁Apart	-11.157
▁mall	-11.1572
▁Case	-11.1572
▁Meg	-11.1575
▁Think	-11.1575
about	-11.1578
▁isolate	-11.1578
▁skip	-11.1579
▁cancel	-11.158
▁merc	-11.1581
vocative	-11.1582
rray	-11.1583
▁Bela	-11.1585
▁Roll	-11.1585
bald	-11.1587
▁prize	-11.1588
▁Brady	-11.159
▁Die	-11.159
▁understandable	-11.1592
▁Rosen	-11.1593
▁separated	-11.1597
▁Set	-11.1598
▁spring	-11.1598
▁Greene	-11.1599
▁fleshed	-11.1601
▁loser	-11.1602
▁classes	-11.1603
ée	-11.1605
▁lock	-11.1605
▁someday	-11.1613
▁Five	-11.1615
▁pour	-11.1616
▁initially	-11.1616
Joe	-11.1617
▁Ly	-11.1618
▁deni	-11.1619
▁moody	-11.1621
▁complaining	-11.1641
▁honesty	-11.1647
▁stereotype	-11.1656
▁lyrics	-11.1662
▁Frankly	-11.1674
potent	-11.1674
▁inspiring	-11.1681
▁union	-11.1684
▁Bay	-11.1686
▁carrying	-11.169
▁intensely	-11.1693
Pet	-11.1693
▁designed	-11.1699
▁Chang	-11.1709
▁Need	-11.1715
really	-11.1718
▁Joey	-11.172
▁dispos	-11.1732
War	-11.1747
▁Sw	-11.1754
▁prey	-11.1754
▁adv	-11.1755
cademy	-11.1762
▁/>***	-11.1779
▁cage	-11.1786
▁YOU	-11.1811
▁serv	-11.1813
▁teache	-11.1849
Ben	-11.186
▁core	-11.1865
ption	-11.1865
▁Mac	-11.1867
meter	-11.1867
Or	-11.1882
▁Gri	-11.1884
▁surviv	-11.1887
▁Rob	-11.1887
Hot	-11.1906
▁fighter	-11.193
bec	-11.1942
OST	-11.1958
▁tea	-11.1978
▁tower	-11.1993
▁symbolic	-11.1997
▁persona	-11.2004
ubb	-11.2015
▁shin	-11.2016
▁fog	-11.204
▁Reed	-11.2059
▁Gig	-11.2067
dley	-11.208
▁Kar	-11.2084
▁Dom	-11.2114
▁critic	-11.2124
ature	-11.2203
yne	-11.2221
▁lad	-11.2224
hard	-11.2225
stair	-11.2228
Oro	-11.2234
▁qual	-11.225
von	-11.2254
Rea	-11.2274
▁edit	-11.2298
depend	-11.2302
list	-11.2308
▁LA	-11.2318
ovie	-11.2323
▁Rap	-11.235
▁syn	-11.2364
▁exhibit	-11.2391
▁sm	-11.2436
▁demonstrat	-11.2469
▁incorporate	-11.247
natured	-11.2486
▁dep	-11.2505
▁performer	-11.251
graph	-11.2517
Chris	-11.252
▁ni	-11.252
etc	-11.2522
▁slo	-11.2524
ifies	-11.2544
▁gag	-11.2548
▁Pull	-11.2554
posit	-11.2563
▁Lar	-11.2568
AY	-11.2584
oko	-11.2591
▁dim	-11.2613
imo	-11.2645
▁lame	-11.265
▁disturb	-11.2673
▁TH	-11.2679
▁tro	-11.268
▁dra	-11.2692
present	-11.2704
count	-11.2704
Brazil	-11.2705
Blue	-11.2705
jerk	-11.2706
craft	-11.2706
Frank	-11.2707
`	-11.2707
water	-11.2707
perhaps	-11.2707
video	-11.2707
load	-11.2708
minute	-11.2708
guy	-11.2708
Robert	-11.2708
must	-11.271
born	-11.271
Movie	-11.271
Final	-11.2711
Like	-11.2711
word	-11.2715
free	-11.2722
cast	-11.2723
notch	-11.2726
▁abandon	-11.2728
▁arrest	-11.2728
Peter	-11.2741
▁dread	-11.2742
▁Dragon	-11.2745
▁enhance	-11.2746
faced	-11.2748
▁settle	-11.2748
▁Foot	-11.2749
▁Tak	-11.275
▁suspicio	-11.2751
▁choreograph	-11.2752
▁remarkabl	-11.2753
▁purchase	-11.2756
Here	-11.2762
Mary	-11.2765
vice	-11.2765
mbling	-11.2768
▁Mexic	-11.2769
▁conduct	-11.277
nternational	-11.277
▁threat	-11.2771
Steve	-11.2772
▁anticipat	-11.2772
▁communicat	-11.2773
Best	-11.2774
VERY	-11.2774
▁text	-11.2774
peaking	-11.2775
▁favour	-11.2775
▁loyal	-11.2776
▁charisma	-11.2776
welve	-11.2776
Manhattan	-11.2777
Robocop	-11.2777
andolph	-11.2777
▁Classic	-11.2777
▁Pfeiffer	-11.2777
▁drift	-11.2777
▁sketch	-11.2777
▁sleaze	-11.2777
]	-11.2777
conceived	-11.2777
ebecca	-11.2777
onvoluted	-11.2777
ortuguese	-11.2777
▁1945	-11.2777
▁1969	-11.2777
▁5/5	-11.2777
▁Attenborough	-11.2777
▁Bathsheba	-11.2777
▁Bergman	-11.2777
▁Blondell	-11.2777
▁Britain	-11.2777
▁Chicago	-11.2777
▁Cliff	-11.2777
▁Compare	-11.2777
▁Crazy	-11.2777
▁Curtiz	-11.2777
▁Depression	-11.2777
▁Experiment	-11.2777
▁Fortunately	-11.2777
▁Gretchen	-11.2777
▁IMDB	-11.2777
▁Illinois	-11.2777
▁Kennedy	-11.2777
▁Kinnear	-11.2777
▁Lombard	-11.2777
▁Maureen	-11.2777
▁McIntyre	-11.2777
▁McPhillip	-11.2777
▁Obviously	-11.2777
▁Pacific	-11.2777
▁President	-11.2777
▁Sniper	-11.2777
▁Stuart	-11.2777
▁Sunshine	-11.2777
▁Thurman	-11.2777
▁WITH	-11.2777
▁adventurous	-11.2777
▁assignment	-11.2777
▁cheese	-11.2777
▁cliff	-11.2777
▁controversy	-11.2777
▁devastating	-11.2777
▁elegant	-11.2777
▁emphasis	-11.2777
▁engrossing	-11.2777
▁exploring	-11.2777
▁fiancé	-11.2777
▁flavor	-11.2777
▁gradually	-11.2777
▁ingredient	-11.2777
▁parallel	-11.2777
▁phenomenal	-11.2777
▁playwright	-11.2777
▁pleasing	-11.2777
▁poetry	-11.2777
▁population	-11.2777
▁pretentious	-11.2777
▁proportion	-11.2777
▁request	-11.2777
▁resolution	-11.2777
▁robbery	-11.2777
▁sensibility	-11.2777
▁sensible	-11.2777
▁stimulat	-11.2777
▁temporary	-11.2777
▁thumb	-11.2777
▁translation	-11.2777
▁unaware	-11.2777
closure	-11.2777
idewalk	-11.2777
▁/>7/10	-11.2777
▁1/2	-11.2777
▁Aussie	-11.2777
▁Club	-11.2777
▁Erika	-11.2777
▁Machine	-11.2777
▁Massey	-11.2777
▁McQueen	-11.2777
▁Rukh	-11.2777
▁Scarlett	-11.2777
▁Vienna	-11.2777
▁alternate	-11.2777
▁clerk	-11.2777
▁credible	-11.2777
▁empathy	-11.2777
▁french	-11.2777
▁ingenious	-11.2777
▁prominent	-11.2777
▁relentless	-11.2777
▁satisfact	-11.2777
▁understated	-11.2777
▁Channel	-11.2777
▁Rowlands	-11.2777
▁Skip	-11.2777
▁Wedding	-11.2777
▁conquer	-11.2777
▁dinner	-11.2777
▁measure	-11.2777
▁savage	-11.2777
▁wacky	-11.2777
▁Hunter	-11.2777
▁chaos	-11.2777
▁Amanda	-11.2777
▁volume	-11.2777
▁193	-11.2777
▁Crouse	-11.2777
▁Culp	-11.2777
▁Hyde	-11.2777
▁Shinae	-11.2777
▁expand	-11.2777
▁conscious	-11.2777
▁warrant	-11.2777
▁Bauer	-11.2777
▁victor	-11.2777
▁Horse	-11.2777
Elvira	-11.2777
▁consum	-11.2777
▁funnier	-11.2777
Shaggy	-11.2777
▁audio	-11.2777
▁sweep	-11.2777
racial	-11.2777
▁banter	-11.2777
▁behold	-11.2777
▁Mamet	-11.2777
▁mannerisms	-11.2777
▁Center	-11.2777
▁estate	-11.2777
nivers	-11.2777
▁bucks	-11.2777
▁propos	-11.2777
Paxton	-11.2777
▁pipe	-11.2777
▁grandfather	-11.2777
▁resolv	-11.2777
▁CIA	-11.2777
▁BEAST	-11.2777
▁foremost	-11.2777
▁MORE	-11.2777
▁abrupt	-11.2777
▁kiss	-11.2778
Rosemary	-11.2778
▁Truly	-11.2778
▁resonate	-11.2778
▁Fried	-11.2778
▁enigmatic	-11.2778
▁supernatural	-11.2778
▁Acting	-11.2778
▁Payne	-11.2778
▁ashamed	-11.2778
▁furious	-11.2778
Kazan	-11.2778
▁employee	-11.2778
Break	-11.2778
▁occurred	-11.2778
▁tourist	-11.2778
▁Hugh	-11.2778
▁Riget	-11.2778
▁adjust	-11.2778
▁bedroom	-11.2778
▁underworld	-11.2778
▁Garden	-11.2778
▁birthday	-11.2778
▁Tide	-11.2778
▁assort	-11.2778
Natural	-11.2778
▁libert	-11.2778
▁1920	-11.2779
▁Triad	-11.2779
▁outcome	-11.2779
▁Animation	-11.2779
▁Barne	-11.2779
Creep	-11.2779
▁polar	-11.2779
▁unsettling	-11.2779
▁Turner	-11.2779
▁preview	-11.2779
▁Harlow	-11.278
▁NYC	-11.278
▁firemen	-11.278
▁fitting	-11.278
▁fox	-11.278
▁forgot	-11.278
▁Cheung	-11.278
▁Robot	-11.278
shot	-11.278
▁Syd	-11.278
▁basement	-11.278
▁sanit	-11.2781
▁EVERY	-11.2781
▁sentence	-11.2781
▁corruption	-11.2781
▁bash	-11.2781
tube	-11.2781
▁afore	-11.2781
▁grey	-11.2782
▁Candy	-11.2782
▁ethic	-11.2782
▁neck	-11.2782
▁smell	-11.2783
▁wipe	-11.2783
▁reviv	-11.2783
ourney	-11.2783
▁2000	-11.2783
▁Nice	-11.2783
▁tax	-11.2783
▁clash	-11.2783
▁priceless	-11.2784
▁countless	-11.2784
▁recreat	-11.2784
▁Fair	-11.2784
maniac	-11.2785
▁mansion	-11.2785
▁march	-11.2785
▁representation	-11.2785
▁survivor	-11.2785
▁lake	-11.2786
▁remade	-11.2787
away	-11.2787
Sweet	-11.2787
▁reduced	-11.2787
▁Dog	-11.2788
▁authenticity	-11.2788
also	-11.2788
▁mystic	-11.2788
▁lean	-11.2789
▁atroci	-11.2789
▁formulaic	-11.2789
▁Simm	-11.279
▁Thin	-11.279
▁nerd	-11.2791
▁Grace	-11.2791
▁hack	-11.2792
▁Duff	-11.2792
Griffi	-11.2792
Enter	-11.2793
▁difficulties	-11.2793
▁effortless	-11.2794
▁morality	-11.2794
▁sink	-11.2795
▁Bates	-11.2795
▁Over	-11.2795
▁involvement	-11.2796
▁aggressive	-11.2796
▁hooker	-11.2798
▁versa	-11.2798
▁sold	-11.2798
▁aunt	-11.28
▁businessman	-11.28
OSE	-11.2801
▁wire	-11.2802
▁Bazza	-11.2802
▁sexuality	-11.2803
ault	-11.2803
▁shake	-11.2803
▁suspicion	-11.2803
▁Yeti	-11.2804
▁intend	-11.2805
▁Spring	-11.2806
alentine	-11.2806
▁amuse	-11.2807
▁bore	-11.2807
▁coolest	-11.2808
▁Oz	-11.2809
▁national	-11.2809
▁DA	-11.281
▁fade	-11.2811
▁Superman	-11.2811
▁relie	-11.2811
▁delve	-11.2811
▁policeman	-11.2812
▁interrupted	-11.2814
▁Final	-11.2815
ookie	-11.2817
▁MacC	-11.2817
▁Bake	-11.2817
▁rental	-11.2818
▁Yellow	-11.2822
▁dub	-11.2823
▁Lose	-11.2824
▁duo	-11.2825
▁Coen	-11.2827
▁vol	-11.2828
▁redeeming	-11.2828
Pickford	-11.2828
▁Earl	-11.2829
▁pointless	-11.284
▁Lead	-11.2841
▁Boyer	-11.2843
wept	-11.2844
▁larger	-11.2847
▁ignored	-11.2848
▁expertly	-11.2851
▁Killer	-11.2851
▁Away	-11.286
naval	-11.2865
▁22	-11.2865
▁altered	-11.2867
▁wishes	-11.2869
▁influenced	-11.287
▁deriv	-11.287
▁Buy	-11.287
▁_	-11.2872
▁nut	-11.2872
▁parties	-11.2873
▁armed	-11.2874
stern	-11.2876
▁originality	-11.2877
▁Welles	-11.2878
▁technically	-11.2878
▁Victorian	-11.2879
▁Looking	-11.2882
▁Cold	-11.2892
▁packed	-11.2893
▁Made	-11.2894
▁Kay	-11.2894
▁lawn	-11.2895
▁crafted	-11.2902
eryl	-11.2904
▁net	-11.2907
▁alas	-11.2907
▁Shin	-11.2911
anne	-11.2912
▁equal	-11.2913
▁Cli	-11.2914
▁Bad	-11.2916
▁fired	-11.2917
▁Gen	-11.292
▁crashing	-11.2921
▁Qui	-11.2927
▁Holes	-11.2927
▁unexpectedly	-11.2928
two	-11.293
▁Juliet	-11.2931
▁thrilled	-11.2936
▁shoulders	-11.2938
▁rented	-11.2943
mination	-11.2949
▁hood	-11.2951
▁entered	-11.297
▁forties	-11.2972
▁Pit	-11.2975
▁recorded	-11.2977
elled	-11.2977
▁logical	-11.2978
▁staged	-11.2987
▁escaped	-11.2994
pulse	-11.2994
trol	-11.2995
▁Shot	-11.2995
▁heap	-11.3004
▁Swa	-11.301
▁suggested	-11.3017
▁traveling	-11.3018
▁matched	-11.3027
▁Roy	-11.3038
Place	-11.3041
worker	-11.3044
jury	-11.3044
▁Give	-11.3047
gene	-11.3047
88	-11.3061
▁Bis	-11.3066
rasse	-11.3067
cracking	-11.3067
▁experienced	-11.309
▁caus	-11.3098
▁Patt	-11.3109
rban	-11.3112
▁meat	-11.3123
▁fly	-11.3132
▁Nak	-11.3146
itle	-11.315
infield	-11.3161
▁wing	-11.3161
aud	-11.3174
big	-11.3183
▁scan	-11.3196
itions	-11.3205
lia	-11.3213
goers	-11.3248
▁clim	-11.3252
▁penn	-11.3267
▁Chil	-11.3321
tag	-11.3325
venge	-11.3379
***	-11.3394
▁Reve	-11.3485
▁Jewis	-11.3507
itting	-11.3523
Tru	-11.3546
iar	-11.3547
▁cav	-11.355
blin	-11.3554
ranch	-11.3559
Scr	-11.3587
cli	-11.3606
▁pose	-11.3622
ggie	-11.3657
▁cave	-11.366
▁fed	-11.3663
▁Ride	-11.3678
ondo	-11.3689
ipped	-11.3701
▁Universit	-11.3722
IVE	-11.3726
oreover	-11.3727
evil	-11.3754
▁argue	-11.3768
Honestly	-11.377
assi	-11.3781
▁quit	-11.38
Gina	-11.3802
▁sensation	-11.3863
▁method	-11.3893
keeping	-11.3899
ripping	-11.3916
▁brav	-11.3918
heck	-11.3923
▁escap	-11.3933
▁musician	-11.3951
ecil	-11.3963
▁dancer	-11.397
▁span	-11.397
▁replace	-11.398
Mandy	-11.4
▁neo	-11.4022
warming	-11.4029
cier	-11.4032
▁Alas	-11.4038
ocket	-11.4049
titles	-11.4062
bits	-11.4064
▁transfer	-11.4076
direct	-11.4078
▁surf	-11.4081
corporate	-11.4082
grass	-11.4107
▁participate	-11.4122
▁Blo	-11.4129
▁decid	-11.4131
cies	-11.4132
funny	-11.4133
Pokemon	-11.4133
master	-11.4133
Meanwhile	-11.4133
guard	-11.4134
Excellent	-11.4134
Please	-11.4134
8/10	-11.4134
Hitler	-11.4135
opened	-11.4135
natural	-11.4135
amount	-11.4135
piece	-11.4135
drawn	-11.4135
normal	-11.4135
Stewart	-11.4136
box	-11.4136
famous	-11.4136
Most	-11.4136
maybe	-11.4136
horror	-11.4136
when	-11.4136
dead	-11.4137
step	-11.4143
Young	-11.4144
ustin	-11.4145
22	-11.4146
based	-11.4146
▁redeem	-11.4148
hang	-11.4152
cum	-11.4154
earth	-11.416
Highly	-11.4163
loved	-11.4168
Tim	-11.4169
▁guarantee	-11.4174
▁conclude	-11.4174
▁marrie	-11.4177
▁profession	-11.4178
▁Natali	-11.418
▁horribl	-11.4181
Miche	-11.4182
directed	-11.4187
▁ph	-11.4188
hour	-11.4189
itude	-11.4191
▁sentiment	-11.4194
▁supp	-11.4194
▁differ	-11.4195
▁mode	-11.4196
▁careful	-11.4199
▁Hind	-11.4201
▁corrupt	-11.4201
▁revel	-11.4203
▁marvel	-11.4203
itizen	-11.4204
▁Through	-11.4204
▁Count	-11.4204
eyond	-11.4204
elevision	-11.4205
▁broad	-11.4206
>	-11.4206
Girlfriend	-11.4206
Lansbury	-11.4206
Special	-11.4206
distinguish	-11.4206
narrator	-11.4206
occupie	-11.4206
▁1953	-11.4206
▁1972	-11.4206
▁2003	-11.4206
▁Antwone	-11.4206
▁Berenger	-11.4206
▁Bernsen	-11.4206
▁Blunt	-11.4206
▁Criminal	-11.4206
▁Cruella	-11.4206
▁Ernie	-11.4206
▁Evelyn	-11.4206
▁Fairbanks	-11.4206
▁Florence	-11.4206
▁GOOD	-11.4206
▁Humphr	-11.4206
▁Ingrid	-11.4206
▁Khouri	-11.4206
▁Kleinman	-11.4206
▁Krishna	-11.4206
▁Kristofferson	-11.4206
▁Lambert	-11.4206
▁Luckily	-11.4206
▁Matrix	-11.4206
▁McKay	-11.4206
▁Miami	-11.4206
▁Muriel	-11.4206
▁Scotland	-11.4206
▁Sematary	-11.4206
▁Simpson	-11.4206
▁Sinatra	-11.4206
▁THAT	-11.4206
▁TIME	-11.4206
▁Trelkovsky	-11.4206
▁Yuzna	-11.4206
▁buddies	-11.4206
▁chronicle	-11.4206
▁colleague	-11.4206
▁confusion	-11.4206
▁custom	-11.4206
▁definition	-11.4206
▁descend	-11.4206
▁despair	-11.4206
▁distribute	-11.4206
▁elevator	-11.4206
▁explode	-11.4206
▁explosive	-11.4206
▁global	-11.4206
▁guitar	-11.4206
▁immigrant	-11.4206
▁improbable	-11.4206
▁industri	-11.4206
▁irrelevant	-11.4206
▁juvenile	-11.4206
▁luxu	-11.4206
▁marvellous	-11.4206
▁miracle	-11.4206
▁nephew	-11.4206
▁nightclub	-11.4206
▁parodies	-11.4206
▁psyche	-11.4206
▁pursuit	-11.4206
▁puzzle	-11.4206
▁racist	-11.4206
▁simplistic	-11.4206
▁stadium	-11.4206
▁sweetheart	-11.4206
▁temper	-11.4206
▁tomorrow	-11.4206
▁underneath	-11.4206
▁unpredictable	-11.4206
▁1997	-11.4206
▁1999	-11.4206
▁Bowser	-11.4206
▁Cameron	-11.4206
▁Canada	-11.4206
▁Fantasy	-11.4206
▁Hawaii	-11.4206
▁Jordan	-11.4206
▁Laputa	-11.4206
▁Laurie	-11.4206
▁McIntire	-11.4206
▁Pumbaa	-11.4206
▁RENAISSANCE	-11.4206
▁Silver	-11.4206
▁attached	-11.4206
▁await	-11.4206
▁buddy	-11.4206
▁chuckle	-11.4206
▁commentaries	-11.4206
▁complement	-11.4206
▁condescen	-11.4206
▁contempt	-11.4206
▁gesture	-11.4206
▁inevitable	-11.4206
▁intricate	-11.4206
▁kitchen	-11.4206
▁melancholy	-11.4206
▁monumental	-11.4206
▁obnoxious	-11.4206
▁opponent	-11.4206
▁premiere	-11.4206
▁rotoscop	-11.4206
▁splatter	-11.4206
▁summary	-11.4206
▁testament	-11.4206
▁unnerving	-11.4206
▁unravel	-11.4206
▁vintage	-11.4206
Shrek	-11.4206
^	-11.4206
▁Bilge	-11.4206
▁Connery	-11.4206
▁Freeman	-11.4206
▁Gandhi	-11.4206
▁Globe	-11.4206
▁Grayson	-11.4206
▁Grinch	-11.4206
▁Gwyn	-11.4206
▁LOL	-11.4206
▁MOVIE	-11.4206
▁Monkeys	-11.4206
▁Women	-11.4206
▁banned	-11.4206
▁commentator	-11.4206
▁deputy	-11.4206
▁frightened	-11.4206
▁narrow	-11.4206
▁rugged	-11.4206
▁saga	-11.4206
▁sterling	-11.4206
▁uplift	-11.4206
HEAD	-11.4206
▁Finney	-11.4206
▁Hauser	-11.4206
▁balloon	-11.4206
▁liberal	-11.4206
▁trend	-11.4206
**1/2	-11.4206
▁Avalon	-11.4206
▁Sweden	-11.4206
▁montage	-11.4206
▁Archi	-11.4206
▁Crime	-11.4206
▁Griffith	-11.4206
▁Ratso	-11.4206
▁boost	-11.4206
▁distress	-11.4206
▁romp	-11.4206
▁Clara	-11.4206
▁framing	-11.4206
▁venom	-11.4206
▁General	-11.4206
▁Witch	-11.4206
▁crisp	-11.4206
▁profit	-11.4206
▁acquaint	-11.4206
▁granted	-11.4206
▁innovati	-11.4206
▁shirt	-11.4206
▁Malone	-11.4206
▁cream	-11.4206
▁Preston	-11.4206
▁Reiser	-11.4206
▁sorrow	-11.4206
Perfect	-11.4206
▁appli	-11.4206
▁Niven	-11.4206
▁Gackt	-11.4206
▁ensure	-11.4206
▁knee	-11.4206
▁menacing	-11.4206
▁Betty	-11.4206
▁Next	-11.4206
▁overtones	-11.4206
▁Busby	-11.4206
▁Celine	-11.4206
▁asleep	-11.4206
▁nurse	-11.4206
▁Train	-11.4206
▁autobiograph	-11.4206
www	-11.4206
▁Kirst	-11.4206
▁acqui	-11.4206
▁retarded	-11.4206
misunderstanding	-11.4206
▁Wendy	-11.4206
▁spinster	-11.4206
▁sympathize	-11.4206
▁Hotel	-11.4206
▁accessible	-11.4206
▁Warren	-11.4206
▁lull	-11.4206
▁troops	-11.4206
▁Ilona	-11.4206
▁defeat	-11.4206
▁skeptic	-11.4206
▁transcend	-11.4206
▁Sisters	-11.4206
Cartoon	-11.4206
▁producing	-11.4206
▁executive	-11.4206
▁Straight	-11.4206
▁prologue	-11.4206
▁repressed	-11.4206
▁Talia	-11.4206
▁vague	-11.4206
▁Curly	-11.4206
▁Summer	-11.4206
▁Dublin	-11.4206
▁School	-11.4206
▁1994	-11.4206
▁biblical	-11.4206
ntruder	-11.4206
▁Talk	-11.4206
▁housewife	-11.4206
▁Everybody	-11.4206
▁Lucil	-11.4206
▁miscast	-11.4206
ascist	-11.4207
▁Element	-11.4207
innie	-11.4207
▁enlist	-11.4207
▁censorship	-11.4207
▁ignorant	-11.4207
▁Christina	-11.4207
▁Temple	-11.4207
▁1939	-11.4207
▁dash	-11.4207
▁1973	-11.4207
▁Bolt	-11.4207
▁resemblance	-11.4207
▁hokey	-11.4207
▁astute	-11.4207
▁widescreen	-11.4207
▁Eventually	-11.4207
▁Fanning	-11.4207
Gentlem	-11.4207
▁seventies	-11.4207
▁Dunne	-11.4207
Top	-11.4207
▁Kingdom	-11.4207
▁Genma	-11.4207
▁repris	-11.4207
▁Funny	-11.4207
▁Dolls	-11.4207
▁Jared	-11.4207
▁mouse	-11.4207
aloon	-11.4207
▁Diego	-11.4208
▁Action	-11.4208
▁Weird	-11.4208
▁loyalty	-11.4208
▁election	-11.4208
▁Boris	-11.4208
▁Poe	-11.4208
▁conservative	-11.4208
▁internal	-11.4208
▁tribe	-11.4208
▁Otherwise	-11.4208
lazy	-11.4208
▁resource	-11.4208
▁Office	-11.4208
▁heartwarming	-11.4209
▁demeanor	-11.4209
▁Republican	-11.4209
▁psychotic	-11.4209
▁shopping	-11.4209
▁slavery	-11.4209
▁glit	-11.4209
▁fluff	-11.4209
▁Barb	-11.4209
▁distance	-11.421
▁confession	-11.421
▁slap	-11.421
▁shut	-11.421
▁*****	-11.421
▁absurdity	-11.421
▁destination	-11.421
▁Northam	-11.421
▁Karas	-11.4211
▁Justice	-11.4211
▁safety	-11.4211
▁Tommy	-11.4211
▁Somehow	-11.4211
▁predat	-11.4211
▁toilet	-11.4211
▁Antonio	-11.4211
Sinc	-11.4211
▁Clare	-11.4212
▁melodramatic	-11.4212
▁equi	-11.4212
▁Francois	-11.4212
tolerance	-11.4212
▁MTV	-11.4212
▁kidnap	-11.4213
▁trite	-11.4213
xious	-11.4213
▁Perry	-11.4213
▁slice	-11.4214
▁junk	-11.4214
▁duty	-11.4214
▁heighten	-11.4214
▁shark	-11.4214
▁dwell	-11.4215
▁Dari	-11.4215
nevertheless	-11.4215
Snake	-11.4216
▁sadistic	-11.4217
▁drunken	-11.4217
▁suppress	-11.4217
▁swell	-11.4217
▁FIR	-11.4218
▁weakness	-11.4218
▁Jake	-11.4218
▁wooden	-11.4219
▁rebel	-11.4219
▁Step	-11.4219
▁tire	-11.4219
Ellen	-11.4219
▁cake	-11.4219
▁regardless	-11.422
▁Denis	-11.4221
-19	-11.4221
▁subtlety	-11.4221
▁Neill	-11.4221
▁deny	-11.4222
▁damaged	-11.4222
▁Bottom	-11.4223
▁rose	-11.4223
▁socialite	-11.4223
▁progresses	-11.4223
▁corporation	-11.4223
▁chest	-11.4223
▁Sutherland	-11.4223
▁ambitious	-11.4223
▁satisfied	-11.4223
▁pile	-11.4223
▁brutality	-11.4224
dency	-11.4224
▁alot	-11.4224
▁chat	-11.4225
▁blur	-11.4226
▁flipp	-11.4226
▁realizing	-11.4226
▁consideration	-11.4227
apart	-11.4227
▁wheel	-11.4228
▁Drew	-11.4228
▁glasses	-11.4229
▁25	-11.4229
▁warmth	-11.423
▁celebrated	-11.4232
▁exposed	-11.4232
▁promising	-11.4232
▁Gunn	-11.4233
▁Crow	-11.4234
▁selected	-11.4234
▁Okay	-11.4235
▁Noble	-11.4235
▁psycholog	-11.4235
▁moon	-11.4236
▁Vig	-11.4238
▁acceptable	-11.4238
▁compell	-11.4238
agan	-11.4238
▁insert	-11.424
▁Lila	-11.4241
▁assist	-11.4241
▁followers	-11.4243
▁questionable	-11.4244
▁dement	-11.4244
Open	-11.4244
▁Angeles	-11.4245
▁dealers	-11.4246
▁photographer	-11.4246
▁Nicola	-11.4246
▁Cube	-11.4246
▁wandering	-11.4246
▁Wish	-11.4247
▁Kno	-11.4247
▁generated	-11.4247
▁showdown	-11.4247
▁Lara	-11.4247
▁rushed	-11.4249
witt	-11.425
▁Frost	-11.425
▁hill	-11.425
▁heroic	-11.4251
ylan	-11.4251
▁satirical	-11.4254
▁Face	-11.4255
does	-11.4256
▁fifty	-11.4256
▁metal	-11.4257
▁yeah	-11.4258
▁Harve	-11.4258
▁Carrie	-11.4259
▁mildly	-11.426
▁WB	-11.426
Thing	-11.4261
▁interact	-11.4262
▁cup	-11.4263
▁spa	-11.4263
game	-11.4265
▁roller	-11.4266
▁Gall	-11.4267
▁Scarface	-11.427
▁map	-11.4271
▁Newman	-11.4271
▁magical	-11.4272
▁photographed	-11.4273
mobile	-11.4273
▁mum	-11.4274
▁Moss	-11.4278
▁designer	-11.4278
pawn	-11.4281
▁STAR	-11.4282
▁reasonable	-11.4282
▁spi	-11.4282
▁praised	-11.4285
▁neatly	-11.4285
▁realised	-11.4286
▁Wu	-11.4288
▁duration	-11.4289
Corb	-11.429
▁succeeded	-11.4291
ttraction	-11.4291
▁closest	-11.4292
▁poke	-11.4294
▁Sig	-11.4295
▁Woody	-11.4298
▁warned	-11.4299
▁apt	-11.4299
▁vice	-11.43
▁Molly	-11.4308
▁feed	-11.431
▁seduct	-11.4311
▁addicted	-11.4312
▁appreciati	-11.4313
pton	-11.4321
▁appropriately	-11.4324
▁Hale	-11.4324
▁remov	-11.4332
▁youngest	-11.4341
Chuck	-11.4343
▁mentally	-11.4344
▁voted	-11.4347
▁bitch	-11.4353
▁Mick	-11.4354
▁desired	-11.4357
INE	-11.4377
close	-11.438
▁Bull	-11.4388
▁Paz	-11.4393
▁devil	-11.4399
▁continued	-11.4421
fact	-11.4422
Doug	-11.4428
Hu	-11.4441
quel	-11.4458
Luc	-11.4462
▁programme	-11.4478
▁Lily	-11.449
▁skillful	-11.4493
▁sadde	-11.4521
demanding	-11.4556
aj	-11.4559
DAY	-11.4588
▁Carr	-11.4601
tensi	-11.4619
▁Try	-11.4628
Lor	-11.4639
Car	-11.4676
▁resembl	-11.468
anky	-11.4695
▁bod	-11.472
▁concentrate	-11.4725
lace	-11.4732
▁Qu	-11.475
▁circu	-11.4764
true	-11.4779
enchant	-11.4814
▁HE	-11.4835
phe	-11.486
getting	-11.487
▁gri	-11.4874
both	-11.4876
opping	-11.49
note	-11.4916
ocate	-11.4925
▁Hai	-11.4928
candy	-11.4949
▁cow	-11.5
▁Zu	-11.5042
wow	-11.5072
▁tall	-11.509
▁Woo	-11.5092
erial	-11.5125
▁spec	-11.515
pped	-11.5166
See	-11.5184
Za	-11.5184
▁enthusiastic	-11.5205
▁(198	-11.5241
nue	-11.5242
coaster	-11.5246
▁concentrat	-11.5292
bby	-11.5304
▁fanc	-11.5369
94	-11.5371
THE	-11.5391
stantly	-11.5431
Ver	-11.5432
17	-11.5457
▁fabric	-11.5468
▁Liz	-11.5485
enni	-11.552
refore	-11.553
▁explosion	-11.5556
▁introduc	-11.5556
▁consequence	-11.5562
rself	-11.5568
minded	-11.5574
▁Greg	-11.5602
IDE	-11.5605
▁Krist	-11.561
ota	-11.5641
Donnell	-11.5642
▁legi	-11.565
meaning	-11.5662
ARE	-11.5663
▁capital	-11.567
ritu	-11.5674
▁devi	-11.568
AIN	-11.5702
▁trad	-11.5705
▁Carre	-11.5706
Mart	-11.5715
▁Tar	-11.5729
arried	-11.5743
▁nightmar	-11.5748
cluded	-11.5754
timate	-11.5758
▁creepi	-11.5774
▁Down	-11.5777
▁tortur	-11.5783
rump	-11.5784
▁Dol	-11.5784
produce	-11.5785
▁comprehensi	-11.5798
Scarface	-11.5798
Dawn	-11.5799
nonsense	-11.58
Philip	-11.5801
Second	-11.5801
=	-11.5801
driven	-11.5801
Nothing	-11.5801
▁Ph	-11.5801
Unfortunately	-11.5802
Freddy	-11.5802
Alex	-11.5802
Simon	-11.5802
adult	-11.5802
average	-11.5802
Black	-11.5802
print	-11.5802
Why	-11.5802
realistic	-11.5803
Story	-11.5803
release	-11.5803
special	-11.5803
black	-11.5803
perfect	-11.5803
through	-11.5803
dream	-11.5803
nothing	-11.5803
dramatic	-11.5804
credit	-11.5804
comedy	-11.5804
Hollywood	-11.5804
Tak	-11.5806
Brian	-11.5807
however	-11.5807
overall	-11.5809
▁grip	-11.5811
buil	-11.5813
plus	-11.5814
music	-11.5814
Night	-11.5815
developed	-11.5816
home	-11.5819
runs	-11.5821
▁interrupt	-11.5822
▁prepar	-11.5824
▁rush	-11.5828
themed	-11.5829
named	-11.5831
genre	-11.5833
voice	-11.5833
▁immediate	-11.5834
▁tast	-11.5835
▁eventual	-11.5836
▁sma	-11.5839
▁valu	-11.5841
▁celebrate	-11.5841
▁expose	-11.5841
▁literal	-11.5842
think	-11.5842
▁determine	-11.5842
image	-11.5844
xcept	-11.5846
▁chose	-11.5847
case	-11.585
valent	-11.585
▁polic	-11.5851
coat	-11.5852
Give	-11.5853
▁stole	-11.5855
OK	-11.5855
▁behavio	-11.586
rock	-11.5865
▁confess	-11.5868
▁motivat	-11.5868
cover	-11.587
▁psychiatr	-11.587
▁excess	-11.587
▁consist	-11.5871
tagonist	-11.5872
▁Poirot	-11.5872
▁hallucinat	-11.5872
▁occurrence	-11.5872
Cassavetes	-11.5872
Ecstasy	-11.5872
Kalifornia	-11.5872
Kentucky	-11.5872
Kriemhild	-11.5872
Mantegna	-11.5872
Technically	-11.5872
ccompanie	-11.5872
evitably	-11.5872
ignancy	-11.5872
licopter	-11.5872
rdinarily	-11.5872
trophy	-11.5872
▁1958	-11.5872
▁1963	-11.5872
▁1968	-11.5872
▁1976	-11.5872
▁1977	-11.5872
▁2005	-11.5872
▁2006	-11.5872
▁Adrien	-11.5872
▁Armstrong	-11.5872
▁August	-11.5872
▁Brashear	-11.5872
▁Clooney	-11.5872
▁Connolly	-11.5872
▁Creasy	-11.5872
▁Darlene	-11.5872
▁Deathtrap	-11.5872
▁Dwight	-11.5872
▁Episode	-11.5872
▁Farnsworth	-11.5872
▁Gibson	-11.5872
▁Giovann	-11.5872
▁Hannah	-11.5872
▁Hawks	-11.5872
▁Henderson	-11.5872
▁Katsu	-11.5872
▁Kazuhiro	-11.5872
▁Keeler	-11.5872
▁McAdam	-11.5872
▁McCartney	-11.5872
▁McKenzie	-11.5872
▁Middle	-11.5872
▁Miramax	-11.5872
▁Paperhouse	-11.5872
▁Patricia	-11.5872
▁Posey	-11.5872
▁Purple	-11.5872
▁Scorpion	-11.5872
▁Sollett	-11.5872
▁Sparks	-11.5872
▁Stapleton	-11.5872
▁Strong	-11.5872
▁Studio	-11.5872
▁Sullavan	-11.5872
▁Travolta	-11.5872
▁Vampire	-11.5872
▁Wisconsin	-11.5872
▁Yaara	-11.5872
▁apolog	-11.5872
▁arrogant	-11.5872
▁aspiration	-11.5872
▁attorney	-11.5872
▁blatant	-11.5872
▁blossom	-11.5872
▁campaign	-11.5872
▁celebration	-11.5872
▁celluloid	-11.5872
▁champion	-11.5872
▁cocaine	-11.5872
▁collective	-11.5872
▁companies	-11.5872
▁compliment	-11.5872
▁conspiracy	-11.5872
▁context	-11.5872
▁devotion	-11.5872
▁distribution	-11.5872
▁distributor	-11.5872
▁economy	-11.5872
▁eliminat	-11.5872
▁entangle	-11.5872
▁enthralling	-11.5872
▁entrance	-11.5872
▁evolution	-11.5872
▁external	-11.5872
▁fundamental	-11.5872
▁fuzzy	-11.5872
▁gimmick	-11.5872
▁happie	-11.5872
▁heartfelt	-11.5872
▁immature	-11.5872
▁inclusion	-11.5872
▁inexplicable	-11.5872
▁instrument	-11.5872
▁monologue	-11.5872
▁morbid	-11.5872
▁muscle	-11.5872
▁museum	-11.5872
▁nostalgia	-11.5872
▁obsessive	-11.5872
▁occupy	-11.5872
▁outburst	-11.5872
▁participant	-11.5872
▁passenger	-11.5872
▁perceive	-11.5872
▁perception	-11.5872
▁plastic	-11.5872
▁possibilities	-11.5872
▁prototype	-11.5872
▁psychedelic	-11.5872
▁refugee	-11.5872
▁register	-11.5872
▁repetitive	-11.5872
▁response	-11.5872
▁rhythm	-11.5872
▁rubbish	-11.5872
▁seduce	-11.5872
▁silver	-11.5872
▁simplicity	-11.5872
▁snippets	-11.5872
▁solicitor	-11.5872
▁stilted	-11.5872
▁stubborn	-11.5872
▁subconscious	-11.5872
▁substantial	-11.5872
▁throat	-11.5872
▁thrust	-11.5872
▁turmoil	-11.5872
▁unanswered	-11.5872
▁uneasy	-11.5872
▁unexplained	-11.5872
▁unintentionally	-11.5872
▁unleashe	-11.5872
▁virtue	-11.5872
▁visceral	-11.5872
▁vocabulary	-11.5872
▁vulgar	-11.5872
▁wield	-11.5872
▁wisdom	-11.5872
▁yesterday	-11.5872
ï	-11.5872
▁#2	-11.5872
▁Aiello	-11.5872
▁Bacall	-11.5872
▁Egypt	-11.5872
▁Epps	-11.5872
▁Higgin	-11.5872
▁Jessica	-11.5872
▁Luzhin	-11.5872
▁SUN	-11.5872
▁Shadow	-11.5872
▁Sharma	-11.5872
▁Sheridan	-11.5872
▁Simba	-11.5872
▁Sundance	-11.5872
▁Tokyo	-11.5872
▁bureaucrat	-11.5872
▁catastroph	-11.5872
▁chorus	-11.5872
▁enormous	-11.5872
▁firefighters	-11.5872
▁indication	-11.5872
▁injustice	-11.5872
▁merciless	-11.5872
▁rotten	-11.5872
▁spontaneous	-11.5872
▁sufficient	-11.5872
▁unconscious	-11.5872
▁unhappy	-11.5872
dyssey	-11.5872
▁#1	-11.5872
▁Cruise	-11.5872
▁DEAD	-11.5872
▁Dalmatians	-11.5872
▁Errol	-11.5872
▁Keller	-11.5872
▁Vader	-11.5872
▁Wolf	-11.5872
▁bulk	-11.5872
▁colony	-11.5872
▁composed	-11.5872
▁echo	-11.5872
▁hunger	-11.5872
▁mistress	-11.5872
▁niece	-11.5872
▁oppressi	-11.5872
▁statue	-11.5872
▁virus	-11.5872
▁Capra	-11.5872
▁Crenna	-11.5872
▁Olympic	-11.5872
▁athletic	-11.5872
▁pirate	-11.5872
▁ravage	-11.5872
▁stroke	-11.5872
▁wounded	-11.5872
▁Adeline	-11.5872
▁TCM	-11.5872
▁garden	-11.5872
▁profile	-11.5872
achelor	-11.5872
▁Cramer	-11.5872
▁Harlin	-11.5872
▁hippie	-11.5872
▁insanity	-11.5872
▁retain	-11.5872
Surviv	-11.5872
▁Palance	-11.5872
▁Riker	-11.5872
▁mph	-11.5872
▁plate	-11.5872
▁resort	-11.5872
▁trek	-11.5872
▁imdb	-11.5872
▁oscar	-11.5872
▁wrapped	-11.5872
▁CBS	-11.5872
▁Derek	-11.5872
▁cowardly	-11.5872
▁milk	-11.5872
▁region	-11.5872
▁respectively	-11.5872
▁cinematographic	-11.5872
▁irritating	-11.5872
Gloria	-11.5872
▁Basically	-11.5872
▁Emmy	-11.5872
▁Until	-11.5872
▁Fleet	-11.5872
▁Katie	-11.5872
▁replies	-11.5872
▁whale	-11.5872
▁bullied	-11.5873
▁salva	-11.5873
▁Celie	-11.5873
▁Glass	-11.5873
▁darn	-11.5873
▁inspector	-11.5873
▁Huston	-11.5873
▁spree	-11.5873
▁biker	-11.5873
▁limitations	-11.5873
▁somber	-11.5873
▁Sanders	-11.5873
▁hilt	-11.5873
▁swift	-11.5873
Madonna	-11.5873
▁underused	-11.5873
▁Randy	-11.5873
▁beads	-11.5873
▁sauc	-11.5873
▁enchanting	-11.5873
▁Court	-11.5873
▁Something	-11.5873
▁justify	-11.5873
TION	-11.5873
▁bride	-11.5873
▁Haines	-11.5873
▁Yaki	-11.5873
▁blurred	-11.5873
▁WWI	-11.5873
grateful	-11.5873
▁royal	-11.5873
▁rising	-11.5873
Cheadle	-11.5873
▁miniature	-11.5873
▁:-)	-11.5873
▁Meyerling	-11.5873
▁complications	-11.5873
▁Hopefully	-11.5873
Yeah	-11.5873
▁stirring	-11.5873
Scoop	-11.5873
▁navy	-11.5873
▁Thorn	-11.5873
▁route	-11.5873
▁HAVE	-11.5873
▁exploitative	-11.5873
▁skit	-11.5873
oyage	-11.5874
Mystery	-11.5874
▁hiding	-11.5874
wreck	-11.5874
▁purse	-11.5874
▁subtly	-11.5874
▁spunk	-11.5874
▁analysis	-11.5874
▁yellow	-11.5874
▁giall	-11.5874
▁Throughout	-11.5874
▁Lips	-11.5874
▁feast	-11.5874
▁cancer	-11.5874
Radio	-11.5875
▁mower	-11.5875
▁policies	-11.5875
▁civil	-11.5875
▁Connelly	-11.5875
▁Empire	-11.5875
▁Odd	-11.5875
▁Country	-11.5875
▁gender	-11.5875
▁featurette	-11.5875
▁chunk	-11.5875
▁Thom	-11.5875
▁Marvin	-11.5875
▁babe	-11.5875
▁skinny	-11.5875
▁sheep	-11.5875
▁Guinness	-11.5876
▁sail	-11.5876
▁Rookie	-11.5876
▁captain	-11.5876
▁Under	-11.5876
▁precious	-11.5876
▁Cause	-11.5876
▁punishment	-11.5876
▁brush	-11.5876
▁contestant	-11.5876
▁Franch	-11.5876
▁landmark	-11.5876
▁Jules	-11.5876
▁incest	-11.5876
▁foolish	-11.5876
▁stardom	-11.5877
▁pathos	-11.5877
▁gear	-11.5877
▁heartbreaking	-11.5877
▁remaster	-11.5877
▁Lupin	-11.5877
▁entitle	-11.5877
adashi	-11.5877
▁View	-11.5877
▁agenda	-11.5877
▁Hitchcockian	-11.5878
Bride	-11.5878
▁stature	-11.5878
▁moron	-11.5878
▁Della	-11.5878
RDE	-11.5878
▁harmless	-11.5878
▁pride	-11.5878
▁Harley	-11.5878
▁catalog	-11.5878
▁rode	-11.5878
▁recover	-11.5878
▁geek	-11.5878
▁princess	-11.5879
▁renew	-11.5879
▁hitting	-11.5879
▁foil	-11.5879
▁unfunny	-11.5879
▁snap	-11.5879
▁thick	-11.588
▁climate	-11.588
RIP	-11.588
haunt	-11.588
▁Bouzaglo	-11.588
▁Surprisingly	-11.588
▁arise	-11.588
▁Shame	-11.588
▁Judge	-11.5881
▁artistry	-11.5881
▁narrated	-11.5881
▁Karen	-11.5881
▁deaf	-11.5882
▁Chase	-11.5882
▁continuity	-11.5882
▁downfall	-11.5882
▁Jody	-11.5883
▁conviction	-11.5883
▁Coleman	-11.5884
▁Light	-11.5885
▁belt	-11.5885
▁Corman	-11.5885
Panic	-11.5885
▁Ella	-11.5885
Pol	-11.5886
▁mentality	-11.5886
▁WAS	-11.5887
▁captivated	-11.5887
AID	-11.5887
▁'30	-11.5888
▁washed	-11.5889
▁'73	-11.589
▁Daria	-11.5891
▁slum	-11.5891
aux	-11.5892
▁cartoonish	-11.5892
▁Squad	-11.5892
analyz	-11.5893
▁tenant	-11.5893
▁armor	-11.5893
▁Kane	-11.5893
▁Pana	-11.5893
▁outset	-11.5894
▁plug	-11.5894
▁uncut	-11.5894
▁ray	-11.5895
▁entirety	-11.5895
▁handling	-11.5895
▁authority	-11.5896
▁contrived	-11.5896
▁Chow	-11.5896
▁baton	-11.5897
▁overboard	-11.5898
▁Rice	-11.5898
▁superstar	-11.5898
▁reunited	-11.5898
▁maid	-11.5899
Devos	-11.5899
▁stolen	-11.5899
▁mastermind	-11.5899
Beverly	-11.59
ENT	-11.59
▁behalf	-11.5903
▁legal	-11.5904
▁Agent	-11.5904
▁outcast	-11.5904
▁childish	-11.5905
▁growth	-11.5905
▁WW	-11.5905
▁deeds	-11.5905
▁Rang	-11.5906
▁complexity	-11.5906
ocus	-11.5907
▁stir	-11.5908
consistently	-11.5909
▁Rated	-11.5909
▁Asia	-11.5909
▁guaranteed	-11.591
▁concluded	-11.5911
▁Caron	-11.5912
1984	-11.5913
yao	-11.5914
▁enhanced	-11.5915
▁MY	-11.5916
▁gener	-11.5916
door	-11.5916
▁Shah	-11.5917
▁rage	-11.5918
▁agreement	-11.5918
▁Deol	-11.5918
▁strangeness	-11.592
▁Tyl	-11.592
▁noticeable	-11.592
▁auto	-11.5921
▁Macy	-11.5922
▁lap	-11.5923
Doghi	-11.5923
▁Dak	-11.5924
gun	-11.5925
unseen	-11.5925
▁bomber	-11.5926
▁nuanced	-11.5927
▁Paulie	-11.5929
hole	-11.5929
▁encourag	-11.593
▁removed	-11.5931
▁manga	-11.5931
▁asset	-11.5932
▁Party	-11.5932
▁Late	-11.5933
▁SEE	-11.5935
Cross	-11.5942
▁coup	-11.5943
▁bosses	-11.5948
▁dear	-11.595
▁Stra	-11.5952
▁hunter	-11.5953
▁despise	-11.5956
lover	-11.5956
▁PG	-11.596
▁dust	-11.5961
Brando	-11.5966
▁spine	-11.5966
▁painter	-11.5972
▁sala	-11.5974
▁matche	-11.5975
lonel	-11.5982
▁integrat	-11.5997
▁SF	-11.6001
▁Kol	-11.6001
AU	-11.6002
best	-11.6002
▁stumbl	-11.6002
▁Regi	-11.6007
▁coloni	-11.601
▁purp	-11.6021
jack	-11.6024
ffe	-11.6026
body	-11.6028
▁Say	-11.6037
▁sunk	-11.6038
▁germ	-11.6078
fare	-11.611
▁cock	-11.6119
▁tame	-11.6124
▁Hatch	-11.6146
▁Gregor	-11.6152
▁Guin	-11.6171
▁pale	-11.6172
hair	-11.6179
HAN	-11.6201
agged	-11.621
gency	-11.6216
Accor	-11.6227
▁Him	-11.624
▁Toro	-11.6255
Busy	-11.6275
▁Peck	-11.6287
ological	-11.6294
bone	-11.6301
hton	-11.6305
▁grin	-11.6306
THER	-11.6307
49	-11.631
▁Desi	-11.6311
ANT	-11.6314
fina	-11.6326
tually	-11.6343
Summ	-11.6362
▁mute	-11.6389
▁Gl	-11.6456
Happ	-11.6508
▁fetch	-11.6519
Bobby	-11.6525
▁enable	-11.6543
▁Plu	-11.655
clear	-11.6554
▁Cher	-11.6563
pard	-11.6566
▁coast	-11.6571
▁grabb	-11.6576
orient	-11.6579
▁enthusiast	-11.6587
finity	-11.6603
▁Groo	-11.6612
qualifie	-11.6632
jan	-11.6661
urren	-11.6685
▁Nolan	-11.6689
▁Bha	-11.6759
ickey	-11.6799
anu	-11.6819
dragon	-11.6823
Chi	-11.6846
MAR	-11.6893
▁Bab	-11.6926
lighthearted	-11.6943
▁admir	-11.6989
ppy	-11.701
ristine	-11.7015
nchant	-11.7059
transformation	-11.7065
Love	-11.7067
▁playful	-11.7068
▁ratio	-11.7093
rehearsal	-11.7094
▁circ	-11.7102
nked	-11.7128
ario	-11.7164
cuous	-11.7175
RED	-11.7177
nvisible	-11.7184
nsider	-11.7189
flies	-11.7244
▁engage	-11.7244
keeper	-11.7251
▁femini	-11.7304
Hav	-11.7307
post	-11.7405
otto	-11.7428
RING	-11.7431
▁patri	-11.7466
veral	-11.7485
Gung	-11.7534
15	-11.7539
▁Harp	-11.7551
▁clue	-11.7562
riving	-11.7574
▁rub	-11.7576
▁!!!!!!!!!	-11.7595
▁Nav	-11.76
ession	-11.7619
rving	-11.7632
acket	-11.7653
▁instruct	-11.7666
14	-11.7696
cular	-11.7715
called	-11.7722
Pierr	-11.7725
▁investigat	-11.7729
cluding	-11.7747
fighting	-11.7759
High	-11.7765
abbed	-11.7766
half	-11.7766
▁populate	-11.7771
amma	-11.7771
astern	-11.7797
yeah	-11.7798
Yellow	-11.7799
packed	-11.7799
fighter	-11.7799
Return	-11.78
Full	-11.7801
boat	-11.7801
grade	-11.7801
capable	-11.7801
drama	-11.7801
Life	-11.7801
front	-11.7801
Grant	-11.7802
Danny	-11.7802
Daniel	-11.7802
Little	-11.7802
Those	-11.7802
father	-11.7802
Dead	-11.7802
million	-11.7802
Arthur	-11.7802
Perhaps	-11.7802
People	-11.7802
fantasy	-11.7802
familiar	-11.7802
jokes	-11.7803
filled	-11.7803
typical	-11.7803
remember	-11.7803
production	-11.7803
should	-11.7803
people	-11.7803
again	-11.7803
plane	-11.7803
vision	-11.7804
western	-11.7804
issue	-11.7804
fiction	-11.7804
forward	-11.7811
▁rag	-11.7812
listen	-11.7814
without	-11.7814
▁wander	-11.7814
▁sigh	-11.7817
Come	-11.7819
jun	-11.782
producer	-11.7821
human	-11.7822
▁establish	-11.7822
clad	-11.7829
wave	-11.7831
hallenger	-11.7832
▁reunite	-11.7841
▁arrange	-11.7842
▁creativ	-11.7848
▁societ	-11.7848
▁spook	-11.7849
q	-11.7849
itched	-11.7852
▁lus	-11.7854
Get	-11.7855
▁slash	-11.7859
▁contradict	-11.786
▁pond	-11.7861
rrowing	-11.7862
ollywood	-11.7864
attered	-11.7867
▁scienti	-11.7867
▁trivia	-11.7868
▁radi	-11.7868
▁stylis	-11.7868
▁Republic	-11.7868
▁Serg	-11.7869
ritten	-11.7869
▁glamor	-11.787
▁tempt	-11.787
▁uncertain	-11.7871
IGHT	-11.7871
▁Olive	-11.7871
▁cruci	-11.7871
▁indulge	-11.7872
mitab	-11.7872
▁compete	-11.7872
▁Screen	-11.7872
####	-11.7872
rivate	-11.7872
▁access	-11.7872
Airwolf	-11.7872
errific	-11.7872
Wendigo	-11.7872
kovsky	-11.7872
▁flourish	-11.7872
▁squirm	-11.7872
Blockbuster	-11.7872
Eriksson	-11.7872
Honeymoon	-11.7872
Paxinou	-11.7872
Siegfried	-11.7872
Vampiros	-11.7872
plausibility	-11.7872
substitute	-11.7872
timacy	-11.7872
▁1975	-11.7872
▁1986	-11.7872
▁2008	-11.7872
▁BABY	-11.7872
▁Babbage	-11.7872
▁Ballantine	-11.7872
▁Barclay	-11.7872
▁Beginning	-11.7872
▁Benjamin	-11.7872
▁Blackadder	-11.7872
▁Britney	-11.7872
▁Bulimia	-11.7872
▁CITY	-11.7872
▁Capshaw	-11.7872
▁Celebi	-11.7872
▁Central	-11.7872
▁Clayton	-11.7872
▁Collora	-11.7872
▁Colombia	-11.7872
▁Cromwell	-11.7872
▁Dawson	-11.7872
▁DeMille	-11.7872
▁Detective	-11.7872
▁Dukakis	-11.7872
▁Duvall	-11.7872
▁Elephant	-11.7872
▁Fawcett	-11.7872
▁Fishburne	-11.7872
▁Foulkrod	-11.7872
▁Gandolfini	-11.7872
▁Georgia	-11.7872
▁Instinct	-11.7872
▁January	-11.7872
▁Jarada	-11.7872
▁Kapoor	-11.7872
▁Kipling	-11.7872
▁Lesbos	-11.7872
▁Linklater	-11.7872
▁MUCH	-11.7872
▁Magnificent	-11.7872
▁Manfred	-11.7872
▁Mathieu	-11.7872
▁McConaughey	-11.7872
▁Milligan	-11.7872
▁Netflix	-11.7872
▁Netherlands	-11.7872
▁Nyqvist	-11.7872
▁Paradise	-11.7872
▁Phoenix	-11.7872
▁Piscopo	-11.7872
▁Python	-11.7872
▁RAMONES	-11.7872
▁Ritchie	-11.7872
▁Rodriguez	-11.7872
▁Shirley	-11.7872
▁Tarantino	-11.7872
▁Tasuiev	-11.7872
▁Terror	-11.7872
▁Vargas	-11.7872
▁Vertigo	-11.7872
▁Vivian	-11.7872
▁Waterfall	-11.7872
▁Yesterday	-11.7872
▁Zarabeth	-11.7872
▁abilities	-11.7872
▁abstract	-11.7872
▁accuracy	-11.7872
▁activities	-11.7872
▁admission	-11.7872
▁album	-11.7872
▁awakening	-11.7872
▁biopic	-11.7872
▁celebrities	-11.7872
▁composition	-11.7872
▁convenient	-11.7872
▁converted	-11.7872
▁cybersix	-11.7872
▁cyborg	-11.7872
▁cynicism	-11.7872
▁depression	-11.7872
▁diamond	-11.7872
▁dinosaurs	-11.7872
▁disfigur	-11.7872
▁disregard	-11.7872
▁educate	-11.7872
▁electrifying	-11.7872
▁elephant	-11.7872
▁embark	-11.7872
▁enlighten	-11.7872
▁enthusiasm	-11.7872
▁evoke	-11.7872
▁extravagan	-11.7872
▁facilities	-11.7872
▁franchise	-11.7872
▁frantic	-11.7872
▁frenetic	-11.7872
▁globe	-11.7872
▁grasshopper	-11.7872
▁horrendous	-11.7872
▁hungry	-11.7872
▁ideology	-11.7872
▁imaginary	-11.7872
▁inadvertent	-11.7872
▁intervention	-11.7872
▁intricac	-11.7872
▁kudos	-11.7872
▁librarian	-11.7872
▁located	-11.7872
▁misunderstood	-11.7872
▁neglect	-11.7872
▁neurotic	-11.7872
▁obstacle	-11.7872
▁ominous	-11.7872
▁overshadow	-11.7872
▁patience	-11.7872
▁perplex	-11.7872
▁persuade	-11.7872
▁pioneer	-11.7872
▁predecessor	-11.7872
▁psychopath	-11.7872
▁pursuing	-11.7872
▁puzzling	-11.7872
▁quintessential	-11.7872
▁rampage	-11.7872
▁rampant	-11.7872
▁rehash	-11.7872
▁retrospect	-11.7872
▁skirt	-11.7872
▁smuggling	-11.7872
▁snobbish	-11.7872
▁spectacle	-11.7872
▁stunned	-11.7872
▁sublime	-11.7872
▁subversive	-11.7872
▁summarize	-11.7872
▁surveillance	-11.7872
▁swashbuckl	-11.7872
▁travesty	-11.7872
▁uncommon	-11.7872
▁unconventional	-11.7872
▁unemployed	-11.7872
▁utilize	-11.7872
▁vibrant	-11.7872
▁wheelchair	-11.7872
.5/5	-11.7872
Loretta	-11.7872
Recently	-11.7872
Seinfeld	-11.7872
phobia	-11.7872
▁(2005)	-11.7872
▁Battle	-11.7872
▁Command	-11.7872
▁DOES	-11.7872
▁Diamond	-11.7872
▁Elliot	-11.7872
▁Freedom	-11.7872
▁Gomez	-11.7872
▁Hobson	-11.7872
▁Louisiana	-11.7872
▁Nanette	-11.7872
▁Peralta	-11.7872
▁Pollak	-11.7872
▁Regardless	-11.7872
▁Rourke	-11.7872
▁Together	-11.7872
▁Trailer	-11.7872
▁bumbling	-11.7872
▁curtain	-11.7872
▁dilemma	-11.7872
▁disorder	-11.7872
▁eclips	-11.7872
▁envelop	-11.7872
▁farcical	-11.7872
▁giggl	-11.7872
▁inclined	-11.7872
▁leather	-11.7872
▁miraculous	-11.7872
▁ocean	-11.7872
▁pianist	-11.7872
▁pollut	-11.7872
▁prosecut	-11.7872
▁pupil	-11.7872
▁radical	-11.7872
▁reflex	-11.7872
▁slaughter	-11.7872
▁sparse	-11.7872
▁surpass	-11.7872
▁thirties	-11.7872
Coonskin	-11.7872
▁(1987)	-11.7872
▁Dahl	-11.7872
▁Eagle	-11.7872
▁Stratton	-11.7872
▁Sylv	-11.7872
▁Tube	-11.7872
▁alarming	-11.7872
▁bargain	-11.7872
▁eminent	-11.7872
▁minimum	-11.7872
▁nickname	-11.7872
▁permanent	-11.7872
▁sleeve	-11.7872
rotocol	-11.7872
tridge	-11.7872
ä	-11.7872
▁Ashwar	-11.7872
▁Gerald	-11.7872
▁Granger	-11.7872
▁Iraq	-11.7872
▁Wymer	-11.7872
▁destructive	-11.7872
▁retrieve	-11.7872
▁seamless	-11.7872
▁yarn	-11.7872
▁Biko	-11.7872
▁Meadows	-11.7872
▁Serbia	-11.7872
▁VIE	-11.7872
▁orphan	-11.7872
▁streak	-11.7872
▁suave	-11.7872
▁Archer	-11.7872
▁Palette	-11.7872
▁SRK	-11.7872
▁WTC	-11.7872
▁chalk	-11.7872
▁synchroni	-11.7872
▁Delpy	-11.7872
▁Sterling	-11.7872
▁hamper	-11.7872
▁limb	-11.7872
▁stalking	-11.7872
▁strangle	-11.7872
▁tacky	-11.7872
▁BBC	-11.7872
▁Either	-11.7872
▁Tiger	-11.7872
▁brown	-11.7872
▁drove	-11.7872
▁garner	-11.7872
▁genetic	-11.7872
▁Dalton	-11.7872
▁Niro	-11.7872
▁aboriginal	-11.7872
▁clown	-11.7872
▁reckon	-11.7872
.5/10	-11.7872
Brien	-11.7872
▁Keitel	-11.7872
1966	-11.7872
▁Atoz	-11.7872
▁BSG	-11.7872
▁Weaver	-11.7872
▁retelling	-11.7872
▁Earp	-11.7872
▁Sassy	-11.7872
▁Unseen	-11.7872
▁altogether	-11.7872
▁crown	-11.7872
▁WIP	-11.7872
▁greet	-11.7872
▁tedious	-11.7872
Beauty	-11.7872
▁Egg	-11.7872
▁adaption	-11.7872
▁exaggerate	-11.7872
mpulsive	-11.7872
▁;-)	-11.7872
▁disrupt	-11.7872
▁sincerity	-11.7872
Keep	-11.7873
▁Cushing	-11.7873
▁Jersey	-11.7873
▁classmates	-11.7873
▁tech	-11.7873
▁Comic	-11.7873
1957	-11.7873
▁mankind	-11.7873
▁Peaks	-11.7873
▁canvas	-11.7873
▁chord	-11.7873
▁BIG	-11.7873
▁Russo	-11.7873
▁mayhem	-11.7873
▁Particular	-11.7873
▁inept	-11.7873
▁clums	-11.7873
▁skies	-11.7873
▁injure	-11.7873
▁lectur	-11.7873
▁regime	-11.7873
▁Krell	-11.7873
▁audition	-11.7873
▁shelter	-11.7873
▁calib	-11.7873
▁archetyp	-11.7873
▁racing	-11.7873
▁weather	-11.7873
▁foster	-11.7873
▁witchcraft	-11.7873
▁culminat	-11.7873
▁Wyat	-11.7873
▁Rhy	-11.7873
▁presume	-11.7873
▁Jaffe	-11.7873
▁kingdom	-11.7873
offensive	-11.7873
▁Screenplay	-11.7873
▁hesitate	-11.7873
▁Sheeta	-11.7873
▁crumbl	-11.7873
▁dragged	-11.7873
▁McGa	-11.7873
▁Post	-11.7873
▁bounc	-11.7873
▁banal	-11.7873
▁Farrell	-11.7873
▁blessing	-11.7873
▁trafficking	-11.7873
▁Vanilla	-11.7873
▁meteor	-11.7873
▁Buster	-11.7873
▁annual	-11.7873
▁copied	-11.7873
▁carnal	-11.7873
▁Short	-11.7873
..............	-11.7873
▁moderate	-11.7873
OUL	-11.7873
▁Machat	-11.7873
▁Alec	-11.7873
▁craziness	-11.7873
▁upbringing	-11.7873
▁uptight	-11.7873
▁acquired	-11.7873
▁informative	-11.7873
▁shaky	-11.7873
▁exterior	-11.7873
▁Suffic	-11.7873
▁inflat	-11.7873
▁wannabe	-11.7873
▁exclusive	-11.7873
▁upsetting	-11.7873
▁̈(19	-11.7873
▁compassionate	-11.7873
▁courtroom	-11.7873
▁Knightley	-11.7874
▁Downey	-11.7874
▁Forbes	-11.7874
Stargate	-11.7874
▁Prize	-11.7874
▁grief	-11.7874
rentino	-11.7874
▁sugar	-11.7874
▁Ireland	-11.7874
▁1934	-11.7874
▁Geer	-11.7874
▁Staden	-11.7874
▁punish	-11.7874
DKD	-11.7874
▁1936	-11.7874
▁representative	-11.7874
▁1933	-11.7874
▁awry	-11.7874
shburn	-11.7874
surance	-11.7874
▁extensi	-11.7874
Possibl	-11.7874
▁establishment	-11.7874
▁civilian	-11.7874
▁Sabu	-11.7874
▁Saget	-11.7874
▁capability	-11.7874
▁Thankfully	-11.7875
▁Wizard	-11.7875
▁Massacre	-11.7875
▁Sharif	-11.7875
▁assert	-11.7875
▁IRS	-11.7875
▁Mask	-11.7875
▁twelve	-11.7875
▁linger	-11.7875
▁Aunt	-11.7875
▁equation	-11.7875
(1983)	-11.7875
▁invasion	-11.7875
▁Parade	-11.7875
▁blah	-11.7875
▁sunny	-11.7875
▁brash	-11.7875
▁Zane	-11.7875
▁dismiss	-11.7875
▁opposition	-11.7875
▁Image	-11.7876
logue	-11.7876
▁property	-11.7876
▁Herbert	-11.7876
▁Nicholson	-11.7876
Peace	-11.7876
▁Milland	-11.7876
▁WHY	-11.7876
▁temptation	-11.7876
▁terrorism	-11.7876
numbing	-11.7876
▁Robby	-11.7876
▁melod	-11.7876
▁whip	-11.7876
▁pray	-11.7876
▁alcoholism	-11.7876
▁MAKE	-11.7876
▁admiration	-11.7876
▁tread	-11.7876
▁beef	-11.7877
▁rope	-11.7877
▁framework	-11.7877
osaur	-11.7877
▁Tsu	-11.7877
▁slain	-11.7877
▁Hagar	-11.7877
▁Foxx	-11.7877
▁trivial	-11.7877
▁unrelated	-11.7877
▁classroom	-11.7877
▁Giant	-11.7877
▁texture	-11.7878
▁Godard	-11.7878
▁Sharon	-11.7878
▁selection	-11.7878
▁voters	-11.7878
▁authorities	-11.7878
▁cruelty	-11.7878
▁intact	-11.7878
▁250	-11.7878
▁salt	-11.7879
empt	-11.7879
▁Mood	-11.7879
▁uncover	-11.7879
▁Laden	-11.7879
▁gentleman	-11.788
▁Flash	-11.788
▁loner	-11.788
▁Bell	-11.788
▁anticipation	-11.788
▁communication	-11.788
▁paranoia	-11.788
▁courageous	-11.788
▁modest	-11.7881
▁Riff	-11.7881
grunt	-11.7881
▁poem	-11.7881
▁pants	-11.7881
▁Preity	-11.7881
▁Knight	-11.7881
▁investigator	-11.7881
▁adrenaline	-11.7881
▁elsewhere	-11.7882
▁Trip	-11.7882
▁wig	-11.7882
▁Enjoyable	-11.7882
▁vile	-11.7882
▁fright	-11.7882
▁construction	-11.7882
renown	-11.7882
▁Report	-11.7883
▁Helm	-11.7883
▁sappy	-11.7883
▁earnest	-11.7883
▁Leung	-11.7884
▁Rhin	-11.7884
▁TNG	-11.7884
▁expressive	-11.7884
AKE	-11.7884
▁manipulation	-11.7884
▁possession	-11.7884
▁passage	-11.7885
▁brick	-11.7885
▁griev	-11.7885
AYS	-11.7885
▁Togar	-11.7886
vital	-11.7886
▁95	-11.7887
▁Beast	-11.7887
▁Dandy	-11.7887
▁canoe	-11.7887
▁reliabl	-11.7888
▁spill	-11.7888
▁obligat	-11.7888
▁Sarah	-11.7889
▁slightest	-11.7889
▁tail	-11.7889
Metro	-11.7889
elcome	-11.7889
▁CAN	-11.7889
▁ponder	-11.7889
▁NY	-11.789
▁dating	-11.789
▁Fez	-11.7891
▁spotted	-11.7891
▁spur	-11.7891
▁Damon	-11.7892
▁wry	-11.7892
▁$3	-11.7892
▁miserabl	-11.7892
mindedness	-11.7893
▁Anton	-11.7893
▁peril	-11.7893
manship	-11.7894
▁Today	-11.7894
goofy	-11.7894
▁laid	-11.7895
▁crus	-11.7895
▁duck	-11.7895
▁shall	-11.7895
▁Mama	-11.7897
▁spies	-11.7899
▁swo	-11.7899
▁fuss	-11.79
▁meantime	-11.7901
▁Hamil	-11.7902
Marie	-11.7902
▁Kier	-11.7904
twee	-11.7904
▁23	-11.7904
igeon	-11.7904
▁stale	-11.7904
▁Than	-11.7905
▁rocket	-11.7905
▁startling	-11.7906
▁geni	-11.7908
larity	-11.791
▁Six	-11.791
▁insect	-11.791
riah	-11.7913
▁Noam	-11.7913
▁Soles	-11.7913
Quai	-11.7913
▁Jose	-11.7914
▁Pep	-11.7915
▁JU	-11.7915
▁dodg	-11.7917
▁habit	-11.7919
▁intro	-11.792
Footlight	-11.7921
▁Cool	-11.7922
▁Arg	-11.7922
mela	-11.7923
rash	-11.7924
adow	-11.793
▁figur	-11.7932
▁Rudy	-11.7938
splitting	-11.7939
Alien	-11.794
▁bubble	-11.7943
▁Aida	-11.795
▁simultaneous	-11.7954
odern	-11.7963
▁snapp	-11.7963
bbie	-11.7965
▁minu	-11.7968
▁crank	-11.7969
▁loop	-11.7973
▁hatch	-11.7977
▁square	-11.7983
esident	-11.7984
riddle	-11.7987
▁admirer	-11.8003
!!!!!!!!!!!!!!!	-11.8004
ilton	-11.801
Coming	-11.8018
FO	-11.8026
gé	-11.8026
ammed	-11.8028
▁tearful	-11.8039
RON	-11.804
▁gown	-11.8046
Liu	-11.8057
Monday	-11.8059
ledge	-11.8059
name	-11.8061
▁transferr	-11.8064
musing	-11.8065
umpy	-11.8073
▁pornograph	-11.8074
existent	-11.8084
piro	-11.8097
▁babysit	-11.8181
▁Moran	-11.8185
▁biograph	-11.8189
Further	-11.8199
construct	-11.8201
▁March	-11.8205
▁acc	-11.821
fluent	-11.8211
ooney	-11.8226
▁tasteful	-11.8241
▁criticize	-11.8247
Find	-11.8291
Bud	-11.8296
▁Dale	-11.8312
dditional	-11.8313
▁popp	-11.8344
▁Dumb	-11.8351
Forget	-11.8397
▁disab	-11.8429
kov	-11.8479
Nata	-11.8495
alien	-11.8507
▁Honest	-11.8536
engaged	-11.8542
▁Lind	-11.8546
catching	-11.8592
functional	-11.8606
▁Univers	-11.8618
▁scr	-11.8625
related	-11.868
▁slate	-11.8704
▁rehears	-11.8716
chang	-11.8717
ongratulat	-11.8748
invisible	-11.8757
▁cub	-11.8806
Sandy	-11.8874
▁illuminate	-11.8957
Walla	-11.9131
comb	-11.9237
▁deduc	-11.9251
apping	-11.9292
▁revolv	-11.931
▁Shau	-11.9344
Superb	-11.9354
▁Produc	-11.939
ckney	-11.9397
Spin	-11.9423
chewing	-11.9427
panic	-11.9466
Match	-11.9506
Maris	-11.9532
28	-11.9541
▁Kris	-11.9556
izard	-11.9591
▁insomnia	-11.9618
▁hostil	-11.9677
Silen	-11.9779
▁complet	-11.9827
▁humbl	-11.9897
▁fil	-11.9917
▁swi	-11.9939
quality	-11.9939
Danish	-11.994
▁manag	-11.9949
▁justifi	-11.995
moving	-12.0001
▁lyric	-12.0057
▁citizen	-12.0059
▁duti	-12.0126
struction	-12.0131
minder	-12.0134
▁attract	-12.0166
▁balanc	-12.0176
▁slip	-12.0189
nimal	-12.0194
▁Claud	-12.0198
▁describ	-12.0204
▁separat	-12.0236
upposedly	-12.0241
▁recogniz	-12.0252
cause	-12.0266
▁releas	-12.0269
▁ignor	-12.0271
ducing	-12.0278
skel	-12.028
▁satiric	-12.0284
world	-12.0292
Direct	-12.0293
Nicola	-12.0298
Cube	-12.0298
Face	-12.0298
fair	-12.0299
Phantom	-12.0299
mpire	-12.0299
pub	-12.0299
Personally	-12.03
Sadly	-12.03
assured	-12.03
Charlotte	-12.03
prepared	-12.03
Anyone	-12.03
Writer	-12.03
Boyle	-12.0301
possibl	-12.0301
Wind	-12.0301
Cinderella	-12.0301
Planet	-12.0301
suffering	-12.0301
Spirit	-12.0301
Guy	-12.0301
Julie	-12.0301
Vincent	-12.0301
Again	-12.0301
Police	-12.0301
science	-12.0301
Jeff	-12.0301
correct	-12.0301
Victor	-12.0302
Green	-12.0302
mouth	-12.0302
Because	-12.0302
frame	-12.0302
Really	-12.0302
Christopher	-12.0302
Eddie	-12.0302
charge	-12.0302
Henry	-12.0302
Think	-12.0302
Jimm	-12.0302
political	-12.0302
Jean	-12.0302
leading	-12.0302
Maybe	-12.0302
battle	-12.0302
twist	-12.0302
South	-12.0303
World	-12.0303
George	-12.0303
parents	-12.0303
William	-12.0303
particularly	-12.0303
number	-12.0303
complete	-12.0303
French	-12.0303
children	-12.0303
German	-12.0303
brilliant	-12.0303
original	-12.0303
effects	-12.0303
second	-12.0303
Oscar	-12.0303
opening	-12.0303
death	-12.0303
first	-12.0303
short	-12.0303
Though	-12.0304
please	-12.0304
Carla	-12.0305
▁cloth	-12.0307
country	-12.0308
rived	-12.0309
Jane	-12.031
intend	-12.0311
child	-12.0315
▁blond	-12.0316
▁select	-12.0317
Realist	-12.0318
▁battl	-12.0323
▁polish	-12.0327
ROS	-12.0329
▁extrem	-12.0333
▁frank	-12.0335
▁Squa	-12.0341
▁damage	-12.0341
eepers	-12.0345
▁engine	-12.0345
▁dirt	-12.0348
▁technolog	-12.0349
▁Gillia	-12.0362
deserv	-12.0363
ncredible	-12.0365
magine	-12.0365
SPOILER	-12.0365
▁prince	-12.0366
▁horrifi	-12.0366
▁dynam	-12.0368
▁inconsisten	-12.0369
▁scandal	-12.037
▁viol	-12.037
Expect	-12.037
uccess	-12.037
elected	-12.037
▁Francis	-12.0371
clusive	-12.0371
mpty	-12.0372
▁traffic	-12.0372
▁Mitch	-12.0372
▁appro	-12.0372
guil	-12.0372
pecul	-12.0372
quaint	-12.0372
Olympi	-12.0372
▁disgrace	-12.0372
▁tumult	-12.0372
▁1929	-12.0372
▁BLACK	-12.0372
▁Loggia	-12.0372
▁serendipit	-12.0372
(7/10)	-12.0372
Casablanca	-12.0372
EARTH	-12.0372
Eglantine	-12.0372
Memphis	-12.0372
Pikachu	-12.0372
Rabbit	-12.0372
Vincenzo	-12.0372
Volckman	-12.0372
amorph	-12.0372
attribute	-12.0372
hindsight	-12.0372
á	-12.0372
▁(1933)	-12.0372
▁(1935)	-12.0372
▁(1948)	-12.0372
▁(1995)	-12.0372
▁11⁄2	-12.0372
▁1895	-12.0372
▁1951	-12.0372
▁1959	-12.0372
▁1967	-12.0372
▁1985	-12.0372
▁1987	-12.0372
▁1995	-12.0372
▁2002	-12.0372
▁2007	-12.0372
▁2054	-12.0372
▁AGAIN	-12.0372
▁Akira	-12.0372
▁Almodovar	-12.0372
▁Apple	-12.0372
▁Argento	-12.0372
▁Atlanta	-12.0372
▁Basket	-12.0372
▁Behind	-12.0372
▁Belgian	-12.0372
▁Bregovic	-12.0372
▁Budapest	-12.0372
▁Burakov	-12.0372
▁CARUSO	-12.0372
▁CHUMP	-12.0372
▁Campbell	-12.0372
▁Caribbean	-12.0372
▁Christensen	-12.0372
▁Clerks	-12.0372
▁Coburn	-12.0372
▁Communist	-12.0372
▁DeNiro	-12.0372
▁Digicorp	-12.0372
▁Drablow	-12.0372
▁ENDED	-12.0372
▁Emperor	-12.0372
▁Enforcer	-12.0372
▁Enterprise	-12.0372
▁FILM	-12.0372
▁Ferrari	-12.0372
▁Frankenstein	-12.0372
▁Galaxy	-12.0372
▁Gibbs	-12.0372
▁Goebbels	-12.0372
▁Goldblum	-12.0372
▁Guadalcanal	-12.0372
▁Guzman	-12.0372
▁HUGE	-12.0372
▁Hallgren	-12.0372
▁Hopkins	-12.0372
▁Johansson	-12.0372
▁Kaplan	-12.0372
▁Kaufman	-12.0372
▁Kilmer	-12.0372
▁Kulkarni	-12.0372
▁Lampidorra	-12.0372
▁Lopez	-12.0372
▁Lumiere	-12.0372
▁MURDER	-12.0372
▁Maguire	-12.0372
▁Mastroianni	-12.0372
▁McNally	-12.0372
▁Muslim	-12.0372
▁NOTHING	-12.0372
▁PEOPLE	-12.0372
▁Pleasance	-12.0372
▁Rafael	-12.0372
▁Revolution	-12.0372
▁Robbins	-12.0372
▁Rochester	-12.0372
▁Sandrich	-12.0372
▁Schmeeze	-12.0372
▁Sharikov	-12.0372
▁Siberling	-12.0372
▁Surprise	-12.0372
▁Tolkien	-12.0372
▁Tomlinson	-12.0372
▁Torrance	-12.0372
▁Truffaut	-12.0372
▁Tuesday	-12.0372
▁Usually	-12.0372
▁Venezuela	-12.0372
▁WATCH	-12.0372
▁WRIT	-12.0372
▁Wagner	-12.0372
▁Warhols	-12.0372
▁Whitman	-12.0372
▁Woronov	-12.0372
▁YOKAI	-12.0372
▁Yelnats	-12.0372
▁Zimmer	-12.0372
▁Zomcon	-12.0372
▁aborigine	-12.0372
▁abroad	-12.0372
▁activist	-12.0372
▁adversity	-12.0372
▁allegorical	-12.0372
▁ancestors	-12.0372
▁aplomb	-12.0372
▁arrogance	-12.0372
▁artificial	-12.0372
▁basketball	-12.0372
▁bewilder	-12.0372
▁brothel	-12.0372
▁brownstone	-12.0372
▁brutish	-12.0372
▁calculating	-12.0372
▁caricature	-12.0372
▁caution	-12.0372
▁ceremon	-12.0372
▁chocolate	-12.0372
▁cliffhanger	-12.0372
▁comedienne	-12.0372
▁commission	-12.0372
▁compromise	-12.0372
▁critiqu	-12.0372
▁damsel	-12.0372
▁degrad	-12.0372
▁desolate	-12.0372
▁desperation	-12.0372
▁discomfort	-12.0372
▁disillusion	-12.0372
▁distaste	-12.0372
▁dizzy	-12.0372
▁dormitory	-12.0372
▁duplic	-12.0372
▁efficient	-12.0372
▁elicits	-12.0372
▁emigrant	-12.0372
▁emphasize	-12.0372
▁enemies	-12.0372
▁enforced	-12.0372
▁erroneous	-12.0372
▁exasperat	-12.0372
▁expedition	-12.0372
▁fascination	-12.0372
▁foreshadow	-12.0372
▁fortunate	-12.0372
▁fragment	-12.0372
▁garbage	-12.0372
▁ghetto	-12.0372
▁glimmer	-12.0372
▁granddaughter	-12.0372
▁grandiose	-12.0372
▁homicidal	-12.0372
▁honeymoon	-12.0372
▁horizon	-12.0372
▁horrid	-12.0372
▁horrifying	-12.0372
▁hustler	-12.0372
▁idiosyncra	-12.0372
▁increase	-12.0372
▁inexplicably	-12.0372
▁infectious	-12.0372
▁inferior	-12.0372
▁integrity	-12.0372
▁introspective	-12.0372
▁intrusive	-12.0372
▁irrational	-12.0372
▁irresistible	-12.0372
▁lampoon	-12.0372
▁lightweight	-12.0372
▁lunatic	-12.0372
▁magnitude	-12.0372
▁mammoth	-12.0372
▁marathon	-12.0372
▁maturity	-12.0372
▁maxim	-12.0372
▁menstruation	-12.0372
▁millennium	-12.0372
▁misguided	-12.0372
▁misogyn	-12.0372
▁mistreat	-12.0372
▁muddled	-12.0372
▁mundane	-12.0372
▁neighbour	-12.0372
▁nitpick	-12.0372
▁platform	-12.0372
▁plodding	-12.0372
▁precursor	-12.0372
▁pregnancy	-12.0372
▁pregnant	-12.0372
▁procedure	-12.0372
▁profanity	-12.0372
▁prostitution	-12.0372
▁raucous	-12.0372
▁rebellion	-12.0372
▁recognised	-12.0372
▁reconciliation	-12.0372
▁remorse	-12.0372
▁restraint	-12.0372
▁schedul	-12.0372
▁sensibilities	-12.0372
▁shenanigans	-12.0372
▁shrine	-12.0372
▁smarmy	-12.0372
▁squeamish	-12.0372
▁steep	-12.0372
▁subtext	-12.0372
▁sunglasses	-12.0372
▁sunshine	-12.0372
▁superfluous	-12.0372
▁sustain	-12.0372
▁therapist	-12.0372
▁trumpet	-12.0372
▁underestimate	-12.0372
▁underpinnings	-12.0372
▁unwilling	-12.0372
▁vernacular	-12.0372
▁wardrobe	-12.0372
▁whimsical	-12.0372
▁worldwide	-12.0372
HYDE	-12.0372
antonio	-12.0372
ccolades	-12.0372
furniture	-12.0372
pocalyp	-12.0372
sorcery	-12.0372
à	-12.0372
▁1944	-12.0372
▁1971	-12.0372
▁Actress	-12.0372
▁Audiard	-12.0372
▁Bartel	-12.0372
▁Bernie	-12.0372
▁Broderick	-12.0372
▁Burstyn	-12.0372
▁Clutter	-12.0372
▁Collette	-12.0372
▁Currie	-12.0372
▁Devito	-12.0372
▁Duryea	-12.0372
▁Fricker	-12.0372
▁Gianni	-12.0372
▁Innocent	-12.0372
▁JFK	-12.0372
▁Jungle	-12.0372
▁Kelso	-12.0372
▁Lanisha	-12.0372
▁Loomis	-12.0372
▁Lucci	-12.0372
▁Madhavi	-12.0372
▁Midler	-12.0372
▁Milyang	-12.0372
▁Minnel	-12.0372
▁Prophet	-12.0372
▁Soldier	-12.0372
▁Soweto	-12.0372
▁Stallone	-12.0372
▁Stitzer	-12.0372
▁anguish	-12.0372
▁bittersweet	-12.0372
▁carriage	-12.0372
▁chaotic	-12.0372
▁clinic	-12.0372
▁clutch	-12.0372
▁coherent	-12.0372
▁darling	-12.0372
▁dialect	-12.0372
▁escalat	-12.0372
▁esteem	-12.0372
▁gladiator	-12.0372
▁incoheren	-12.0372
▁inflict	-12.0372
▁invitation	-12.0372
▁maestro	-12.0372
▁magneti	-12.0372
▁mechanism	-12.0372
▁microfilm	-12.0372
▁newsreel	-12.0372
▁nominee	-12.0372
▁originate	-12.0372
▁persistent	-12.0372
▁prowess	-12.0372
▁quantit	-12.0372
▁resonance	-12.0372
▁revisit	-12.0372
▁sassy	-12.0372
▁serene	-12.0372
▁shrink	-12.0372
▁surrender	-12.0372
▁taboo	-12.0372
▁trench	-12.0372
▁trooper	-12.0372
▁underwear	-12.0372
▁veneer	-12.0372
▁vindic	-12.0372
▁whodunit	-12.0372
▁yield	-12.0372
Method	-12.0372
Testament	-12.0372
dunnit	-12.0372
requisite	-12.0372
scule	-12.0372
▁Blaise	-12.0372
▁Bristol	-12.0372
▁Bunuel	-12.0372
▁Costner	-12.0372
▁Daisies	-12.0372
▁Glenda	-12.0372
▁Loesser	-12.0372
▁Matheson	-12.0372
▁Mistake	-12.0372
▁Picard	-12.0372
▁Romero	-12.0372
▁apple	-12.0372
▁assemble	-12.0372
▁pitfalls	-12.0372
▁scholars	-12.0372
▁trauma	-12.0372
orridor	-12.0372
▁Monroe	-12.0372
▁Tucker	-12.0372
▁blackmail	-12.0372
▁erupt	-12.0372
▁wagon	-12.0372
Clearly	-12.0372
Imamura	-12.0372
LEASE	-12.0372
ordinate	-12.0372
ô	-12.0372
▁Bronson	-12.0372
▁Carnage	-12.0372
▁Saunders	-12.0372
▁adept	-12.0372
▁bloom	-12.0372
▁glaring	-12.0372
▁perpetual	-12.0372
▁vengeance	-12.0372
▁Bambi	-12.0372
▁Caesar	-12.0372
▁Levant	-12.0372
▁Twent	-12.0372
▁dignity	-12.0372
▁excellenc	-12.0372
▁melting	-12.0372
▁mortal	-12.0372
▁shelves	-12.0372
▁slacker	-12.0372
▁Burke	-12.0372
▁Conrad	-12.0372
▁Eadie	-12.0372
▁GOD	-12.0372
▁Leisin	-12.0372
▁Leonora	-12.0372
▁Owl	-12.0372
▁Pabst	-12.0372
▁Sachar	-12.0372
▁Scene	-12.0372
▁Small	-12.0372
▁cooperat	-12.0372
▁despicable	-12.0372
▁triads	-12.0372
▁Bronte	-12.0372
▁Ironically	-12.0372
▁Leisen	-12.0372
▁Nolte	-12.0372
▁Reign	-12.0372
▁cafe	-12.0372
▁motif	-12.0372
▁styling	-12.0372
▁Blaine	-12.0372
▁Caleb	-12.0372
▁Evangeli	-12.0372
▁Lassie	-12.0372
▁Nurse	-12.0372
▁Sharp	-12.0372
▁Stock	-12.0372
▁Stowe	-12.0372
▁bleeding	-12.0372
▁buffoon	-12.0372
▁performace	-12.0372
Dermot	-12.0372
Ernst	-12.0372
Visually	-12.0372
▁Octo	-12.0372
▁drill	-12.0372
▁Children	-12.0372
▁Kiley	-12.0372
▁apply	-12.0372
▁raunch	-12.0372
▁reform	-12.0372
▁restoration	-12.0372
▁zero	-12.0372
▁Among	-12.0372
▁Beaver	-12.0372
▁Braun	-12.0372
▁Extras	-12.0372
▁carnage	-12.0372
▁enticing	-12.0372
▁implied	-12.0372
▁spiral	-12.0372
▁Simply	-12.0372
▁ploy	-12.0372
▁snatche	-12.0372
▁tacked	-12.0372
1979	-12.0372
WELL	-12.0372
▁(1946)	-12.0372
▁Baloo	-12.0372
▁saber	-12.0372
▁strain	-12.0372
PRISO	-12.0373
▁confine	-12.0373
▁Boothe	-12.0373
▁mellow	-12.0373
▁polite	-12.0373
▁Demme	-12.0373
▁automobile	-12.0373
▁Franklin	-12.0373
▁Smallville	-12.0373
▁joking	-12.0373
▁litter	-12.0373
Macbeth	-12.0373
▁parasite	-12.0373
▁pulp	-12.0373
▁irreveren	-12.0373
▁tyran	-12.0373
▁Sandra	-12.0373
1927	-12.0373
▁booz	-12.0373
▁Armi	-12.0373
▁Possibly	-12.0373
▁Spain	-12.0373
▁cattle	-12.0373
▁lethal	-12.0373
▁AitO	-12.0373
▁Comb	-12.0373
▁gyp	-12.0373
▁prophet	-12.0373
▁wanna	-12.0373
▁gangsta	-12.0373
Correct	-12.0373
ombardier	-12.0373
Brigitt	-12.0373
▁churn	-12.0373
▁observations	-12.0373
▁snoo	-12.0373
▁Isabel	-12.0373
▁labyrinth	-12.0373
▁peep	-12.0373
▁tangle	-12.0373
▁condens	-12.0373
▁chills	-12.0373
▁Fiona	-12.0373
▁Tully	-12.0373
▁youngsters	-12.0373
▁Jeon	-12.0373
▁psychosis	-12.0373
▁Haunt	-12.0373
▁(1982)	-12.0373
▁Busey	-12.0373
▁Yank	-12.0373
▁mobster	-12.0373
▁zeal	-12.0373
▁Monster	-12.0373
▁Wallace	-12.0373
▁depressed	-12.0373
▁Underwood	-12.0373
▁gaunt	-12.0373
Blind	-12.0373
▁Chadha	-12.0373
▁Meyer	-12.0373
▁accusations	-12.0373
▁$10	-12.0373
▁Media	-12.0373
▁vista	-12.0373
▁Govind	-12.0373
▁data	-12.0373
▁Kessle	-12.0373
▁Kumar	-12.0373
▁Creepers	-12.0373
▁divert	-12.0373
▁squea	-12.0373
▁Springwood	-12.0373
▁extract	-12.0373
▁tropic	-12.0373
mbient	-12.0373
December	-12.0373
://	-12.0373
▁existential	-12.0373
▁ordeal	-12.0373
rmila	-12.0373
▁detractors	-12.0373
▁Chester	-12.0373
▁lobby	-12.0373
▁fading	-12.0373
▁hoodlum	-12.0373
Ishq	-12.0373
▁mime	-12.0373
fathom	-12.0373
▁compassion	-12.0373
▁comprise	-12.0373
▁Forrest	-12.0373
▁ditch	-12.0373
patula	-12.0373
▁Hurt	-12.0373
▁runners	-12.0373
▁consummate	-12.0373
▁wives	-12.0373
▁MacDonald	-12.0373
icide	-12.0373
▁voyeurism	-12.0373
Offside	-12.0373
borough	-12.0373
▁animators	-12.0373
▁robbing	-12.0373
▁indulgence	-12.0373
▁behave	-12.0373
▁gently	-12.0373
▁steer	-12.0373
▁shiver	-12.0373
▁manufacture	-12.0373
▁rubber	-12.0374
▁stint	-12.0374
▁macabre	-12.0374
▁breakfast	-12.0374
OLD	-12.0374
scient	-12.0374
▁prank	-12.0374
▁worms	-12.0374
▁Turkey	-12.0374
▁1938	-12.0374
▁scrap	-12.0374
▁cancelled	-12.0374
▁burden	-12.0374
▁declar	-12.0374
▁Talespin	-12.0374
▁Hebrew	-12.0374
▁Project	-12.0374
▁option	-12.0374
▁liberat	-12.0374
▁vegeta	-12.0374
▁Toad	-12.0374
egenerate	-12.0374
▁Sydow	-12.0374
▁mythical	-12.0374
▁Vinson	-12.0374
▁minister	-12.0374
▁rooftop	-12.0374
▁scarred	-12.0374
▁tilt	-12.0374
▁hardened	-12.0374
▁snip	-12.0374
▁thief	-12.0374
Desperate	-12.0374
▁undertone	-12.0374
▁bodyguard	-12.0374
▁meditati	-12.0374
fended	-12.0374
▁english	-12.0374
▁Storm	-12.0374
▁exaggeration	-12.0374
▁monkey	-12.0375
▁NIGHT	-12.0375
▁Stacy	-12.0375
▁scarier	-12.0375
▁Martinez	-12.0375
▁uncertainty	-12.0375
▁throwaway	-12.0375
▁Intent	-12.0375
▁naught	-12.0375
▁Foree	-12.0375
▁Hammer	-12.0375
▁email	-12.0375
▁recurr	-12.0375
▁scandalous	-12.0375
▁clone	-12.0375
▁Finch	-12.0375
▁kidding	-12.0375
UCK	-12.0375
▁import	-12.0375
▁Corps	-12.0375
uncredited	-12.0375
▁inheritance	-12.0375
▁Bunny	-12.0375
▁blaz	-12.0375
▁prospect	-12.0376
▁ANY	-12.0376
▁craving	-12.0376
▁Quant	-12.0376
▁chops	-12.0376
▁typecast	-12.0376
▁palette	-12.0376
▁Edgar	-12.0376
▁definat	-12.0376
▁perky	-12.0376
OTT	-12.0376
▁infant	-12.0376
▁Leigh	-12.0376
▁viril	-12.0376
▁horseback	-12.0376
▁nutty	-12.0376
▁resourceful	-12.0376
QU	-12.0376
▁blob	-12.0376
▁irre	-12.0376
▁Saber	-12.0377
▁misery	-12.0377
▁Magn	-12.0377
▁props	-12.0377
▁Alexandr	-12.0377
▁loathe	-12.0377
▁adulthood	-12.0377
ammerhead	-12.0377
▁picturesque	-12.0377
▁taut	-12.0377
crawl	-12.0377
▁villagers	-12.0377
▁Beban	-12.0377
Camera	-12.0377
▁orgy	-12.0377
▁Tenant	-12.0377
▁investment	-12.0378
▁vanish	-12.0378
▁click	-12.0378
▁Head	-12.0378
Third	-12.0378
▁leap	-12.0378
▁Sheets	-12.0378
▁info	-12.0378
▁gangland	-12.0379
▁undermine	-12.0379
Question	-12.0379
▁boom	-12.0379
▁reversed	-12.0379
▁OUT	-12.0379
▁midnight	-12.0379
▁Mumb	-12.038
▁Holland	-12.038
▁186	-12.038
Antoniett	-12.0381
▁divide	-12.0381
▁disappearance	-12.0381
Couple	-12.0381
▁evad	-12.0381
▁Saul	-12.0381
▁Blanc	-12.0381
▁Madhu	-12.0382
▁Suz	-12.0382
▁$1	-12.0382
▁chip	-12.0382
▁spice	-12.0383
Criteri	-12.0383
▁stoop	-12.0383
▁Horne	-12.0384
▁alert	-12.0384
▁engl	-12.0384
▁Flock	-12.0385
▁Senat	-12.0386
Shor	-12.0386
▁Money	-12.0386
▁futil	-12.0386
▁bench	-12.0387
▁improvise	-12.0388
▁acid	-12.0388
▁Stig	-12.0389
IFF	-12.039
▁seni	-12.0391
▁Brod	-12.0392
▁FAC	-12.0392
retard	-12.0393
▁FRO	-12.0394
retail	-12.0394
▁choke	-12.0395
▁Plat	-12.0395
09	-12.0396
▁paradi	-12.0397
▁shambl	-12.0398
Emil	-12.0402
▁Berna	-12.0404
atherine	-12.0407
noue	-12.0409
orean	-12.0409
▁geo	-12.0412
merge	-12.0414
▁Michel	-12.0418
oodle	-12.0419
▁Heath	-12.0422
▁Hindu	-12.0426
▁chopp	-12.0427
▁Contr	-12.0431
SCI	-12.0431
▁abduct	-12.0434
▁exile	-12.0444
▁Cleve	-12.0444
▁dreadful	-12.0454
▁breakdanc	-12.0455
eiji	-12.046
Anyhow	-12.0472
rissa	-12.0475
▁Epi	-12.0477
▁shatter	-12.0482
eunion	-12.0488
exterminat	-12.0499
populated	-12.0504
neide	-12.0506
▁capitalize	-12.0513
hostess	-12.0517
▁glove	-12.0526
▁participat	-12.0529
ptuous	-12.0533
comprehensible	-12.0542
Claudia	-12.055
dultery	-12.0553
adha	-12.0561
▁Total	-12.059
andicapped	-12.0596
unsav	-12.0599
upert	-12.0604
▁Lynn	-12.0605
spare	-12.0607
ZEN	-12.061
▁vaudevill	-12.0611
▁Ferr	-12.0621
aghan	-12.0622
riad	-12.0627
abee	-12.0652
Esther	-12.067
maze	-12.0674
Iago	-12.0684
pendant	-12.0685
predictably	-12.0697
design	-12.0738
▁Lynd	-12.0741
▁resur	-12.0759
rounded	-12.078
Denn	-12.0839
▁!!!!!!!!!!!	-12.0864
unjab	-12.0876
smack	-12.0921
▁brag	-12.0931
VER	-12.0964
oogie	-12.0973
1981	-12.0978
topia	-12.0981
▁Melv	-12.0985
cceptance	-12.1005
terior	-12.1035
sensationalis	-12.1039
▁recap	-12.1049
defens	-12.1074
agger	-12.1128
luckily	-12.1166
Shane	-12.1179
▁arouse	-12.12
bore	-12.1221
sync	-12.1327
addles	-12.1345
fishing	-12.1416
Margo	-12.147
▁err	-12.1518
▁Row	-12.1607
ustere	-12.178
spirited	-12.1793
▁promis	-12.2028
Holly	-12.21
▁comfortabl	-12.2107
▁quot	-12.2237
ilitar	-12.2263
bubbly	-12.2278
▁Escap	-12.2318
AVE	-12.232
▁stereotyp	-12.2338
Stay	-12.2396
AGES	-12.2419
fetched	-12.2427
Duchovny	-12.2458
▁padd	-12.2493
SAP	-12.2497
▁judg	-12.2513
▁rippe	-12.2568
demons	-12.2576
Marvel	-12.2599
▁admirabl	-12.2867
Spoo	-12.3008
monsters	-12.302
aggy	-12.3123
▁illustr	-12.3189
Work	-12.3203
▁unluck	-12.3207
aughn	-12.3241
▁infinit	-12.3333
▁eeri	-12.3348
▁dollar	-12.3394
▁Winter	-12.3397
▁handicap	-12.3403
▁machin	-12.3473
ARS	-12.3513
ggi	-12.3536
dancing	-12.3539
▁implicat	-12.3585
psychologi	-12.3607
82)	-12.3613
▁delv	-12.3614
▁purchas	-12.3631
Okay	-12.3632
traveling	-12.3632
Bazza	-12.3632
Superman	-12.3632
Spring	-12.3632
Amazing	-12.3633
Bravo	-12.3633
Kansas	-12.3633
Recommended	-12.3633
exposure	-12.3633
Legend	-12.3633
Craig	-12.3633
possibility	-12.3633
Enjoy	-12.3633
Linda	-12.3633
historic	-12.3633
Consider	-12.3633
Lindsay	-12.3633
Would	-12.3633
performed	-12.3634
bodies	-12.3634
Zero	-12.3634
Besides	-12.3634
Horror	-12.3634
Friends	-12.3634
painting	-12.3634
Robin	-12.3634
Thomas	-12.3634
Winchester	-12.3634
Ghost	-12.3634
location	-12.3634
Prince	-12.3635
chapter	-12.3635
sequence	-12.3635
Home	-12.3635
Matthau	-12.3635
Especially	-12.3635
bomb	-12.3635
sentimental	-12.3635
standard	-12.3635
Fonda	-12.3635
appropriate	-12.3635
wife	-12.3635
Pacino	-12.3635
parody	-12.3635
Widmark	-12.3635
Halloween	-12.3635
boyfriend	-12.3635
Helen	-12.3635
Bruce	-12.3635
Gerard	-12.3635
Astaire	-12.3635
Stephen	-12.3635
engaging	-12.3635
Dark	-12.3635
Brad	-12.3636
teacher	-12.3636
involving	-12.3636
Sullivan	-12.3636
relative	-12.3636
wrote	-12.3636
Luis	-12.3636
understand	-12.3636
surprise	-12.3636
shoot	-12.3636
creative	-12.3636
detective	-12.3636
business	-12.3636
female	-12.3636
trust	-12.3636
adventure	-12.3636
English	-12.3636
Film	-12.3636
social	-12.3636
important	-12.3636
thriller	-12.3636
York	-12.3636
behind	-12.3636
episode	-12.3636
murder	-12.3636
audience	-12.3636
Disney	-12.3636
together	-12.3636
different	-12.3637
DVD	-12.3637
More	-12.3637
compar	-12.3639
Lauren	-12.364
▁mili	-12.3645
▁disgust	-12.3649
▁contriv	-12.3656
chilling	-12.3656
▁complicat	-12.3658
▁thorough	-12.3667
▁captivate	-12.3674
ployed	-12.3675
▁reduce	-12.3675
▁unbelievabl	-12.368
▁Australia	-12.368
▁unknow	-12.3681
helmed	-12.3682
▁middl	-12.3688
▁quarte	-12.369
▁paranoi	-12.3692
▁aggressi	-12.3694
▁unfai	-12.3697
mpossible	-12.3701
▁equat	-12.3701
▁collaborat	-12.3701
▁Animat	-12.3702
calcula	-12.3703
▁journal	-12.3703
rofessional	-12.3704
▁enigma	-12.3704
▁opportuni	-12.3704
anufactur	-12.3704
mpassion	-12.3704
▁proceed	-12.3704
▁voyeur	-12.3704
▁convers	-12.3704
ecutive	-12.3705
▁sympathi	-12.3705
▁intellect	-12.3705
utstanding	-12.3705
▁easie	-12.3705
Certain	-12.3705
EEEE	-12.3706
sensitivity	-12.3706
surmount	-12.3706
volunteer	-12.3706
í	-12.3706
▁sarcastic	-12.3706
▁wrestl	-12.3706
1.85:1	-12.3706
EVIL	-12.3706
Felitta	-12.3706
Geoffrey	-12.3706
Gershwin	-12.3706
Goodfellas	-12.3706
NOTE	-12.3706
Slaughter	-12.3706
TITANIC	-12.3706
Thuggee	-12.3706
Transformers	-12.3706
Wednesday	-12.3706
Witchblade	-12.3706
abashed	-12.3706
aucasian	-12.3706
avanagh	-12.3706
blaxploitation	-12.3706
cheesiness	-12.3706
devastation	-12.3706
dministration	-12.3706
fictitious	-12.3706
hitchhik	-12.3706
ophilia	-12.3706
paghetti	-12.3706
rrondissement	-12.3706
surrection	-12.3706
technician	-12.3706
terranean	-12.3706
withstanding	-12.3706
ypocris	-12.3706
ß	-12.3706
▁(1945)	-12.3706
▁(1976)	-12.3706
▁(1999)	-12.3706
▁(2000)	-12.3706
▁(2006)	-12.3706
▁1942	-12.3706
▁1954	-12.3706
▁1974	-12.3706
▁1989	-12.3706
▁AWESOME	-12.3706
▁Afflec	-12.3706
▁Afrikaner	-12.3706
▁Amrita	-12.3706
▁Atlantean	-12.3706
▁BABYSITTER	-12.3706
▁BAFTA	-12.3706
▁BLOOD	-12.3706
▁Bartram	-12.3706
▁Beckett	-12.3706
▁Bettany	-12.3706
▁Bissonnette	-12.3706
▁Bolivia	-12.3706
▁Boreanaz	-12.3706
▁Borgnine	-12.3706
▁Bouvier	-12.3706
▁Brennan	-12.3706
▁Brennen	-12.3706
▁Buaku	-12.3706
▁CHILD	-12.3706
▁CINDERELLA	-12.3706
▁Cambodia	-12.3706
▁Cartwright	-12.3706
▁Castorini	-12.3706
▁Centipede	-12.3706
▁Chahine	-12.3706
▁Chikatilo	-12.3706
▁Circu	-12.3706
▁Clementine	-12.3706
▁Columbus	-12.3706
▁Commies	-12.3706
▁Corporation	-12.3706
▁Corsaut	-12.3706
▁Coulier	-12.3706
▁Crispin	-12.3706
▁DELIRIOUS	-12.3706
▁Dauphin	-12.3706
▁Depardieu	-12.3706
▁Detroit	-12.3706
▁Dormael	-12.3706
▁Dreyfus	-12.3706
▁Dundee	-12.3706
▁ENJOY	-12.3706
▁Eraserhead	-12.3706
▁Express	-12.3706
▁FISHER	-12.3706
▁Fabulous	-12.3706
▁Fellini	-12.3706
▁Fessenden	-12.3706
▁Fetisov	-12.3706
▁Finlayson	-12.3706
▁Fitzgerald	-12.3706
▁Foreign	-12.3706
▁Françoise	-12.3706
▁GAME	-12.3706
▁Gazzara	-12.3706
▁Gershuni	-12.3706
▁Ghibli	-12.3706
▁HAUNTING	-12.3706
▁HIGH	-12.3706
▁Hardwicke	-12.3706
▁Hawkins	-12.3706
▁Heyerdahl	-12.3706
▁Holocaust	-12.3706
▁IMHO	-12.3706
▁Improve	-12.3706
▁JACK	-12.3706
▁Kafka	-12.3706
▁Krabbé	-12.3706
▁LOOK	-12.3706
▁LaBeouf	-12.3706
▁Lithgow	-12.3706
▁Lollobrigida	-12.3706
▁Longstreet	-12.3706
▁MACABRE	-12.3706
▁Mankiewicz	-12.3706
▁Manojlovic	-12.3706
▁Matuschek	-12.3706
▁Minister	-12.3706
▁Mirror	-12.3706
▁Moslem	-12.3706
▁Mountain	-12.3706
▁Mulligan	-12.3706
▁Nashville	-12.3706
▁Novarro	-12.3706
▁OXFORD	-12.3706
▁Octopus	-12.3706
▁Olsen	-12.3706
▁Osama	-12.3706
▁Palestinian	-12.3706
▁Peckinpah	-12.3706
▁Pereira	-12.3706
▁Phantasm	-12.3706
▁Philadelphia	-12.3706
▁Pidgeon	-12.3706
▁Plowright	-12.3706
▁Portray	-12.3706
▁Predator	-12.3706
▁Pressburger	-12.3706
▁Public	-12.3706
▁READ	-12.3706
▁REVENGE	-12.3706
▁Rawlins	-12.3706
▁Redemption	-12.3706
▁Ribisi	-12.3706
▁Rizzo	-12.3706
▁Roemheld	-12.3706
▁SOME	-12.3706
▁Sabella	-12.3706
▁Salazar	-12.3706
▁Sarandon	-12.3706
▁Schlesinger	-12.3706
▁Scorsese	-12.3706
▁Seriously	-12.3706
▁Shimizu	-12.3706
▁Sioux	-12.3706
▁Sophie	-12.3706
▁Sorbonne	-12.3706
▁SpaceCamp	-12.3706
▁Srbljanovic	-12.3706
▁Steinmann	-12.3706
▁Stephanie	-12.3706
▁Tamerlane	-12.3706
▁Trotta	-12.3706
▁Tyrannus	-12.3706
▁Ultimatum	-12.3706
▁Understand	-12.3706
▁Vartan	-12.3706
▁Vivah	-12.3706
▁WILD	-12.3706
▁Waterfront	-12.3706
▁Weissmuller	-12.3706
▁Winkler	-12.3706
▁Yoakum	-12.3706
▁Zhivago	-12.3706
▁acrobatic	-12.3706
▁adolescence	-12.3706
▁affiliat	-12.3706
▁afloat	-12.3706
▁allegations	-12.3706
▁anecdote	-12.3706
▁anthropologist	-12.3706
▁appalling	-12.3706
▁appetite	-12.3706
▁automatically	-12.3706
▁barrister	-12.3706
▁bonkers	-12.3706
▁brooding	-12.3706
▁caretaker	-12.3706
▁cigarette	-12.3706
▁clouds	-12.3706
▁clunker	-12.3706
▁clunky	-12.3706
▁coincidentally	-12.3706
▁complicit	-12.3706
▁concoct	-12.3706
▁confederates	-12.3706
▁congregation	-12.3706
▁constraints	-12.3706
▁contemporaries	-12.3706
▁contrary	-12.3706
▁criteria	-12.3706
▁crusader	-12.3706
▁delectable	-12.3706
▁deteriorate	-12.3706
▁diabolical	-12.3706
▁district	-12.3706
▁doppelganger	-12.3706
▁embodiment	-12.3706
▁embroiled	-12.3706
▁encapsul	-12.3706
▁entrench	-12.3706
▁entries	-12.3706
▁esoteric	-12.3706
▁ethnic	-12.3706
▁exhausted	-12.3706
▁exhilarating	-12.3706
▁extinct	-12.3706
▁financier	-12.3706
▁forerunner	-12.3706
▁glamour	-12.3706
▁governor	-12.3706
▁hallmark	-12.3706
▁histrionic	-12.3706
▁hypocrit	-12.3706
▁hysteria	-12.3706
▁immortalize	-12.3706
▁impeccable	-12.3706
▁implausible	-12.3706
▁inaccuracies	-12.3706
▁inexorably	-12.3706
▁injuries	-12.3706
▁insecure	-12.3706
▁intrusion	-12.3706
▁laconic	-12.3706
▁machismo	-12.3706
▁marijuana	-12.3706
▁medicine	-12.3706
▁meridian	-12.3706
▁misinterpret	-12.3706
▁morph	-12.3706
▁motorcycle	-12.3706
▁muppet	-12.3706
▁mutilat	-12.3706
▁narcissism	-12.3706
▁nifty	-12.3706
▁oblivio	-12.3706
▁occupation	-12.3706
▁oeuvre	-12.3706
▁overjoyed	-12.3706
▁perdition	-12.3706
▁perpetrat	-12.3706
▁phantasm	-12.3706
▁phantom	-12.3706
▁pizza	-12.3706
▁plausible	-12.3706
▁politician	-12.3706
▁popcorn	-12.3706
▁populace	-12.3706
▁pretensions	-12.3706
▁privilege	-12.3706
▁pronounce	-12.3706
▁punctuate	-12.3706
▁puppy	-12.3706
▁quibble	-12.3706
▁railroad	-12.3706
▁rebellious	-12.3706
▁rediscover	-12.3706
▁reinforce	-12.3706
▁rejoice	-12.3706
▁remnant	-12.3706
▁rendezvous	-12.3706
▁republic	-12.3706
▁residence	-12.3706
▁rhym	-12.3706
▁sabotage	-12.3706
▁saint	-12.3706
▁shakespeare	-12.3706
▁silliness	-12.3706
▁sleuth	-12.3706
▁smuggle	-12.3706
▁spellbinding	-12.3706
▁squeeze	-12.3706
▁stitches	-12.3706
▁strateg	-12.3706
▁subjugat	-12.3706
▁submarine	-12.3706
▁suffocat	-12.3706
▁superlative	-12.3706
▁supermarket	-12.3706
▁surgery	-12.3706
▁surrogate	-12.3706
▁survey	-12.3706
▁swindler	-12.3706
▁technicolo	-12.3706
▁telescope	-12.3706
▁thirteen	-12.3706
▁tragedies	-12.3706
▁tribulation	-12.3706
▁tunnel	-12.3706
▁turtle	-12.3706
▁unavail	-12.3706
▁unbeknown	-12.3706
▁unhappi	-12.3706
▁unhealthy	-12.3706
▁unmistakabl	-12.3706
▁unparalleled	-12.3706
▁unresolved	-12.3706
▁unsubtle	-12.3706
▁unsurpassed	-12.3706
▁unsuspect	-12.3706
▁utilise	-12.3706
▁virtuosi	-12.3706
▁whistles	-12.3706
▁wrangl	-12.3706
COUNT	-12.3706
Thursby	-12.3706
scrupulous	-12.3706
▁Awesome	-12.3706
▁FOLLOW	-12.3706
▁Factory	-12.3706
▁Gilbert	-12.3706
▁Kamina	-12.3706
▁Oregon	-12.3706
▁Picasso	-12.3706
▁baffling	-12.3706
▁comprehend	-12.3706
▁disrespect	-12.3706
▁eloquent	-12.3706
▁embezzle	-12.3706
▁evacu	-12.3706
▁heterosexual	-12.3706
▁honky	-12.3706
▁kitten	-12.3706
▁kooky	-12.3706
▁prompt	-12.3706
▁provoke	-12.3706
▁railway	-12.3706
▁reconcil	-12.3706
▁relocate	-12.3706
▁replica	-12.3706
▁skull	-12.3706
▁suffice	-12.3706
▁supreme	-12.3706
▁tearjerker	-12.3706
▁tonalities	-12.3706
▁townsfolk	-12.3706
▁unrelenting	-12.3706
HARLE	-12.3706
Nemesis	-12.3706
ULT	-12.3706
abbling	-12.3706
luminous	-12.3706
▁Adult	-12.3706
▁Austria	-12.3706
▁Begins	-12.3706
▁Bogdan	-12.3706
▁Brendon	-12.3706
▁Cortez	-12.3706
▁Crosby	-12.3706
▁FREDDY	-12.3706
▁GARD	-12.3706
▁Gilmore	-12.3706
▁Hiralal	-12.3706
▁Informer	-12.3706
▁Internet	-12.3706
▁KIND	-12.3706
▁Kimberly	-12.3706
▁Liberty	-12.3706
▁Lucien	-12.3706
▁Marlene	-12.3706
▁Nagra	-12.3706
▁Nettie	-12.3706
▁Okada	-12.3706
▁Ouedraogo	-12.3706
▁Quillan	-12.3706
▁RKO	-12.3706
▁Tintin	-12.3706
▁architect	-12.3706
▁babies	-12.3706
▁declined	-12.3706
▁decoration	-12.3706
▁dignified	-12.3706
▁diminish	-12.3706
▁disarming	-12.3706
▁eternal	-12.3706
▁eyebrows	-12.3706
▁forlorn	-12.3706
▁frolic	-12.3706
▁gratitude	-12.3706
▁hackneyed	-12.3706
▁imperative	-12.3706
▁legacy	-12.3706
▁munshi	-12.3706
▁occult	-12.3706
▁penalty	-12.3706
▁persuasi	-12.3706
▁perverse	-12.3706
▁pillow	-12.3706
▁pistol	-12.3706
▁sputter	-12.3706
▁syndicat	-12.3706
▁whirl	-12.3706
▁Baxter	-12.3706
▁Cillian	-12.3706
▁Cruz	-12.3706
▁Hackman	-12.3706
▁Paquin	-12.3706
▁ROB	-12.3706
▁Recall	-12.3706
▁Support	-12.3706
▁Taoist	-12.3706
▁VCR	-12.3706
▁allegory	-12.3706
▁angrily	-12.3706
▁cleanliness	-12.3706
▁devout	-12.3706
▁diction	-12.3706
▁gallery	-12.3706
▁misadventures	-12.3706
▁salute	-12.3706
▁troupe	-12.3706
▁vomit	-12.3706
APTA	-12.3706
ATES	-12.3706
Imzadi	-12.3706
▁Beetle	-12.3706
▁Compan	-12.3706
▁Generation	-12.3706
▁Harbor	-12.3706
▁Mridul	-12.3706
▁RPG	-12.3706
▁Razor	-12.3706
▁Suspen	-12.3706
▁Tiki	-12.3706
▁Zealand	-12.3706
▁cloak	-12.3706
▁consult	-12.3706
▁deceiv	-12.3706
▁drool	-12.3706
▁feisty	-12.3706
▁flirtatio	-12.3706
▁harass	-12.3706
▁hillbill	-12.3706
▁intertwine	-12.3706
▁martyr	-12.3706
▁rarity	-12.3706
▁sniff	-12.3706
▁unheard	-12.3706
Fanny	-12.3706
▁Airship	-12.3706
▁Dallas	-12.3706
▁Ferdie	-12.3706
▁align	-12.3706
▁dawn	-12.3706
▁unmask	-12.3706
▁Fineman	-12.3706
▁Shelby	-12.3706
▁Troma	-12.3706
▁droll	-12.3706
▁fierce	-12.3706
▁hypnotist	-12.3706
▁propel	-12.3706
▁provinc	-12.3706
▁thirst	-12.3706
▁throne	-12.3706
Imperial	-12.3706
azzle	-12.3706
▁Austen	-12.3706
▁Dooley	-12.3706
▁Shield	-12.3706
▁finance	-12.3706
Interesting	-12.3706
▁Blaz	-12.3706
▁Chong	-12.3706
▁Latham	-12.3706
▁Network	-12.3706
▁Paige	-12.3706
▁Scrat	-12.3706
▁Shatner	-12.3706
▁rambling	-12.3706
▁rewind	-12.3706
▁rumor	-12.3706
▁stooge	-12.3706
▁worried	-12.3706
▁BTW	-12.3706
▁Enix	-12.3706
▁HIV	-12.3706
▁demise	-12.3706
▁harmony	-12.3706
▁inhumanity	-12.3706
▁Foley	-12.3706
▁Shelton	-12.3706
▁article	-12.3706
▁stroll	-12.3706
▁tissues	-12.3706
▁Bogie	-12.3706
▁conceit	-12.3706
deformed	-12.3706
fidelity	-12.3706
▁BLO	-12.3706
▁Munro	-12.3706
▁forensic	-12.3706
▁ribald	-12.3706
▁unfla	-12.3706
ldrick	-12.3706
▁Should	-12.3706
▁maddening	-12.3706
▁Dillon	-12.3706
▁deceit	-12.3706
▁outlandish	-12.3706
▁McCa	-12.3706
▁cherish	-12.3706
▁vicar	-12.3706
Eduard	-12.3706
Impact	-12.3706
▁Perkins	-12.3706
▁brawl	-12.3706
▁margin	-12.3706
▁storyteller	-12.3706
▁Arrow	-12.3706
▁Denver	-12.3706
▁Snare	-12.3706
▁molest	-12.3706
▁urinat	-12.3706
IRL	-12.3706
▁Canyon	-12.3706
▁Reich	-12.3706
▁Sawyer	-12.3706
▁Sofia	-12.3706
umbler	-12.3706
▁Hawn	-12.3706
▁PBS	-12.3706
▁exonerate	-12.3706
▁videotape	-12.3706
HARM	-12.3706
▁bribe	-12.3706
▁Bava	-12.3706
▁Ironside	-12.3706
▁lousy	-12.3706
▁Sweetin	-12.3706
▁sailplane	-12.3706
choosing	-12.3706
▁chore	-12.3706
▁Dealers	-12.3706
▁intervene	-12.3706
▁reign	-12.3706
▁biased	-12.3706
▁entail	-12.3706
▁patriotism	-12.3706
ç	-12.8706
{	-13.8639
⁄	-13.8695
ü	-13.8696
ñ	-13.8697
£	-13.8698
[	-13.8699
ö	-13.87
	-13.8701
́	-13.8702
è	-13.8703
̈	-13.8704
